/**
  ******************************************************************************
  * @file    network_ecblobs.h
  * @brief   NN Code autogenerated DO NOT MODIFY IT
  ******************************************************************************
  * @attention
  *
  * Copyright (c) 2024 STMicroelectronics.
  * All rights reserved.
  *
  * This software is licensed under terms that can be found in the LICENSE file
  * in the root directory of this software component.
  * If no LICENSE file comes with this software, it is provided AS-IS.
  *
  ******************************************************************************
  */


#ifdef __cplusplus
extern "C" {
#endif

#include "ll_aton_caches_interface.h"

#include <string.h>

#if !defined(ECBLOB_CONST_SECTION)
#define ECBLOB_CONST_SECTION /* Empty */
#endif
#if !defined(ECBLOB_RUNTIME_SECTION)
#define ECBLOB_RUNTIME_SECTION /* Empty */
#endif

ECBLOB_CONST_SECTION
// aligned to the cache line size (equal to 64 bytes)
__attribute__((aligned(64)))
static const uint64_t _ec_blob_network_1[6040] =
{
  0x00002f25ca057a7aUL, 0x0000005d0000003dUL, 0x5c00004200802241UL, 0x1500006008000000UL,
  0x000700005c027c00UL, 0x000040005c070043UL, 0x5c0c00430000ffe0UL, 0x1041204200000000UL,
  0x30007c00008020e1UL, 0x3002004300080104UL, 0x00006c00342e0000UL, 0x00000000300500c3UL,
  0x0000000000006c00UL, 0x0000002400000000UL, 0x300c004200100000UL, 0x0000000700000006UL,
  0x00000001300d0043UL, 0x30110043342e6c3fUL, 0x0000000000000000UL, 0x14007c0000802001UL,
  0x140200430008010cUL, 0x00006c00342e6c00UL, 0x00000000140500c3UL, 0x0000000000006c00UL,
  0x0000002400000000UL, 0x140c004200100000UL, 0x0000000700000006UL, 0x00000001140d0043UL,
  0x14110043342ed83fUL, 0x0000000000000000UL, 0x0000000210007c00UL, 0x0000006410000424UL,
  0x10007c0000000000UL, 0x10007bc440000000UL, 0x0000000000000064UL, 0x0000000110007c00UL,
  0x0000002510027c00UL, 0x0000000f101e7c00UL, 0x5c00200114002001UL, 0x14007fe430002001UL,
  0x0000000000000064UL, 0x0000000010027c00UL, 0x00000000101e7c00UL, 0x0000000214007c00UL,
  0x0000006414000424UL, 0x14007c0000000000UL, 0x14007bc440000000UL, 0x0000000000000064UL,
  0x5c007c0000800001UL, 0x5c00042408000002UL, 0x0000000000000064UL, 0x480000005c007c00UL,
  0x000000645c007bc4UL, 0x0080024100000000UL, 0x0000000230007c00UL, 0x0000006430000424UL,
  0x30007c0000000000UL, 0x30007bc440000000UL, 0x0000000000000064UL, 0x0000007d008000e1UL,
  0x3c007c0000802141UL, 0x3c0200e300000054UL, 0x0000224404030303UL, 0x0060012010a34303UL,
  0x005f0000011f0000UL, 0x3c0a7c0000000001UL, 0x3c0c004300000000UL, 0x0000000000ffffffUL,
  0x6000004200802261UL, 0x156000fc08000000UL, 0x000a000060020123UL, 0x0000000300000000UL,
  0x000047ff000023ffUL, 0x0000000000000000UL, 0x0000000107e403fdUL, 0x00000000600c0043UL,
  0x600b7c0020422042UL, 0x6100020300000001UL, 0x0000dc91fb023765UL, 0x0000fe43f80b5155UL,
  0x00002369faaf7726UL, 0x00001742fa830a5aUL, 0x000092f5fa9c2440UL, 0x0000ca64fb312198UL,
  0x0000fba5f92c1447UL, 0x0000972bfa3c59a5UL, 0x6400004200802281UL, 0x1500000008000000UL,
  0x0007000064027c00UL, 0x0000400064070043UL, 0x640c004300000020UL, 0x1041104100000000UL,
  0x40007c0000802161UL, 0x400200e300100034UL, 0x0000115504040303UL, 0x003000c010634303UL,
  0x002f000000bf0000UL, 0x400a7c0000000001UL, 0x400d7c0000000000UL, 0x008022a100000000UL,
  0x0800000068000042UL, 0x68020123156000fcUL, 0x0000000000090000UL, 0x000023ff00000003UL,
  0x00000000000047ffUL, 0x07e403fd00000000UL, 0x680c004300000001UL, 0x2042204200000000UL,
  0x00000001680b7c00UL, 0xfdcf1be569000203UL, 0xfdf36a9800002e64UL, 0xfe440b400000822bUL,
  0xfe104d2e0000ebadUL, 0xfe310fb80000ff14UL, 0xfe15696400008406UL, 0xfdce7dcb000040bbUL,
  0xfe1c7aa200007e7cUL, 0x008022410000ae8bUL, 0x080000005c000042UL, 0x5c027c0015000000UL,
  0x5c07004300070000UL, 0x0000002000004000UL, 0x000000005c0c0043UL, 0x0080202110411041UL,
  0x0008c10018007c00UL, 0x342e6c0018020043UL, 0x180500c300006c00UL, 0x00006c0000000000UL,
  0x0000000000000001UL, 0x0010000000000024UL, 0x00000006180c0042UL, 0x180d004300000007UL,
  0x342ed83f00000002UL, 0x0000000018110043UL, 0x0080208100000000UL, 0x0008c18424007c00UL,
  0x703b3d2024020043UL, 0x240500c3000000d8UL, 0x0000000000000000UL, 0x0000000000000000UL,
  0x0010000000000024UL, 0x00000006240c0042UL, 0x240d004300000007UL, 0x703b3e3700000001UL,
  0x0000000024110043UL, 0x008020e100000008UL, 0x0008018430007c00UL, 0x703b3c0030020043UL,
  0x300500c300000120UL, 0x0000000000000000UL, 0x0000000000000000UL, 0x0010000000000024UL,
  0x00000006300c0042UL, 0x300d004300000007UL, 0x703b3d5f00000001UL, 0x0000000030110043UL,
  0x0080212100000008UL, 0x0008000838007c00UL, 0x342ed80038020123UL, 0x0008000400300030UL,
  0x0000000400000180UL, 0x0000480000000002UL, 0x0010000000000024UL, 0x00000006380c0042UL,
  0x380d004300000007UL, 0x342f203f00000002UL, 0x0000000038110043UL, 0x10007c0000000000UL,
  0x1000042400000002UL, 0x0000000000000064UL, 0x4000000010007c00UL, 0x0000006410007bc4UL,
  0x10007c0000000000UL, 0x100b006300000001UL, 0x0000000300000025UL, 0x100f004300000009UL,
  0x0000000fff280229UL, 0x0000002b101e7c00UL, 0x0000001510207c00UL, 0x0000002710227c00UL,
  0x0000001710247c00UL, 0x3c007c0038002001UL, 0x40007c0000000055UL, 0x5c00200100100035UL,
  0x6400200160002001UL, 0x1800200168002001UL, 0x3000200124002001UL, 0x0000006438007fe4UL,
  0x100b006300000000UL, 0x0000000000000000UL, 0x100f004300000000UL, 0x0000000000000000UL,
  0x00000000101e7c00UL, 0x0000000010207c00UL, 0x0000000010227c00UL, 0x0000000010247c00UL,
  0x0000000238007c00UL, 0x0000006438000424UL, 0x38007c0000000000UL, 0x38007bc440000000UL,
  0x0000000000000064UL, 0x3c007c0000800121UL, 0x3c00042400000002UL, 0x0000000000000064UL,
  0x400000003c007c00UL, 0x000000643c007bc4UL, 0x0080014100000000UL, 0x0000000240007c00UL,
  0x0000006440000424UL, 0x40007c0000000000UL, 0x40007bc440000000UL, 0x0000000000000064UL,
  0x5c007c0000800161UL, 0x5c00042408000002UL, 0x0000000000000064UL, 0x480000005c007c00UL,
  0x000000645c007bc4UL, 0x0080024100000000UL, 0x0800000260007c00UL, 0x0000006460000424UL,
  0x60007c0000000000UL, 0x60007bc448000000UL, 0x0000000000000064UL, 0x64007c0000800261UL,
  0x6400042408000002UL, 0x0000000000000064UL, 0x4800000064007c00UL, 0x0000006464007bc4UL,
  0x0080028100000000UL, 0x0800000268007c00UL, 0x0000006468000424UL, 0x68007c0000000000UL,
  0x68007bc448000000UL, 0x0000000000000064UL, 0x18007c00008002a1UL, 0x1800042400000002UL,
  0x0000000000000064UL, 0x4000000018007c00UL, 0x0000006418007bc4UL, 0x0080002100000000UL,
  0x0000000224007c00UL, 0x0000006424000424UL, 0x24007c0000000000UL, 0x24007bc440000000UL,
  0x0000000000000064UL, 0x30007c0000800081UL, 0x3000042400000002UL, 0x0000000000000064UL,
  0x4000000030007c00UL, 0x0000006430007bc4UL, 0x008000e100000000UL, 0x008021810000009dUL,
  0x0010003444007c00UL, 0x10080101440200e3UL, 0x1063420200001100UL, 0x017f000000300180UL,
  0x00000001002f0000UL, 0x00000000440a7c00UL, 0x00000000440d7c00UL, 0x5c00004200802241UL,
  0x156000fc08000000UL, 0x000880005c020123UL, 0x0000000f00000000UL, 0x00008fff00008fffUL,
  0x0000000000000000UL, 0x0000000107c403f1UL, 0x000000005c0c0043UL, 0x5c0b7c0020422042UL,
  0x5d00040300000001UL, 0x00009dfafebd1053UL, 0x0000c391fff012b1UL, 0x00009e25fee927caUL,
  0x0000a60effe41127UL, 0x0000ba27fe961c90UL, 0x00000ec6ffab39caUL, 0x000011d5fef81a32UL,
  0x0000b340fe8012baUL, 0x0000f5f3feb443c3UL, 0x00005feeff5715f6UL, 0x0000559afeb90df4UL,
  0x000062acfea01162UL, 0x000016cdfeba0130UL, 0x00004a02fe46129fUL, 0x0000aff2ff0c0b8cUL,
  0x00003514fea313dcUL, 0x6000004200802261UL, 0x1500000008000000UL, 0x0007000060027c00UL,
  0x0000400060070043UL, 0x600c004300000020UL, 0x1041104100000000UL, 0x14007c0000802001UL,
  0x1402004300080104UL, 0x00004800342ed800UL, 0x00000000140500c3UL, 0x0000000100004800UL,
  0x0000002400000000UL, 0x140c004200100000UL, 0x0000000700000006UL, 0x00000001140d0043UL,
  0x14110043342f203fUL, 0x0000000000000000UL, 0x20007c0000802061UL, 0x2002004300080184UL,
  0x00000080703b3e00UL, 0x00000000200500c3UL, 0x0000000000000000UL, 0x0000002400000000UL,
  0x200c004200100000UL, 0x0000000700000006UL, 0x00000001200d0043UL, 0x20110043703b3ebfUL,
  0x0000000800000000UL, 0x30007c00008020e1UL, 0x3002012300080008UL, 0x00300004342e0000UL,
  0x0000000424000004UL, 0x00000030000000c0UL, 0x0000002400009000UL, 0x300c004200100000UL,
  0x0000000700000006UL, 0x00000030300d0043UL, 0x30110043342e903fUL, 0x0000000000000000UL,
  0x0000000210007c00UL, 0x0000006410000424UL, 0x10007c0000000000UL, 0x10007bc440000000UL,
  0x0000000000000064UL, 0x0000000110007c00UL, 0x0000002710097c00UL, 0x0000000110120043UL,
  0x101e7c0000000007UL, 0x10207c0000000019UL, 0x3000200100000025UL, 0x0010003544007c00UL,
  0x600020015c002001UL, 0x2000200114002001UL, 0x0000006430007fe4UL, 0x10097c0000000000UL,
  0x1012004300000000UL, 0x0000000000000000UL, 0x00000000101e7c00UL, 0x0000000010207c00UL,
  0x0000000230007c00UL, 0x0000006430000424UL, 0x30007c0000000000UL, 0x30007bc440000000UL,
  0x0000000000000064UL, 0x44007c00008000e1UL, 0x4400042400000002UL, 0x0000000000000064UL,
  0x4000000044007c00UL, 0x0000006444007bc4UL, 0x0080018100000000UL, 0x080000025c007c00UL,
  0x000000645c000424UL, 0x5c007c0000000000UL, 0x5c007bc448000000UL, 0x0000000000000064UL,
  0x60007c0000800241UL, 0x6000042408000002UL, 0x0000000000000064UL, 0x4800000060007c00UL,
  0x0000006460007bc4UL, 0x0080026100000000UL, 0x0000000214007c00UL, 0x0000006414000424UL,
  0x14007c0000000000UL, 0x14007bc440000000UL, 0x0000000000000064UL, 0x20007c0000800001UL,
  0x2000042400000002UL, 0x0000000000000064UL, 0x4000000020007c00UL, 0x0000006420007bc4UL,
  0x0080006100000000UL, 0x008021a1000000bdUL, 0x2010003448007c00UL, 0x04040303480200e3UL,
  0x10a3430300002200UL, 0x00bf0000003000c0UL, 0x00000001002f0000UL, 0x01000400480a7c00UL,
  0x00000000480d7c00UL, 0x6400004200802281UL, 0x156000fc08000000UL, 0x0007800064020123UL,
  0x0000000300000000UL, 0x000023ff000008ffUL, 0x0000000000000000UL, 0x0000000107c403fdUL,
  0x00000000640c0043UL, 0x640b7c0020422042UL, 0x6500040300000001UL, 0x0000c2abffc00463UL,
  0x00006a77ffc005f5UL, 0x00002d2dffc3033aUL, 0x0000a0ceffbe0422UL, 0x000032b8ffd902bfUL,
  0x0000b63affb00172UL, 0x00004801ffda068bUL, 0x0000fc02ffd906fdUL, 0x000016f9ffd701b3UL,
  0x00003cfcffc0054eUL, 0x00006ec3ffbc08e9UL, 0x00009a47ffb102fdUL, 0x00000e3bffbd6635UL,
  0x00006849ffd50359UL, 0x0000fca8fff305c6UL, 0x00008d0bffc6076fUL, 0x68000042008022a1UL,
  0x1500000008000000UL, 0x0007000068027c00UL, 0x0000400068070043UL, 0x680c004300000020UL,
  0x1041104100000000UL, 0x28007c00008020a1UL, 0x2802004300880300UL, 0x00001200342e0000UL,
  0x00000000280500c3UL, 0x0000000100000000UL, 0x0000002400002400UL, 0x280c004200100000UL,
  0x0000000700000006UL, 0x00000004280d0043UL, 0x28110043342e903fUL, 0x0000000000000000UL,
  0x24007c0000802081UL, 0x2402004300080184UL, 0x00000240703b3340UL, 0x00000000240500c3UL,
  0x0000000000000000UL, 0x0000002400000000UL, 0x240c004200100000UL, 0x0000000700000006UL,
  0x00000001240d0043UL, 0x24110043703b35bfUL, 0x0000000800000000UL, 0x14007c0000802001UL,
  0x1402012300080008UL, 0x00180018342e9000UL, 0x0000018000100004UL, 0x0000000400000004UL,
  0x0000002400002400UL, 0x140c004200100000UL, 0x0000000700000006UL, 0x00000004140d0043UL,
  0x14110043342eb43fUL, 0x0000000000000000UL, 0x0000000210007c00UL, 0x0000006410000424UL,
  0x10007c0000000000UL, 0x10007bc440000000UL, 0x0000000000000064UL, 0x0000000110007c00UL,
  0x0000002b10027c00UL, 0x0000000b10150043UL, 0x10227c0000000009UL, 0x10247c000000001bUL,
  0x1400200100000029UL, 0x2010003548007c00UL, 0x6800200164002001UL, 0x2800200124002001UL,
  0x0000006414007fe4UL, 0x10027c0000000000UL, 0x1015004300000000UL, 0x0000000000000000UL,
  0x0000000010227c00UL, 0x0000000010247c00UL, 0x0000000214007c00UL, 0x0000006414000424UL,
  0x14007c0000000000UL, 0x14007bc440000000UL, 0x0000000000000064UL, 0x48007c0000800001UL,
  0x4800042400000002UL, 0x0000000000000064UL, 0x4000000048007c00UL, 0x0000006448007bc4UL,
  0x008001a100000000UL, 0x0800000264007c00UL, 0x0000006464000424UL, 0x64007c0000000000UL,
  0x64007bc448000000UL, 0x0000000000000064UL, 0x68007c0000800281UL, 0x6800042408000002UL,
  0x0000000000000064UL, 0x4800000068007c00UL, 0x0000006468007bc4UL, 0x008002a100000000UL,
  0x0000000224007c00UL, 0x0000006424000424UL, 0x24007c0000000000UL, 0x24007bc440000000UL,
  0x0000000000000064UL, 0x28007c0000800081UL, 0x2800042400000002UL, 0x0000000000000064UL,
  0x4000000028007c00UL, 0x0000006428007bc4UL, 0x008000a100000000UL, 0x00802141000000ddUL,
  0x001000343c007c00UL, 0x101001013c0200e3UL, 0x1063430300001100UL, 0x017f000000180180UL,
  0x0000000100170000UL, 0x000000003c0a7c00UL, 0x000000003c0d7c00UL, 0x5c00004200802241UL,
  0x156000fc08000000UL, 0x000880005c020123UL, 0x0000000f00000000UL, 0x000047ff000023ffUL,
  0x0000000000000000UL, 0x00000001078403f1UL, 0x000000005c0c0043UL, 0x5c0b7c0020422042UL,
  0x5d00080300000001UL, 0x000042affe3d3fbeUL, 0x00002515fe831129UL, 0x0000ce8bfeef1542UL,
  0x00009685fdec2001UL, 0x0000dc2cff823b08UL, 0x0000c240fec01ed1UL, 0x0000ae38feeb1ed3UL,
  0x0000e1e8ff3f193dUL, 0x00008457ff1016a4UL, 0x0000f601ff72141fUL, 0x0000e1a8fe411d7cUL,
  0x0000e5c0ff430d8eUL, 0x00000311ffa7290cUL, 0x000092c3ff0c1ebaUL, 0x0000ec55ff5114f1UL,
  0x00007074ff12243eUL, 0x0000e536ffe116bbUL, 0x00005be3fe941dedUL, 0x00004050ffa11ffbUL,
  0x000021d5004b1f6bUL, 0x0000c46100411f42UL, 0x00002f0fff6017f2UL, 0x0000100cff501e3eUL,
  0x00001f2effbd1088UL, 0x0000abdfffba182eUL, 0x0000fbccfee010edUL, 0x0000021aff36202fUL,
  0x0000818600012fceUL, 0x000088e1003b40f9UL, 0x00008c1bfe902e51UL, 0x0000d7b8ff640f08UL,
  0x00003e43ff7330aaUL, 0x6000004200802261UL, 0x1500000008000000UL, 0x0007000060027c00UL,
  0x0000400060070043UL, 0x600c004300000020UL, 0x1041104100000000UL, 0x24007c0000802081UL,
  0x2402004300080100UL, 0x00002400342e9000UL, 0x00000000240500c3UL, 0x0000000100002400UL,
  0x0000002400000000UL, 0x240c004200100000UL, 0x0000000700000006UL, 0x00000002240d0043UL,
  0x24110043342eb43fUL, 0x0000000000000000UL, 0x14007c0000802001UL, 0x1402004300080184UL,
  0x00000200703b3a00UL, 0x00000000140500c3UL, 0x0000000000000000UL, 0x0000002400000000UL,
  0x140c004200100000UL, 0x0000000700000006UL, 0x00000001140d0043UL, 0x14110043703b3c3fUL,
  0x0000000800000000UL, 0x2c007c00008020c1UL, 0x2c02012300080008UL, 0x00180018342e4800UL,
  0x0000030000200010UL, 0x0000000200000010UL, 0x0000002400004800UL, 0x2c0c004200100000UL,
  0x0000000700000006UL, 0x000000022c0d0043UL, 0x2c110043342e903fUL, 0x0000000000000000UL,
  0x0000000210007c00UL, 0x0000006410000424UL, 0x10007c0000000000UL, 0x10007bc440000000UL,
  0x0000000000000064UL, 0x0000000110007c00UL, 0x0000002710087c00UL, 0x00000009100c0043UL,
  0x101e7c0000000001UL, 0x10207c0000000015UL, 0x2c00200100000025UL, 0x001000353c007c00UL,
  0x600020015c002001UL, 0x2400200114002001UL, 0x000000642c007fe4UL, 0x10087c0000000000UL,
  0x100c004300000000UL, 0x0000000000000000UL, 0x00000000101e7c00UL, 0x0000000010207c00UL,
  0x000000022c007c00UL, 0x000000642c000424UL, 0x2c007c0000000000UL, 0x2c007bc440000000UL,
  0x0000000000000064UL, 0x3c007c00008000c1UL, 0x3c00042400000002UL, 0x0000000000000064UL,
  0x400000003c007c00UL, 0x000000643c007bc4UL, 0x0080014100000000UL, 0x080000025c007c00UL,
  0x000000645c000424UL, 0x5c007c0000000000UL, 0x5c007bc448000000UL, 0x0000000000000064UL,
  0x60007c0000800241UL, 0x6000042408000002UL, 0x0000000000000064UL, 0x4800000060007c00UL,
  0x0000006460007bc4UL, 0x0080026100000000UL, 0x0000000214007c00UL, 0x0000006414000424UL,
  0x14007c0000000000UL, 0x14007bc440000000UL, 0x0000000000000064UL, 0x24007c0000800001UL,
  0x2400042400000002UL, 0x0000000000000064UL, 0x4000000024007c00UL, 0x0000006424007bc4UL,
  0x0080008100000000UL, 0x00802161000000fdUL, 0x0010003440007c00UL, 0x04040303400200e3UL,
  0x1063430300001155UL, 0x005f000000180060UL, 0x0000000100170000UL, 0x00000000400a7c00UL,
  0x00000000400d7c00UL, 0x6400004200802281UL, 0x156000fc08000000UL, 0x0008800064020123UL,
  0x0000000300000000UL, 0x000047ff000008ffUL, 0x0000000000000000UL, 0x00000001078403fdUL,
  0x00000000640c0043UL, 0x640b7c0020422042UL, 0x6500080300000001UL, 0x00009206ff7109d9UL,
  0x00006edcfefe349cUL, 0x0000bfdbff2a2fa2UL, 0x0000d487fef51595UL, 0x0000985dfef4182eUL,
  0x00003f86ff5218d2UL, 0x00006676fefd36e4UL, 0x000055aeff6126b1UL, 0x0000555b00092547UL,
  0x00000183feb50fdfUL, 0x00009770ff5808ceUL, 0x0000aa2cfef72de4UL, 0x00008ffaff6c0d42UL,
  0x0000414ffebd1d8bUL, 0x000021eeff46229aUL, 0x0000d22efef624a5UL, 0x000090e9ff5818e0UL,
  0x000082bcfeff2d8dUL, 0x0000a724fec421ffUL, 0x0000cdb4fef6222fUL, 0x00004002feb90e2eUL,
  0x00000b36ff36084aUL, 0x00002efefeff28c8UL, 0x00002f82fee22de0UL, 0x0000b042ff462b30UL,
  0x0000decafefc5123UL, 0x0000687cfee011faUL, 0x000034edff4f10b8UL, 0x0000d9f6ff5205cfUL,
  0x0000a0a7fec10895UL, 0x0000d07afebc11ecUL, 0x0000e67efed019bdUL, 0x68000042008022a1UL,
  0x1500000008000000UL, 0x0007000068027c00UL, 0x0000400068070043UL, 0x680c004300000020UL,
  0x1041104100000000UL, 0x2c007c00008020c1UL, 0x2c02012300080000UL, 0x00180018342e4800UL,
  0x0000030000200004UL, 0x0000000100000000UL, 0x0000002400000004UL, 0x2c0c004200100000UL,
  0x0000000700000006UL, 0x000000082c0d0043UL, 0x2c110043342e903fUL, 0x0000000000000000UL,
  0x38007c0000802121UL, 0x3802004300080184UL, 0x00000480703b0fb0UL, 0x00000000380500c3UL,
  0x0000000000000000UL, 0x0000002400000000UL, 0x380c004200100000UL, 0x0000000700000006UL,
  0x00000001380d0043UL, 0x38110043703b146fUL, 0x0000000800000000UL, 0x1c007c0000802041UL,
  0x1c02012300080008UL, 0x00180018342e0000UL, 0x0000030000200004UL, 0x0000000800000004UL,
  0x0000002400004800UL, 0x1c0c004200100000UL, 0x0000000700000006UL, 0x000000081c0d0043UL,
  0x1c110043342e483fUL, 0x0000000000000000UL, 0x0000000210007c00UL, 0x0000006410000424UL,
  0x10007c0000000000UL, 0x10007bc440000000UL, 0x0000000000000064UL, 0x0000000110007c00UL,
  0x0000002b10047c00UL, 0x0000000d100f0043UL, 0x10227c0000000013UL, 0x10247c0000000017UL,
  0x1c00200100000029UL, 0x0010003540007c00UL, 0x6800200164002001UL, 0x380020012c002001UL,
  0x000000641c007fe4UL, 0x10047c0000000000UL, 0x100f004300000000UL, 0x0000000000000000UL,
  0x0000000010227c00UL, 0x0000000010247c00UL, 0x000000021c007c00UL, 0x000000641c000424UL,
  0x1c007c0000000000UL, 0x1c007bc440000000UL, 0x0000000000000064UL, 0x40007c0000800041UL,
  0x4000042400000002UL, 0x0000000000000064UL, 0x4000000040007c00UL, 0x0000006440007bc4UL,
  0x0080016100000000UL, 0x0800000264007c00UL, 0x0000006464000424UL, 0x64007c0000000000UL,
  0x64007bc448000000UL, 0x0000000000000064UL, 0x68007c0000800281UL, 0x6800042408000002UL,
  0x0000000000000064UL, 0x4800000068007c00UL, 0x0000006468007bc4UL, 0x008002a100000000UL,
  0x000000022c007c00UL, 0x000000642c000424UL, 0x2c007c0000000000UL, 0x2c007bc440000000UL,
  0x0000000000000064UL, 0x38007c00008000c1UL, 0x3800042400000002UL, 0x0000000000000064UL,
  0x4000000038007c00UL, 0x0000006438007bc4UL, 0x0080012100000000UL, 0x008021810000011dUL,
  0x10d0003444007c00UL, 0x10200101440200e3UL, 0x10e3430300001100UL, 0x02ff000000180300UL,
  0x0000000100170000UL, 0x00000000440a7c00UL, 0x00000000440d7c00UL, 0x5c00004200802241UL,
  0x156000fc08000000UL, 0x000900005c020123UL, 0x0000000f00000000UL, 0x000047ff000023ffUL,
  0x0000000000000000UL, 0x00000001078403f1UL, 0x000000005c0c0043UL, 0x5c0b7c0020422042UL,
  0x5d00080300000001UL, 0x0000d778fee9221eUL, 0x00001bb8fc9e2c4dUL, 0x0000ca08fd4629eaUL,
  0x000016e9fcfe32acUL, 0x0000a7e0fca35fddUL, 0x00007bdefd633aa5UL, 0x00006bd7fddb2282UL,
  0x0000adbffefa1ec9UL, 0x0000b3f5fcb146d8UL, 0x0000c636fea226c6UL, 0x0000bb65febc5528UL,
  0x00007d6bfd950007UL, 0x00008b13feb82cb3UL, 0x00005db2fe77377cUL, 0x0000a678fd4c42bfUL,
  0x000007f9fec23360UL, 0x0000585afdaa4a9eUL, 0x0000e699fdab2356UL, 0x0000dd0bfebf2efeUL,
  0x00005b6ffd6040c5UL, 0x00000462fee1093eUL, 0x0000ed7dfe141d65UL, 0x00007896fdb62b06UL,
  0x00002c7dfd4920d2UL, 0x0000847bfe7c1cafUL, 0x000031a6fd277510UL, 0x00007146fdd22411UL,
  0x0000ed1bfd9018cfUL, 0x0000d98ffed03cb9UL, 0x000014dbfd6c01a5UL, 0x000021c0fe5123beUL,
  0x0000df9bfdfe21eeUL, 0x6000004200802261UL, 0x1500000008000000UL, 0x0007000060027c00UL,
  0x0000400060070043UL, 0x600c004300000020UL, 0x1041104100000000UL, 0x14007c0000802001UL,
  0x1402004308880300UL, 0x00001800342e0000UL, 0x00000000140500c3UL, 0x0000000200000000UL,
  0x0000002400004800UL, 0x140c004200100000UL, 0x0000000700000006UL, 0x00000002140d0043UL,
  0x14110043342e483fUL, 0x0000000000000000UL, 0x38007c0000802121UL, 0x3802004308880184UL,
  0x00000156703b2f30UL, 0x00000000380500c3UL, 0x0000000000000000UL, 0x0000002400000000UL,
  0x380c004200100000UL, 0x0000000700000006UL, 0x00000001380d0043UL, 0x38110043703b3377UL,
  0x0000000800000000UL, 0x28007c00008020a1UL, 0x2802012300080008UL, 0x00180018342e4800UL,
  0x0000030000200010UL, 0x0000000200000010UL, 0x0000002400004800UL, 0x280c004200100000UL,
  0x0000000700000006UL, 0x00000002280d0043UL, 0x28110043342e903fUL, 0x0000000000000000UL,
  0x0000000210007c00UL, 0x0000006410000424UL, 0x10007c0000000000UL, 0x10007bc440000000UL,
  0x0000000000000064UL, 0x0000000110007c00UL, 0x0000002710077c00UL, 0x0000000110120043UL,
  0x101e7c0000000013UL, 0x10207c0000000019UL, 0x2800200100000025UL, 0x10d0003544007c00UL,
  0x600020015c002001UL, 0x3800200114002001UL, 0x0000006428007fe4UL, 0x10077c0000000000UL,
  0x1012004300000000UL, 0x0000000000000000UL, 0x00000000101e7c00UL, 0x0000000010207c00UL,
  0x0000000228007c00UL, 0x0000006428000424UL, 0x28007c0000000000UL, 0x28007bc440000000UL,
  0x0000000000000064UL, 0x44007c00008000a1UL, 0x4400042400000002UL, 0x0000000000000064UL,
  0x4000000044007c00UL, 0x0000006444007bc4UL, 0x0080018100000000UL, 0x080000025c007c00UL,
  0x000000645c000424UL, 0x5c007c0000000000UL, 0x5c007bc448000000UL, 0x0000000000000064UL,
  0x60007c0000800241UL, 0x6000042408000002UL, 0x0000000000000064UL, 0x4800000060007c00UL,
  0x0000006460007bc4UL, 0x0080026100000000UL, 0x0000000214007c00UL, 0x0000006414000424UL,
  0x14007c0000000000UL, 0x14007bc440000000UL, 0x0000000000000064UL, 0x38007c0000800001UL,
  0x3800042400000002UL, 0x0000000000000064UL, 0x4000000038007c00UL, 0x0000006438007bc4UL,
  0x0080012100000000UL, 0x008021a10000013dUL, 0x2010003448007c00UL, 0x02020303480200e3UL,
  0x1063430300002200UL, 0x002f000000180030UL, 0x0000000100170000UL, 0x01000200480a7c00UL,
  0x00000000480d7c00UL, 0x6400004200802281UL, 0x156000fc08000000UL, 0x0007000064020123UL,
  0x0000000100000000UL, 0x000011ff0000011fUL, 0x0000000000000000UL, 0x00000001078403ffUL,
  0x00000000640c0043UL, 0x640b7c0020422042UL, 0x6500080300000001UL, 0x0000f6acffd601f5UL,
  0x00003e04ffd601a8UL, 0x00002e13ffd5048aUL, 0x00001e82ffe0021bUL, 0x0000c1c1fff00108UL,
  0x00009938ffe80137UL, 0x0000cc3effd901d7UL, 0x00004c6fffed01efUL, 0x0000f38fffdf014fUL,
  0x00007c7afff201eeUL, 0x0000ccc7fff502b1UL, 0x0000c32fffe34301UL, 0x0000659affd90176UL,
  0x0000c916fff70120UL, 0x0000cacbfff101e7UL, 0x00000971fff10191UL, 0x000067ebfff00198UL,
  0x000053acffcd022fUL, 0x00002ba6fff20199UL, 0x0000ea17fff6015dUL, 0x0000e141001106d6UL,
  0x00005d3cffdd0272UL, 0x0000c4d8ffee01f5UL, 0x00006c20ffe101d7UL, 0x00003f59ffd90222UL,
  0x0000e294ffdf0118UL, 0x0000a336ffdf02caUL, 0x0000e910ffe002acUL, 0x00002217fff40167UL,
  0x0000a79fffdc229aUL, 0x000010b6ffd90295UL, 0x000011b0ffed0156UL, 0x68000042008022a1UL,
  0x1500000008000000UL, 0x0007000068027c00UL, 0x0000400068070043UL, 0x680c004300000020UL,
  0x1041104100000000UL, 0x2c007c00008020c1UL, 0x2c02012300880200UL, 0x00180018342e4800UL,
  0x0000030000200001UL, 0x0000000100000000UL, 0x0000002400000002UL, 0x2c0c004200100000UL,
  0x0000000700000006UL, 0x000000102c0d0043UL, 0x2c110043342e903fUL, 0x0000000000000000UL,
  0x1c007c0000802041UL, 0x1c02004300080184UL, 0x00000240703b3580UL, 0x000000001c0500c3UL,
  0x0000000000000000UL, 0x0000002400000000UL, 0x1c0c004200100000UL, 0x0000000700000006UL,
  0x000000011c0d0043UL, 0x1c110043703b37ffUL, 0x0000000800000000UL, 0x20007c0000802061UL,
  0x2002012300080008UL, 0x000c000c342e2400UL, 0x0000018000200002UL, 0x0000001000000002UL,
  0x0000002400001200UL, 0x200c004200100000UL, 0x0000000700000006UL, 0x00000010200d0043UL,
  0x20110043342e363fUL, 0x0000000000000000UL, 0x0000000210007c00UL, 0x0000006410000424UL,
  0x10007c0000000000UL, 0x10007bc440000000UL, 0x0000000000000064UL, 0x0000000110007c00UL,
  0x0000002b10057c00UL, 0x0000000d10150043UL, 0x10227c0000000005UL, 0x10247c000000001bUL,
  0x2000200100000029UL, 0x2010003548007c00UL, 0x6800200164002001UL, 0x2c0020011c002001UL,
  0x0000006420007fe4UL, 0x10057c0000000000UL, 0x1015004300000000UL, 0x0000000000000000UL,
  0x0000000010227c00UL, 0x0000000010247c00UL, 0x0000000220007c00UL, 0x0000006420000424UL,
  0x20007c0000000000UL, 0x20007bc440000000UL, 0x0000000000000064UL, 0x48007c0000800061UL,
  0x4800042400000002UL, 0x0000000000000064UL, 0x4000000048007c00UL, 0x0000006448007bc4UL,
  0x008001a100000000UL, 0x0800000264007c00UL, 0x0000006464000424UL, 0x64007c0000000000UL,
  0x64007bc448000000UL, 0x0000000000000064UL, 0x68007c0000800281UL, 0x6800042408000002UL,
  0x0000000000000064UL, 0x4800000068007c00UL, 0x0000006468007bc4UL, 0x008002a100000000UL,
  0x000000021c007c00UL, 0x000000641c000424UL, 0x1c007c0000000000UL, 0x1c007bc440000000UL,
  0x0000000000000064UL, 0x2c007c0000800041UL, 0x2c00042400000002UL, 0x0000000000000064UL,
  0x400000002c007c00UL, 0x000000642c007bc4UL, 0x008000c100000000UL, 0x008021410000015dUL,
  0x10d000343c007c00UL, 0x102001013c0200e3UL, 0x10e3430300001100UL, 0x017f0000000c0180UL,
  0x00000001000b0000UL, 0x000000003c0a7c00UL, 0x000000003c0d7c00UL, 0x5c00004200802241UL,
  0x156000fc08000000UL, 0x000880005c020123UL, 0x0000000f00000000UL, 0x000023ff000008ffUL,
  0x0000000000000000UL, 0x00000001070403f1UL, 0x000000005c0c0043UL, 0x5c0b7c0020422042UL,
  0x5d00100300000001UL, 0x0000e194feb10a6aUL, 0x000082bfff2b1046UL, 0x00006421ff670dd2UL,
  0x00001dc2ffdd1b8cUL, 0x0000d578ff3f1d3dUL, 0x0000718bff551aa8UL, 0x00009b4aff420e2dUL,
  0x00004697ffa80e2aUL, 0x000045e5ff5f1851UL, 0x00008651ff470becUL, 0x00000872ff4c0d55UL,
  0x00002549ff3c11c0UL, 0x000059c5ff650ca7UL, 0x0000fba5fee20d13UL, 0x0000ed88ff4117c4UL,
  0x0000b6fbff020ef2UL, 0x00008e33fe1e1edaUL, 0x0000439dff720aafUL, 0x000030b2fe500ad2UL,
  0x0000c7d20041293fUL, 0x0000053eff310c52UL, 0x00000398ff2e10e7UL, 0x00009561ff221a70UL,
  0x0000aedbfede2ffcUL, 0x0000d649ff0f09f4UL, 0x00006034fe980c7bUL, 0x00007ba7feeb1896UL,
  0x0000ef0eff890f92UL, 0x000006c4ff051191UL, 0x00005919feef1557UL, 0x00002b57fee6104fUL,
  0x00008f78fe7314eeUL, 0x00003460feaa2f22UL, 0x0000b526ff8a19e4UL, 0x000083eeff4214afUL,
  0x00003ec8ff76089bUL, 0x0000bbedff0a1156UL, 0x00001dd2ff5b0a7fUL, 0x0000aedeffc81cf4UL,
  0x000026ddfeb1023dUL, 0x00008ccefeb00f12UL, 0x000070edff6513ccUL, 0x0000c53efff91b9eUL,
  0x0000b590ff551590UL, 0x00006afcfce855a5UL, 0x0000e3f7feba19edUL, 0x0000e58cfe1e15f4UL,
  0x00003c8dff021605UL, 0x00009accff7b1281UL, 0x000013b4ff340b93UL, 0x0000a304ffcd184fUL,
  0x000073eafea018d4UL, 0x000066adff520d22UL, 0x00003984fe500e72UL, 0x0000aa56ff1e10f1UL,
  0x00004372febf0846UL, 0x0000a7ddfebb1b4cUL, 0x000012a3ffcb1cf7UL, 0x0000b0ccff071a4bUL,
  0x0000a0acffc1206dUL, 0x00007961fede4383UL, 0x0000d25bffc613bfUL, 0x00002775ff5119d2UL,
  0x0000d2b6ff8a0ffdUL, 0x6000004200802261UL, 0x1500000008000000UL, 0x0007000060027c00UL,
  0x0000400060070043UL, 0x600c004300000020UL, 0x1041104100000000UL, 0x20007c0000802061UL,
  0x2002004308880300UL, 0x00000600342e2400UL, 0x00000000200500c3UL, 0x0000000400000000UL,
  0x0000002400001200UL, 0x200c004200100000UL, 0x0000000700000006UL, 0x00000004200d0043UL,
  0x20110043342e363fUL, 0x0000000000000000UL, 0x2c007c00008020c1UL, 0x2c02004308880184UL,
  0x000002ac703b0290UL, 0x000000002c0500c3UL, 0x0000000000000000UL, 0x0000002400000000UL,
  0x2c0c004200100000UL, 0x0000000700000006UL, 0x000000012c0d0043UL, 0x2c110043703b0ad7UL,
  0x0000000800000000UL, 0x28007c00008020a1UL, 0x2802012300080008UL, 0x000c000c342e0000UL,
  0x0000030000400010UL, 0x0000000400000010UL, 0x0000002400002400UL, 0x280c004200100000UL,
  0x0000000700000006UL, 0x00000004280d0043UL, 0x28110043342e243fUL, 0x0000000000000000UL,
  0x0000000210007c00UL, 0x0000006410000424UL, 0x10007c0000000000UL, 0x10007bc440000000UL,
  0x0000000000000064UL, 0x0000000110007c00UL, 0x0000002710077c00UL, 0x00000007100c0043UL,
  0x101e7c000000000dUL, 0x10207c0000000015UL, 0x2800200100000025UL, 0x10d000353c007c00UL,
  0x600020015c002001UL, 0x2c00200120002001UL, 0x0000006428007fe4UL, 0x10077c0000000000UL,
  0x100c004300000000UL, 0x0000000000000000UL, 0x00000000101e7c00UL, 0x0000000010207c00UL,
  0x0000000228007c00UL, 0x0000006428000424UL, 0x28007c0000000000UL, 0x28007bc440000000UL,
  0x0000000000000064UL, 0x3c007c00008000a1UL, 0x3c00042400000002UL, 0x0000000000000064UL,
  0x400000003c007c00UL, 0x000000643c007bc4UL, 0x0080014100000000UL, 0x080000025c007c00UL,
  0x000000645c000424UL, 0x5c007c0000000000UL, 0x5c007bc448000000UL, 0x0000000000000064UL,
  0x60007c0000800241UL, 0x6000042408000002UL, 0x0000000000000064UL, 0x4800000060007c00UL,
  0x0000006460007bc4UL, 0x0080026100000000UL, 0x0000000220007c00UL, 0x0000006420000424UL,
  0x20007c0000000000UL, 0x20007bc440000000UL, 0x0000000000000064UL, 0x2c007c0000800061UL,
  0x2c00042400000002UL, 0x0000000000000064UL, 0x400000002c007c00UL, 0x000000642c007bc4UL,
  0x008000c100000000UL, 0x008021610000017dUL, 0x0010003440007c00UL, 0x01010303400200e3UL,
  0x1063430300001155UL, 0x000b0000000c000cUL, 0x00000001000b0000UL, 0x00000000400a7c00UL,
  0x00000000400d7c00UL, 0x6400004200802281UL, 0x156000fc08000000UL, 0x0008000064020123UL,
  0x0000000000000000UL, 0x000023ff0000008fUL, 0x0000000000000000UL, 0x0000000107040200UL,
  0x00000000640c0043UL, 0x640b7c0020422042UL, 0x6500100300000001UL, 0x0000eda9ff7d1466UL,
  0x00001ad0ffa70babUL, 0x00000a4cff7210fdUL, 0x0000e906ffa30560UL, 0x00003447ffb705a8UL,
  0x00006043ffac0524UL, 0x000044afffbc0985UL, 0x00003a27ff800a93UL, 0x0000b37dffc707fbUL,
  0x0000fc40ff8a0da0UL, 0x0000e0d0ffba06b1UL, 0x0000d012ff4b0bfbUL, 0x0000ececff6e1419UL,
  0x0000659bff750efcUL, 0x000086d5ff9b0866UL, 0x0000b112ff471223UL, 0x00003808ffb305d7UL,
  0x00009589ff801701UL, 0x0000d0ecff682282UL, 0x000082dcffbc04abUL, 0x0000b708ff9916c0UL,
  0x00000d1cff6b076bUL, 0x000083cbff700a43UL, 0x0000151bffa804ebUL, 0x000038caffea0c1dUL,
  0x0000db2dff5b1216UL, 0x0000a000ff64158aUL, 0x0000ae56ff811250UL, 0x0000b20affb5090bUL,
  0x00002d4affbe0784UL, 0x00005233ff81168cUL, 0x0000f07dff6d17f5UL, 0x00005f7dff800521UL,
  0x0000fea2ff6b0d49UL, 0x0000e903ff7e150eUL, 0x0000135cff7513a5UL, 0x00002fd9ff53125dUL,
  0x0000a48cff6a1060UL, 0x0000557effa5066eUL, 0x0000e18bff685336UL, 0x0000fb87ff7f11e1UL,
  0x0000ece7ff791d57UL, 0x00009dfaffa80911UL, 0x0000ac37ff7d0bbdUL, 0x00005471ff7a088dUL,
  0x00003193ff5b0564UL, 0x00002ed7ff6d0cf6UL, 0x00009bc0ff810a1bUL, 0x0000c8f4ff7d08b5UL,
  0x0000342eff5012cbUL, 0x000009a8ff760923UL, 0x00000dabffac0c88UL, 0x0000c786ff620ccdUL,
  0x0000daa1ff6c0f0dUL, 0x0000b52fffbc103dUL, 0x0000bc86ff803246UL, 0x0000bbf3ff600de5UL,
  0x00004fccffcd0b48UL, 0x000071ebff6b08dcUL, 0x000080aaffae04d4UL, 0x0000fdd7ff7805a0UL,
  0x00006dfaffa90994UL, 0x000080adff45114dUL, 0x00003286ff761b9dUL, 0x68000042008022a1UL,
  0x1500000008000000UL, 0x0007000068027c00UL, 0x0000400068070043UL, 0x680c004300000020UL,
  0x1041104100000000UL, 0x34007c0000802101UL, 0x3402012300080000UL, 0x000c000c342e0000UL,
  0x0000030000400001UL, 0x0000000100000000UL, 0x0000002400000001UL, 0x340c004200100000UL,
  0x0000000700000006UL, 0x00000040340d0043UL, 0x34110043342e243fUL, 0x0000000000000000UL,
  0x28007c00008020a1UL, 0x2802004300080184UL, 0x00000240703b37c0UL, 0x00000000280500c3UL,
  0x0000000000000000UL, 0x0000002400000000UL, 0x280c004200100000UL, 0x0000000700000006UL,
  0x00000001280d0043UL, 0x28110043703b3a3fUL, 0x0000000800000000UL, 0x18007c0000802021UL,
  0x1802012300080008UL, 0x000c000c342e2400UL, 0x0000030000400001UL, 0x0000004000000001UL,
  0x0000002400002400UL, 0x180c004200100000UL, 0x0000000700000006UL, 0x00000040180d0043UL,
  0x18110043342e483fUL, 0x0000000000000000UL, 0x0000000210007c00UL, 0x0000006410000424UL,
  0x10007c0000000000UL, 0x10007bc440000000UL, 0x0000000000000064UL, 0x0000000110007c00UL,
  0x0000002b10037c00UL, 0x00000011100f0043UL, 0x10227c000000000bUL, 0x10247c0000000017UL,
  0x1800200100000029UL, 0x0010003540007c00UL, 0x6800200164002001UL, 0x3400200128002001UL,
  0x0000006418007fe4UL, 0x10037c0000000000UL, 0x100f004300000000UL, 0x0000000000000000UL,
  0x0000000010227c00UL, 0x0000000010247c00UL, 0x0000000218007c00UL, 0x0000006418000424UL,
  0x18007c0000000000UL, 0x18007bc440000000UL, 0x0000000000000064UL, 0x40007c0000800021UL,
  0x4000042400000002UL, 0x0000000000000064UL, 0x4000000040007c00UL, 0x0000006440007bc4UL,
  0x0080016100000000UL, 0x0800000264007c00UL, 0x0000006464000424UL, 0x64007c0000000000UL,
  0x64007bc448000000UL, 0x0000000000000064UL, 0x68007c0000800281UL, 0x6800042408000002UL,
  0x0000000000000064UL, 0x4800000068007c00UL, 0x0000006468007bc4UL, 0x008002a100000000UL,
  0x0000000228007c00UL, 0x0000006428000424UL, 0x28007c0000000000UL, 0x28007bc440000000UL,
  0x0000000000000064UL, 0x34007c00008000a1UL, 0x3400042400000002UL, 0x0000000000000064UL,
  0x4000000034007c00UL, 0x0000006434007bc4UL, 0x0080010100000000UL, 0x008021810000019dUL,
  0x0010003444007c00UL, 0x10100101440200e3UL, 0x1077400400001100UL, 0x00bf0000000c00c0UL,
  0x000f0040000b0000UL, 0x00000000440a7c00UL, 0x00000000440d7c00UL, 0x48007c00008021a1UL,
  0x480200e300100020UL, 0x0000110010100101UL, 0x000c00c010774000UL, 0x000b000000bf0000UL,
  0x480a7c00001f1040UL, 0x480d7c0000000000UL, 0x0080214100000000UL, 0x001000203c007c00UL,
  0x101001013c0200e3UL, 0x1077400000001100UL, 0x00bf0000000c00c0UL, 0x002f2040000b0000UL,
  0x000000003c0a7c00UL, 0x000000003c0d7c00UL, 0x40007c0000802161UL, 0x400200e300100020UL,
  0x0000110010100101UL, 0x000c00c010634400UL, 0x000b000000bf0000UL, 0x400a7c00003f3040UL,
  0x400d7c0000000000UL, 0x0080224100000000UL, 0x080000005c000042UL, 0x5c020123156000fcUL,
  0x0000000000090000UL, 0x000008ff0000000fUL, 0x00000000000023ffUL, 0x070403f100000000UL,
  0x5c0c004300000001UL, 0x2042204200000000UL, 0x000000015c0b7c00UL, 0xfda935955d001003UL,
  0xfec51ef70000b2a8UL, 0xfe2e541200000edcUL, 0xfe3f614600009cecUL, 0xfdd26043000025b9UL,
  0xfd32467c00003236UL, 0xfec2242a000028deUL, 0xfdc53ae200006191UL, 0xfd814fe900003046UL,
  0xfeed15a90000b1f8UL, 0xfe9735e20000940eUL, 0xfe3530c40000860eUL, 0xff0a31370000f146UL,
  0xfde24f9500006c86UL, 0xfe323767000045e0UL, 0xfe3c443e00007ad0UL, 0xfd9b35e80000324bUL,
  0xfe9b366c0000d2c7UL, 0xfe836c4a0000a23fUL, 0xfdb603a80000d14cUL, 0xfdd2388d00004379UL,
  0xfcff3a910000b6b6UL, 0xfdaa46310000fe89UL, 0xfea02e5c0000553dUL, 0xfe9f26ca0000dd9aUL,
  0xfdb723bd0000017bUL, 0xfe352fa0000002b9UL, 0xfe10496400006d35UL, 0xfdc442b400000020UL,
  0xfe4f326600004cb1UL, 0xfe1627ab0000c0e5UL, 0xfe1f4f1700003293UL, 0xfe0f44ef0000e137UL,
  0xfee223340000d1e7UL, 0xfd8107530000a690UL, 0xfdbd2f88000059f6UL, 0xfe2042770000344bUL,
  0xfe87272500000821UL, 0xfe27447c00003a48UL, 0xfe3e294b0000a084UL, 0xfe8b3a98000092a2UL,
  0xfe6639f90000f311UL, 0xfe935f7d00000f17UL, 0xfee02965000055bbUL, 0xff1f100100005af8UL,
  0xfda4364a0000591cUL, 0xfdf73c390000e020UL, 0xfeb81f8e0000d710UL, 0xfeca177200009c83UL,
  0xfdb93cf00000688cUL, 0xfdee7d6100000c82UL, 0xfdd32e7c00005688UL, 0xfd3a097e0000665fUL,
  0xfe941d3a0000adf3UL, 0xfdb836420000d456UL, 0xfddb47410000c918UL, 0xfdb92c0d0000f46fUL,
  0xfd5f57f0000052e8UL, 0xfef22a660000e2d2UL, 0xfce63b770000a276UL, 0xff7949f90000986aUL,
  0xfe1c60ed0000bef2UL, 0xfdfb333b00005348UL, 0xfd283bf900001f42UL, 0x00802261000042edUL,
  0x0800000060000042UL, 0x60027c0015000000UL, 0x6007004300070000UL, 0x0000002000004000UL,
  0x00000000600c0043UL, 0x008020e110411041UL, 0x0008000030007c00UL, 0x342e240030020123UL,
  0x00400010000c000cUL, 0x0000004000000300UL, 0x0000000000000001UL, 0x0010000000000024UL,
  0x00000006300c0042UL, 0x300d004300000007UL, 0x342e483f00000004UL, 0x0000000030110043UL,
  0x0080206100000000UL, 0x0008018420007c00UL, 0x703ae09020020043UL, 0x200500c300001000UL,
  0x0000000000000000UL, 0x0000000000000000UL, 0x0010000000000024UL, 0x00000006200c0042UL,
  0x200d004300000007UL, 0x703af0cf00000001UL, 0x0000000020110043UL, 0x0080212100000008UL,
  0x0008000038007c00UL, 0x342e241038020123UL, 0x00400010000c000cUL, 0x0000004000000300UL,
  0x0000000000000001UL, 0x0010000000000024UL, 0x00000006380c0042UL, 0x380d004300000007UL,
  0x342e483f00000004UL, 0x0000000038110043UL, 0x0080210100000000UL, 0x0008000034007c00UL,
  0x342e242034020123UL, 0x00400010000c000cUL, 0x0000004000000300UL, 0x0000000000000001UL,
  0x0010000000000024UL, 0x00000006340c0042UL, 0x340d004300000007UL, 0x342e483f00000004UL,
  0x0000000034110043UL, 0x008020c100000000UL, 0x000800002c007c00UL, 0x342e24302c020123UL,
  0x00400010000c000cUL, 0x0000004000000300UL, 0x0000000000000001UL, 0x0010000000000024UL,
  0x000000062c0c0042UL, 0x2c0d004300000007UL, 0x342e483f00000004UL, 0x000000002c110043UL,
  0x0080200100000000UL, 0x0008000814007c00UL, 0x342e000014020123UL, 0x00400010000c000cUL,
  0x0000001000000300UL, 0x0000240000000004UL, 0x0010000000000024UL, 0x00000006140c0042UL,
  0x140d004300000007UL, 0x342e243f00000004UL, 0x0000000014110043UL, 0x10007c0000000000UL,
  0x1000042400000002UL, 0x0000000000000064UL, 0x4000000010007c00UL, 0x0000006410007bc4UL,
  0x10007c0000000000UL, 0x10027c0000000001UL, 0x100c010300000027UL, 0x0000000700000011UL,
  0x0000000d0000001bUL, 0x0000001500000007UL, 0x000000070000000fUL, 0x0000001310150063UL,
  0x0000001900000007UL, 0x00000017101e7c00UL, 0x0000002510207c00UL, 0x3c007c0014002001UL,
  0x40007c0000100021UL, 0x44007c0000100021UL, 0x48007c0000100035UL, 0x5c00200100100021UL,
  0x2000200160002001UL, 0x300020012c002001UL, 0x3800200134002001UL, 0x0000006414007fe4UL,
  0x10027c0000000000UL, 0x100c010300000000UL, 0x0000000000000000UL, 0x0000000000000000UL,
  0x0000000000000000UL, 0x0000000000000000UL, 0x0000000010150063UL, 0x0000000000000000UL,
  0x00000000101e7c00UL, 0x0000000010207c00UL, 0x0000000214007c00UL, 0x0000006414000424UL,
  0x14007c0000000000UL, 0x14007bc440000000UL, 0x0000000000000064UL, 0x3c007c0000800001UL,
  0x3c00042400000002UL, 0x0000000000000064UL, 0x400000003c007c00UL, 0x000000643c007bc4UL,
  0x0080014100000000UL, 0x0000000240007c00UL, 0x0000006440000424UL, 0x40007c0000000000UL,
  0x40007bc440000000UL, 0x0000000000000064UL, 0x44007c0000800161UL, 0x4400042400000002UL,
  0x0000000000000064UL, 0x4000000044007c00UL, 0x0000006444007bc4UL, 0x0080018100000000UL,
  0x0000000248007c00UL, 0x0000006448000424UL, 0x48007c0000000000UL, 0x48007bc440000000UL,
  0x0000000000000064UL, 0x5c007c00008001a1UL, 0x5c00042408000002UL, 0x0000000000000064UL,
  0x480000005c007c00UL, 0x000000645c007bc4UL, 0x0080024100000000UL, 0x0800000260007c00UL,
  0x0000006460000424UL, 0x60007c0000000000UL, 0x60007bc448000000UL, 0x0000000000000064UL,
  0x20007c0000800261UL, 0x2000042400000002UL, 0x0000000000000064UL, 0x4000000020007c00UL,
  0x0000006420007bc4UL, 0x0080006100000000UL, 0x000000022c007c00UL, 0x000000642c000424UL,
  0x2c007c0000000000UL, 0x2c007bc440000000UL, 0x0000000000000064UL, 0x30007c00008000c1UL,
  0x3000042400000002UL, 0x0000000000000064UL, 0x4000000030007c00UL, 0x0000006430007bc4UL,
  0x008000e100000000UL, 0x0000000234007c00UL, 0x0000006434000424UL, 0x34007c0000000000UL,
  0x34007bc440000000UL, 0x0000000000000064UL, 0x38007c0000800101UL, 0x3800042400000002UL,
  0x0000000000000064UL, 0x4000000038007c00UL, 0x0000006438007bc4UL, 0x0080012100000000UL,
  0x00802141000001bdUL, 0x201000343c007c00UL, 0x020203033c0200e3UL, 0x1063430300002200UL,
  0x00170000000c0018UL, 0x00000001000b0000UL, 0x010002003c0a7c00UL, 0x000000003c0d7c00UL,
  0x6400004200802281UL, 0x156000fc08000000UL, 0x0007800064020123UL, 0x0000000100000000UL,
  0x000008ff00000047UL, 0x0000000000000000UL, 0x00000001070403ffUL, 0x00000000640c0043UL,
  0x640b7c0020422042UL, 0x6500100300000001UL, 0x00000941ffb807e1UL, 0x00001956fff005e9UL,
  0x0000a35affd50207UL, 0x00006f59ffe302eaUL, 0x0000c401ffd901b8UL, 0x00009acaffdc038fUL,
  0x000054d5ffc109b4UL, 0x000092acffaf0602UL, 0x00008e8effb102f6UL, 0x000096f2ffa5073cUL,
  0x0000b7f6ffad0426UL, 0x000026cfffbe06c6UL, 0x000061a6ffc80255UL, 0x0000f510ffdf02baUL,
  0x0000d659ffb903f4UL, 0x0000328fffb20650UL, 0x00000aeeffbf054cUL, 0x0000c3c9ffc905b8UL,
  0x00003fc7ffe803d5UL, 0x000033fdffc13aaaUL, 0x00005b71ffbb072eUL, 0x0000bc08ffb2040dUL,
  0x00006f93ffd30394UL, 0x00004f34fff0061eUL, 0x0000f2b8ffc1062dUL, 0x0000c94dffb81581UL,
  0x00000e30ffbb0494UL, 0x00006d22ffc10548UL, 0x0000b0cfffa502e5UL, 0x0000a52cffc00318UL,
  0x00009cb5ffc1041dUL, 0x000088ecffc704b7UL, 0x000053c7ffb00558UL, 0x00009771ffe70490UL,
  0x0000a909ffbd4adfUL, 0x0000432cffbf0cb2UL, 0x0000e73dffdc0598UL, 0x00004120ffbd04a3UL,
  0x00001f6affb5053dUL, 0x0000fddcffb704afUL, 0x00009e0fffc10391UL, 0x0000609fffc1042eUL,
  0x00001349ffdd025eUL, 0x000003ebffe503c5UL, 0x000057d7002109a8UL, 0x0000de78ffb60382UL,
  0x0000f109ffbc06d1UL, 0x00008b36ffdd04b2UL, 0x000003fd00130601UL, 0x0000ab4dffdd0328UL,
  0x0000d0ebffb70423UL, 0x0000d71bffbe0a9aUL, 0x0000e1f2ffbc4629UL, 0x00005e1dffed055aUL,
  0x000042b5ffb807bcUL, 0x00000c49ffbc02c6UL, 0x00005503ffbe06afUL, 0x00000378ffa9025dUL,
  0x0000bcb6ffbb061cUL, 0x0000567dffb80378UL, 0x000053ddffe003fbUL, 0x000021ccffe502a1UL,
  0x0000a42dffbe0855UL, 0x00004638ffe0046dUL, 0x68000042008022a1UL, 0x1500000008000000UL,
  0x0007000068027c00UL, 0x0000400068070043UL, 0x680c004300000020UL, 0x1041104100000000UL,
  0x28007c00008020a1UL, 0x2802012300880200UL, 0x000c000c342e0000UL, 0x0000030000400001UL,
  0x0000000100000000UL, 0x0000002400000002UL, 0x280c004200100000UL, 0x0000000700000006UL,
  0x00000020280d0043UL, 0x28110043342e243fUL, 0x0000000000000000UL, 0x14007c0000802001UL,
  0x1402004300080184UL, 0x00000480703b1430UL, 0x00000000140500c3UL, 0x0000000000000000UL,
  0x0000002400000000UL, 0x140c004200100000UL, 0x0000000700000006UL, 0x00000001140d0043UL,
  0x14110043703b18efUL, 0x0000000800000000UL, 0x18007c0000802021UL, 0x1802012300080008UL,
  0x00060006342e2400UL, 0x0000018000400002UL, 0x0000002000000002UL, 0x0000002400000900UL,
  0x180c004200100000UL, 0x0000000700000006UL, 0x00000020180d0043UL, 0x18110043342e2d3fUL,
  0x0000000000000000UL, 0x0000000210007c00UL, 0x0000006410000424UL, 0x10007c0000000000UL,
  0x10007bc440000000UL, 0x0000000000000064UL, 0x0000000110007c00UL, 0x0000002b10037c00UL,
  0x0000000b100c0043UL, 0x10227c0000000001UL, 0x10247c0000000015UL, 0x1800200100000029UL,
  0x201000353c007c00UL, 0x6800200164002001UL, 0x2800200114002001UL, 0x0000006418007fe4UL,
  0x10037c0000000000UL, 0x100c004300000000UL, 0x0000000000000000UL, 0x0000000010227c00UL,
  0x0000000010247c00UL, 0x0000000218007c00UL, 0x0000006418000424UL, 0x18007c0000000000UL,
  0x18007bc440000000UL, 0x0000000000000064UL, 0x3c007c0000800021UL, 0x3c00042400000002UL,
  0x0000000000000064UL, 0x400000003c007c00UL, 0x000000643c007bc4UL, 0x0080014100000000UL,
  0x0800000264007c00UL, 0x0000006464000424UL, 0x64007c0000000000UL, 0x64007bc448000000UL,
  0x0000000000000064UL, 0x68007c0000800281UL, 0x6800042408000002UL, 0x0000000000000064UL,
  0x4800000068007c00UL, 0x0000006468007bc4UL, 0x008002a100000000UL, 0x0000000214007c00UL,
  0x0000006414000424UL, 0x14007c0000000000UL, 0x14007bc440000000UL, 0x0000000000000064UL,
  0x28007c0000800001UL, 0x2800042400000002UL, 0x0000000000000064UL, 0x4000000028007c00UL,
  0x0000006428007bc4UL, 0x008000a100000000UL, 0x00802161000001ddUL, 0x10d0003440007c00UL,
  0x10400101400200e3UL, 0x10e3440400001100UL, 0x017f000000060180UL, 0x0000000100050000UL,
  0x00000000400a7c00UL, 0x00000000400d7c00UL, 0x5c00004200802241UL, 0x156000fc08000000UL,
  0x000900005c020123UL, 0x0000000f00000000UL, 0x000011ff0000023fUL, 0x0000000000000000UL,
  0x00000001060403f1UL, 0x000000005c0c0043UL, 0x5c0b7c0020422042UL, 0x5d00200300000001UL,
  0x00007302fe0b35e7UL, 0x000050bbfd523561UL, 0x0000b572fe1e4436UL, 0x0000961bfe1a3772UL,
  0x00005712fe101d9dUL, 0x0000a321fe3d31baUL, 0x0000fce5fe2d3f15UL, 0x0000bf1ffe3333f3UL,
  0x0000962ffe981b8eUL, 0x00008406fd7b35d3UL, 0x0000df96fdd148faUL, 0x00009c52fefb209cUL,
  0x0000cf34fe74586cUL, 0x00003048fe4e24b3UL, 0x00002878fe4d1bb8UL, 0x0000c288fd7e0098UL,
  0x0000c9adfe203b1cUL, 0x0000812ffcb62b87UL, 0x0000c325fda13857UL, 0x0000b08ffd75018aUL,
  0x0000aa9dfe1437e9UL, 0x00003c5dfe1d2c24UL, 0x0000b76ffece2cf7UL, 0x0000b356fd824361UL,
  0x000037edffab68a1UL, 0x000010eafea83c4dUL, 0x00008667ff3f73fcUL, 0x000007b7fd124360UL,
  0x000084d2fd555528UL, 0x0000a2d8fd2c5b9dUL, 0x000001b2fdcf4323UL, 0x0000da69fe1d3984UL,
  0x00004048fe9234e3UL, 0x000043b9fe852704UL, 0x000006d4fe8a3b84UL, 0x0000823dfdc82b80UL,
  0x0000121bfd3a2384UL, 0x00000a0ffd5f3b47UL, 0x0000dbbcfca949ffUL, 0x0000043efe0e3a86UL,
  0x0000107bfe571a58UL, 0x00009566fdb23701UL, 0x0000dd4ffdee3a33UL, 0x0000fcb6fe823eefUL,
  0x000080d6fef33931UL, 0x00006261fe37262aUL, 0x00002506fdea31b5UL, 0x00000447fdf830a9UL,
  0x00009249fe464daaUL, 0x0000c839fdc52f31UL, 0x000091e7feb13921UL, 0x0000edc8fe2b268aUL,
  0x0000205afce059c9UL, 0x00005c49fda83987UL, 0x00009192fe0a2912UL, 0x00000139fe941e06UL,
  0x0000556cfd9e2af6UL, 0x0000a846fd6f213bUL, 0x0000bc60fd632ff0UL, 0x0000fd19fdff2e67UL,
  0x0000b118fe4230dcUL, 0x0000fa22fc5a5029UL, 0x0000dc8ffdf53c2fUL, 0x0000e38cfd724772UL,
  0x0000edf5fdf63ab1UL, 0x0000dc09fdea360dUL, 0x00002a7bfe8b5590UL, 0x000052f8fe33293fUL,
  0x00007f4ffd2c4205UL, 0x00006ad4fd2701cfUL, 0x0000b45bfec840bbUL, 0x00008feafe255ffbUL,
  0x0000c356fd7a3237UL, 0x00007798fe8725e5UL, 0x00001230fd04460aUL, 0x00007158fdd64093UL,
  0x00007eb5fe232afaUL, 0x0000731afd6d3ba2UL, 0x00006251ffcc54acUL, 0x0000705cfe792ef5UL,
  0x00007693fe9b224fUL, 0x00003621fd1b2120UL, 0x0000e11bfd4525e5UL, 0x0000c970fd450682UL,
  0x00003bedfd144ddbUL, 0x0000fb26fc6045b0UL, 0x0000a78dfe9e47beUL, 0x00009991fd7c2c29UL,
  0x00001df4fddd27b6UL, 0x00002038fccf408eUL, 0x0000c675fea13c07UL, 0x00006ab9fdee30edUL,
  0x000026f6fd9b330cUL, 0x000017c3fd3e6ab6UL, 0x00005efbfef53b31UL, 0x0000f318fd8224c8UL,
  0x00001530fec07e6eUL, 0x0000669efdd138e4UL, 0x00009a18ff665077UL, 0x00006542fe7b424bUL,
  0x0000a52ffd832c4aUL, 0x0000806dfd902a2aUL, 0x0000f0d4fd5b01e1UL, 0x0000b4a8fd9e02c4UL,
  0x0000b686fe863126UL, 0x0000507cfe5244cbUL, 0x0000d69ffe45220cUL, 0x00001bd9fd513e66UL,
  0x00008a95fd693133UL, 0x000081fcfdf238dbUL, 0x0000435efda82b58UL, 0x0000b405fd300326UL,
  0x000070ccfd6f2cf6UL, 0x0000868dfee025faUL, 0x00009109fd7a31c3UL, 0x00001b65fdd443f2UL,
  0x00003b62ff3b304dUL, 0x0000eddcfed145deUL, 0x0000a98afd520894UL, 0x00001181fec527eaUL,
  0x00000afcff9653b1UL, 0x0000c1e2fd316130UL, 0x00009072fdd920d7UL, 0x000053b6fd9b4988UL,
  0x00005a5afe0f2a2dUL, 0x000053b8fde61f4cUL, 0x00005239fe1b3c3bUL, 0x000031dffd3d28b5UL,
  0x6000004200802261UL, 0x1500000008000000UL, 0x0007000060027c00UL, 0x0000400060070043UL,
  0x600c004300000020UL, 0x1041104100000000UL, 0x38007c0000802121UL, 0x3802004308880300UL,
  0x00000300342e2400UL, 0x00000000380500c3UL, 0x0000000800000000UL, 0x0000002400000900UL,
  0x380c004200100000UL, 0x0000000700000006UL, 0x00000008380d0043UL, 0x38110043342e2d3fUL,
  0x0000000000000000UL, 0x24007c0000802081UL, 0x2402004308880184UL, 0x00000ab0703ac080UL,
  0x00000000240500c3UL, 0x0000000000000000UL, 0x0000002400000000UL, 0x240c004200100000UL,
  0x0000000700000006UL, 0x00000001240d0043UL, 0x24110043703ae0cfUL, 0x0000000800000000UL,
  0x20007c0000802061UL, 0x2002012300080008UL, 0x00060006342e0000UL, 0x0000030000800010UL,
  0x0000000800000010UL, 0x0000002400001200UL, 0x200c004200100000UL, 0x0000000700000006UL,
  0x00000008200d0043UL, 0x20110043342e123fUL, 0x0000000000000000UL, 0x0000000210007c00UL,
  0x0000006410000424UL, 0x10007c0000000000UL, 0x10007bc440000000UL, 0x0000000000000064UL,
  0x0000000110007c00UL, 0x0000002710057c00UL, 0x00000013100f0043UL, 0x101e7c0000000009UL,
  0x10207c0000000017UL, 0x2000200100000025UL, 0x10d0003540007c00UL, 0x600020015c002001UL,
  0x3800200124002001UL, 0x0000006420007fe4UL, 0x10057c0000000000UL, 0x100f004300000000UL,
  0x0000000000000000UL, 0x00000000101e7c00UL, 0x0000000010207c00UL, 0x0000000220007c00UL,
  0x0000006420000424UL, 0x20007c0000000000UL, 0x20007bc440000000UL, 0x0000000000000064UL,
  0x40007c0000800061UL, 0x4000042400000002UL, 0x0000000000000064UL, 0x4000000040007c00UL,
  0x0000006440007bc4UL, 0x0080016100000000UL, 0x080000025c007c00UL, 0x000000645c000424UL,
  0x5c007c0000000000UL, 0x5c007bc448000000UL, 0x0000000000000064UL, 0x60007c0000800241UL,
  0x6000042408000002UL, 0x0000000000000064UL, 0x4800000060007c00UL, 0x0000006460007bc4UL,
  0x0080026100000000UL, 0x0000000224007c00UL, 0x0000006424000424UL, 0x24007c0000000000UL,
  0x24007bc440000000UL, 0x0000000000000064UL, 0x38007c0000800081UL, 0x3800042400000002UL,
  0x0000000000000064UL, 0x4000000038007c00UL, 0x0000006438007bc4UL, 0x0080012100000000UL,
  0x00802181000001fdUL, 0x0010003444007c00UL, 0x01010303440200e3UL, 0x1063430300001155UL,
  0x0005000000060006UL, 0x0000000100050000UL, 0x00000000440a7c00UL, 0x00000000440d7c00UL,
  0x6400004200802281UL, 0x156000fc08000000UL, 0x0007000064020123UL, 0x0000000000000000UL,
  0x000011ff00000023UL, 0x0000000000000000UL, 0x0000000106040200UL, 0x00000000640c0043UL,
  0x640b7c0020422042UL, 0x6500200300000001UL, 0x000071dbffe105e8UL, 0x0000d4d3ffe9017aUL,
  0x00009acfffde01d7UL, 0x0000a33bffe003c9UL, 0x00002063ffdd04daUL, 0x0000b97cffd4024fUL,
  0x000095effff30417UL, 0x00002801ffdd03c0UL, 0x00004187ffdd035aUL, 0x00000b4cffda01c9UL,
  0x00003629ffe00370UL, 0x00000444ffd0031dUL, 0x0000ba64ffd903f4UL, 0x00000405ffe10350UL,
  0x00006980ffe00304UL, 0x00007a48ffe42b76UL, 0x000086c8ffde03a3UL, 0x00009b67ffda0456UL,
  0x0000a53effe701f3UL, 0x00006fc5ffde2462UL, 0x0000c21effdb0127UL, 0x00007d9cfff20295UL,
  0x00009306ffe600f0UL, 0x0000bbcfffde0275UL, 0x0000708afff30208UL, 0x0000f0c6fff10243UL,
  0x000071f4fff1016fUL, 0x0000abb9ffdc0370UL, 0x0000884dffe7019fUL, 0x0000d10cffd901d7UL,
  0x00004519ffde0369UL, 0x00004294ffe701daUL, 0x0000d71fffdf047bUL, 0x000082b5ffed0292UL,
  0x0000cc00ffe90296UL, 0x0000d274ffdb055dUL, 0x0000a529ffe00593UL, 0x0000791effdf0362UL,
  0x000085f2ffe301dcUL, 0x0000ce81ffdf034dUL, 0x0000a5d6ffe00487UL, 0x0000a1d0ffe40437UL,
  0x0000086dffd9014fUL, 0x00003dd1ffe0021fUL, 0x0000caf4ffe6010eUL, 0x0000bd8affd903b6UL,
  0x0000d565ffe60267UL, 0x00008ef2ffda062dUL, 0x0000ec4dffee016aUL, 0x0000177effe00446UL,
  0x0000ea36ffda041fUL, 0x00004040ffdf04b8UL, 0x00000836ffef01a1UL, 0x0000bf75ffdf03e9UL,
  0x00002b3dffdc0312UL, 0x0000d92bffed0315UL, 0x00000081ffe00408UL, 0x00003d14ffdd0a8dUL,
  0x00004acaffe702c9UL, 0x0000fac2ffdc03a4UL, 0x00007c04ffe6014eUL, 0x00002c12fff00146UL,
  0x000024c3ffdf0540UL, 0x0000c170ffee01e8UL, 0x00007942ffe004aaUL, 0x0000d7deffdd04caUL,
  0x0000b720ffef0231UL, 0x0000009bffe004daUL, 0x00001beefff2020aUL, 0x0000bb67ffe12f4cUL,
  0x00003fe1ffdd0329UL, 0x000029eaffd90277UL, 0x0000bd23ffd9028aUL, 0x0000fdf5ffdd03d3UL,
  0x0000cae8ffe40177UL, 0x0000eeb6ffde0190UL, 0x00006ce5ffe0017bUL, 0x00005cbeffd60218UL,
  0x00009371ffea0176UL, 0x00003ae2ffe9016cUL, 0x00009428ffd60475UL, 0x00006e9affdd04edUL,
  0x0000bf80ffdb05ffUL, 0x00005566ffd952bfUL, 0x0000c414ffdd01f1UL, 0x000055d8ffec0241UL,
  0x000062a9ffdd037cUL, 0x00002bb5ffd60161UL, 0x00007989ffda034cUL, 0x0000efe2ffe40288UL,
  0x0000d5e6ffdd0547UL, 0x0000e9abffde011cUL, 0x00004660ffdc0339UL, 0x0000bdafffeb0110UL,
  0x0000f2fdfff0031cUL, 0x0000c1eeffdc032cUL, 0x00003717fff601e4UL, 0x00006ab7ffd50b7eUL,
  0x0000a1f4ffca021dUL, 0x00007879ffe70216UL, 0x00000ac1ffdf02d2UL, 0x00005e4cffd90429UL,
  0x0000dbd2ffdf303dUL, 0x0000c3faffd72681UL, 0x00006609ffd701f6UL, 0x0000e8f5ffde0323UL,
  0x000005e2ffdf044bUL, 0x00000c6affd90438UL, 0x000063a4ffde0744UL, 0x000019eaffe402bbUL,
  0x00009d60ffe00271UL, 0x0000bd90ffd93b13UL, 0x00000f88ffd40674UL, 0x0000efffffde02caUL,
  0x000022bfffe90187UL, 0x0000257fffdd022eUL, 0x00006fe6ffd604bfUL, 0x0000a2c4ffdc0155UL,
  0x0000fdcbffde2b09UL, 0x00008f56ffeb01baUL, 0x000008b5fff401a2UL, 0x000018a2ffdd01f0UL,
  0x00002c99ffe10521UL, 0x0000d8ebffdf0595UL, 0x000002b8ffdf0449UL, 0x00005b6fffe102aeUL,
  0x0000532bffd602b8UL, 0x00001a52ffdd084fUL, 0x68000042008022a1UL, 0x1500000008000000UL,
  0x0007000068027c00UL, 0x0000400068070043UL, 0x680c004300000020UL, 0x1041104100000000UL,
  0x1c007c0000802041UL, 0x1c02012300080000UL, 0x00060006342e0000UL, 0x0000030000800001UL,
  0x0000000100000000UL, 0x0000002400000001UL, 0x1c0c004200100000UL, 0x0000000700000006UL,
  0x000000801c0d0043UL, 0x1c110043342e123fUL, 0x0000000000000000UL, 0x24007c0000802081UL,
  0x2402004300080184UL, 0x00000480703b18b0UL, 0x00000000240500c3UL, 0x0000000000000000UL,
  0x0000002400000000UL, 0x240c004200100000UL, 0x0000000700000006UL, 0x00000001240d0043UL,
  0x24110043703b1d6fUL, 0x0000000800000000UL, 0x38007c0000802121UL, 0x3802012300080008UL,
  0x00060006342e1200UL, 0x0000030000800001UL, 0x0000008000000001UL, 0x0000002400001200UL,
  0x380c004200100000UL, 0x0000000700000006UL, 0x00000080380d0043UL, 0x38110043342e243fUL,
  0x0000000000000000UL, 0x0000000210007c00UL, 0x0000006410000424UL, 0x10007c0000000000UL,
  0x10007bc440000000UL, 0x0000000000000064UL, 0x0000000110007c00UL, 0x0000002b100b7c00UL,
  0x0000000510120043UL, 0x10227c0000000009UL, 0x10247c0000000019UL, 0x3800200100000029UL,
  0x0010003544007c00UL, 0x6800200164002001UL, 0x240020011c002001UL, 0x0000006438007fe4UL,
  0x100b7c0000000000UL, 0x1012004300000000UL, 0x0000000000000000UL, 0x0000000010227c00UL,
  0x0000000010247c00UL, 0x0000000238007c00UL, 0x0000006438000424UL, 0x38007c0000000000UL,
  0x38007bc440000000UL, 0x0000000000000064UL, 0x44007c0000800121UL, 0x4400042400000002UL,
  0x0000000000000064UL, 0x4000000044007c00UL, 0x0000006444007bc4UL, 0x0080018100000000UL,
  0x0800000264007c00UL, 0x0000006464000424UL, 0x64007c0000000000UL, 0x64007bc448000000UL,
  0x0000000000000064UL, 0x68007c0000800281UL, 0x6800042408000002UL, 0x0000000000000064UL,
  0x4800000068007c00UL, 0x0000006468007bc4UL, 0x008002a100000000UL, 0x000000021c007c00UL,
  0x000000641c000424UL, 0x1c007c0000000000UL, 0x1c007bc440000000UL, 0x0000000000000064UL,
  0x24007c0000800041UL, 0x2400042400000002UL, 0x0000000000000064UL, 0x4000000024007c00UL,
  0x0000006424007bc4UL, 0x0080008100000000UL, 0x008021a10000021dUL, 0x10d0003448007c00UL,
  0x10800101480200e3UL, 0x10e3440400001100UL, 0x02ff000000060300UL, 0x0000000100050000UL,
  0x00000000480a7c00UL, 0x00000000480d7c00UL, 0x5c00004200802241UL, 0x156000fc08000000UL,
  0x000880005c020123UL, 0x0000000f00000000UL, 0x000011ff0000023fUL, 0x0000000000000000UL,
  0x00000001060403f1UL, 0x000000005c0c0043UL, 0x5c0b7c0020422042UL, 0x5d00200300000001UL,
  0x0000e1c7ff2e1a3bUL, 0x00009b25ff661c54UL, 0x00007fb8feee207bUL, 0x0000a940fecf1382UL,
  0x0000bd04ff172847UL, 0x00005631ff131542UL, 0x000073c1fed21572UL, 0x000066befea81b95UL,
  0x00003ee1fec71367UL, 0x0000ec66ff3d1710UL, 0x0000bbb3fef51c92UL, 0x0000110cff6126ffUL,
  0x0000fb2fff361ed0UL, 0x00001257ff1b1bffUL, 0x0000013dff480e57UL, 0x0000d408ff751cefUL,
  0x0000909afe862fd8UL, 0x00005307fe6428a5UL, 0x00006184ff351889UL, 0x0000e403fefd1a81UL,
  0x00006014fea210beUL, 0x0000d30afed310d6UL, 0x00004cd7fe9b24e8UL, 0x00002361ff40152cUL,
  0x0000428aff3842eeUL, 0x000042dbff2f1fdbUL, 0x000087d3feb2323fUL, 0x0000b69bfed41c6bUL,
  0x00004613fee2128aUL, 0x00004dd6febe0d1dUL, 0x0000d4d2ff6c1364UL, 0x00005c6cff942141UL,
  0x000000d3fedf131dUL, 0x00008600fee816e5UL, 0x0000d45fff4c12e0UL, 0x000070e4fef621b9UL,
  0x0000e1f9fee4119cUL, 0x00007c03fea214e4UL, 0x00001ac9ff561064UL, 0x0000a56fff0f0cf3UL,
  0x0000f6cafee51427UL, 0x00006ac7ff1b1925UL, 0x00001590ff0c1de8UL, 0x0000c9edff9a1097UL,
  0x0000a384ff201629UL, 0x000079c4ff8f113fUL, 0x0000969fff04265bUL, 0x0000175dfed21334UL,
  0x00008eadfe941ca0UL, 0x00000416fe9800d1UL, 0x000081efff0a1390UL, 0x0000b4dcfea20aa5UL,
  0x000042bffed6110fUL, 0x0000f6b1ff19322aUL, 0x00004064ff020edaUL, 0x00005d14ff6819b2UL,
  0x00008817ff311fbdUL, 0x000089defec8169cUL, 0x0000f1bbff422189UL, 0x000051bbff481231UL,
  0x0000aa09ff681548UL, 0x0000df57fecb182eUL, 0x000019a3ff39129aUL, 0x00003dadff551607UL,
  0x00005d5efeec0bb1UL, 0x00006b9cfedb0e59UL, 0x0000f0c1ff600d95UL, 0x000035b3fec02296UL,
  0x0000a6a3febe0ecaUL, 0x00003766fee7209cUL, 0x0000b8eeff3d1bdaUL, 0x0000d244ff7a24d9UL,
  0x0000d759ff531004UL, 0x0000f8f7feb71da8UL, 0x0000b52cff170d00UL, 0x000016acfe6b20bdUL,
  0x0000eb09feb717d8UL, 0x0000eba3feee1dc5UL, 0x0000300afec01a6fUL, 0x0000552aff5c2c38UL,
  0x00000698feb614d8UL, 0x00002372ff100ed2UL, 0x00005c55fec61e22UL, 0x0000bda7fee31667UL,
  0x0000f667feef37dcUL, 0x0000c6e3ffa512d3UL, 0x00000e57ff540db1UL, 0x0000ed10ff3327a7UL,
  0x0000c680fe860e49UL, 0x00002353ff4d165bUL, 0x000031aeff2119beUL, 0x00001708ff1a18b5UL,
  0x00009127feac18c4UL, 0x00003d8afedb1cfcUL, 0x0000dbbbfeae0292UL, 0x0000ba0dfef01969UL,
  0x0000c88bff371164UL, 0x000044e9ffa30e32UL, 0x0000dca4fee31633UL, 0x0000c01fff780f94UL,
  0x000067d9ff4a17f9UL, 0x00007d8bfeae064dUL, 0x00005d20fec403b8UL, 0x0000fc36ff4c370fUL,
  0x00004839ff5a0ee0UL, 0x00008b49ff6e19eeUL, 0x000036a1fee51dfcUL, 0x00001e6efed82717UL,
  0x000016c0ff1a12c4UL, 0x00002b23fefc1193UL, 0x00001318feed1f69UL, 0x0000b019fefe0e7cUL,
  0x00001f5afedd23ceUL, 0x0000d871fec30c9dUL, 0x0000b80aff3324a7UL, 0x0000eaa4fea61e39UL,
  0x0000d7fefecd18bdUL, 0x00003bd9fe7638abUL, 0x0000ac77fef715a7UL, 0x00000c6cfe9621acUL,
  0x0000c0a0ff3a0e0aUL, 0x0000443cfede1c6aUL, 0x000060c1ff721781UL, 0x00005f43ff0c1341UL,
  0x00007030ff9d44a0UL, 0x0000f260ff311a02UL, 0x00000582fed312e2UL, 0x000042f2ff001cf3UL,
  0x6000004200802261UL, 0x1500000008000000UL, 0x0007000060027c00UL, 0x0000400060070043UL,
  0x600c004300000020UL, 0x1041104100000000UL, 0x24007c0000802081UL, 0x2402004308880300UL,
  0x00000600342e1200UL, 0x00000000240500c3UL, 0x0000000800000000UL, 0x0000002400001200UL,
  0x240c004200100000UL, 0x0000000700000006UL, 0x00000008240d0043UL, 0x24110043342e243fUL,
  0x0000000000000000UL, 0x38007c0000802121UL, 0x3802004308880184UL, 0x0000155870398030UL,
  0x00000000380500c3UL, 0x0000000000000000UL, 0x0000002400000000UL, 0x380c004200100000UL,
  0x0000000700000006UL, 0x00000001380d0043UL, 0x381100437039c077UL, 0x0000000800000000UL,
  0x30007c00008020e1UL, 0x3002012300080008UL, 0x00060006342e0000UL, 0x0000030000800010UL,
  0x0000000800000010UL, 0x0000002400001200UL, 0x300c004200100000UL, 0x0000000700000006UL,
  0x00000008300d0043UL, 0x30110043342e123fUL, 0x0000000000000000UL, 0x0000000210007c00UL,
  0x0000006410000424UL, 0x10007c0000000000UL, 0x10007bc440000000UL, 0x0000000000000064UL,
  0x0000000110007c00UL, 0x0000002710097c00UL, 0x0000000910150043UL, 0x101e7c0000000013UL,
  0x10207c000000001bUL, 0x3000200100000025UL, 0x10d0003548007c00UL, 0x600020015c002001UL,
  0x3800200124002001UL, 0x0000006430007fe4UL, 0x10097c0000000000UL, 0x1015004300000000UL,
  0x0000000000000000UL, 0x00000000101e7c00UL, 0x0000000010207c00UL, 0x0000000230007c00UL,
  0x0000006430000424UL, 0x30007c0000000000UL, 0x30007bc440000000UL, 0x0000000000000064UL,
  0x48007c00008000e1UL, 0x4800042400000002UL, 0x0000000000000064UL, 0x4000000048007c00UL,
  0x0000006448007bc4UL, 0x008001a100000000UL, 0x080000025c007c00UL, 0x000000645c000424UL,
  0x5c007c0000000000UL, 0x5c007bc448000000UL, 0x0000000000000064UL, 0x60007c0000800241UL,
  0x6000042408000002UL, 0x0000000000000064UL, 0x4800000060007c00UL, 0x0000006460007bc4UL,
  0x0080026100000000UL, 0x0000000224007c00UL, 0x0000006424000424UL, 0x24007c0000000000UL,
  0x24007bc440000000UL, 0x0000000000000064UL, 0x38007c0000800081UL, 0x3800042400000002UL,
  0x0000000000000064UL, 0x4000000038007c00UL, 0x0000006438007bc4UL, 0x0080012100000000UL,
  0x008021410000023dUL, 0x001000343c007c00UL, 0x010103033c0200e3UL, 0x1063430300001155UL,
  0x0005000000060006UL, 0x0000000100050000UL, 0x000000003c0a7c00UL, 0x000000003c0d7c00UL,
  0x6400004200802281UL, 0x156000fc08000000UL, 0x0007800064020123UL, 0x0000000000000000UL,
  0x000011ff00000023UL, 0x0000000000000000UL, 0x0000000106040200UL, 0x00000000640c0043UL,
  0x640b7c0020422042UL, 0x6500200300000001UL, 0x00002696ffda0670UL, 0x00002077ffbc05e7UL,
  0x0000987cffce0425UL, 0x00006f88ffb70688UL, 0x0000106fffcf032cUL, 0x00005ec0ffc50534UL,
  0x0000dc5effb40739UL, 0x0000b810ffda0496UL, 0x000050d4ffd608c0UL, 0x0000ec03ffb605ddUL,
  0x00009957ffbc04c2UL, 0x00001a9affc00673UL, 0x0000bd27ffcd0346UL, 0x0000171cffc204d6UL,
  0x000087fdffad037bUL, 0x000021e1ffbe069bUL, 0x00006ddcffb30393UL, 0x000057d7ffa20382UL,
  0x000058b1ffce0388UL, 0x00009adfffa006b8UL, 0x00007bafffbb08daUL, 0x0000bf3fffbb06a0UL,
  0x00002715ffb207f0UL, 0x00002b5dffde04b4UL, 0x0000e155ffb804d3UL, 0x00005ed9ffa5029bUL,
  0x0000aa99ff9b01c3UL, 0x00006a1cffb3041dUL, 0x0000ac46ffb404d6UL, 0x0000c9eaffac0ed6UL,
  0x0000a75dffaf054dUL, 0x0000330bffd302a0UL, 0x0000923bffbf04acUL, 0x0000070affba05feUL,
  0x0000ce6cffcb03fbUL, 0x0000ffcdffcb025dUL, 0x00006b72ffac0de3UL, 0x0000b14effbf0534UL,
  0x0000019dffbf0375UL, 0x00005686ffc5076bUL, 0x0000ef9fffd104aeUL, 0x0000ed44ffaf048aUL,
  0x0000b92bffbc04daUL, 0x000069eefff3069dUL, 0x00000edfffb00096UL, 0x00000413ffda0441UL,
  0x00004f42ffdf050dUL, 0x0000692affba0a50UL, 0x00004dfbffc901c9UL, 0x000093adffb34dceUL,
  0x0000f3c1ffbc05caUL, 0x00001b14ffab18c3UL, 0x00005c85ffbf06f5UL, 0x00004cd6ffbb1180UL,
  0x0000accfffc3049eUL, 0x00001c63ffb30449UL, 0x00007368ffd402d5UL, 0x0000c28affab07b8UL,
  0x00001c9cffbc096aUL, 0x00001d8affbe05d2UL, 0x0000992effa80366UL, 0x000060d2ffc008cdUL,
  0x0000d559ffc006f0UL, 0x0000c031ffd60784UL, 0x000094a3ffca1a13UL, 0x00000cfbffb70df8UL,
  0x00000cafffc005f8UL, 0x0000cc3fffd70347UL, 0x00008ea4ffad1102UL, 0x00008e8cffa10607UL,
  0x000047d4ffdb03d2UL, 0x0000ab67ffba05ceUL, 0x00004040ffc607b2UL, 0x00000881ffb00416UL,
  0x000054e9ffb50397UL, 0x00003112ffd50488UL, 0x00006d1dffbe099fUL, 0x00008e9fffaf04ceUL,
  0x00002899ffb4084eUL, 0x0000b780ffdc04c8UL, 0x00008dfaffbd05f8UL, 0x00003ebfffaf032eUL,
  0x0000d7ddffaf0d40UL, 0x000059a1ffa20535UL, 0x000099f7ffb507a5UL, 0x0000c8a2ffbd04ecUL,
  0x00009fa1ffc407c5UL, 0x0000bca6ffd3025fUL, 0x000050b8ffaf0fffUL, 0x0000d4a5ff9f0628UL,
  0x00000de0ffb202e1UL, 0x0000dc1bffb8072eUL, 0x0000648fffbe01e4UL, 0x00006adaffcc0456UL,
  0x0000baa2ffb02d75UL, 0x00004c02ffb7051bUL, 0x00003f55ffbe02f3UL, 0x0000e24dffd0047fUL,
  0x00009909ffa505a0UL, 0x0000c5a4ffbf09baUL, 0x00005140ffe103f8UL, 0x00005dfcffc231faUL,
  0x000043c4ffb748b9UL, 0x00002a85ffd40242UL, 0x0000c531ffc104b9UL, 0x0000b72bffb406d5UL,
  0x0000a7e8ffdb03ccUL, 0x00002ff9ffab0439UL, 0x000059e9ffbd0a24UL, 0x0000217dffbf076bUL,
  0x000001c8ffda02d5UL, 0x0000d575ffb60828UL, 0x0000a008ffaf0477UL, 0x00006cdbffb05d8aUL,
  0x0000dcfdffbf0909UL, 0x00006625ffd10376UL, 0x0000b86fffaa025bUL, 0x0000940bffdc02f4UL,
  0x0000f471ffbd0729UL, 0x0000bca3ffb904a4UL, 0x00006bb9ffbc0647UL, 0x0000112bffa4032eUL,
  0x000040daffb90804UL, 0x0000b08cffc004ceUL, 0x000039f9ffea031aUL, 0x0000476cffb60503UL,
  0x000094e6ffb01372UL, 0x00004a43ffda02f9UL, 0x68000042008022a1UL, 0x1500000008000000UL,
  0x0007000068027c00UL, 0x0000400068070043UL, 0x680c004300000020UL, 0x1041104100000000UL,
  0x34007c0000802101UL, 0x3402012300080000UL, 0x00060006342e0000UL, 0x0000030000800001UL,
  0x0000000100000000UL, 0x0000002400000001UL, 0x340c004200100000UL, 0x0000000700000006UL,
  0x00000080340d0043UL, 0x34110043342e123fUL, 0x0000000000000000UL, 0x28007c00008020a1UL,
  0x2802004300080184UL, 0x00000480703b1d30UL, 0x00000000280500c3UL, 0x0000000000000000UL,
  0x0000002400000000UL, 0x280c004200100000UL, 0x0000000700000006UL, 0x00000001280d0043UL,
  0x28110043703b21efUL, 0x0000000800000000UL, 0x18007c0000802021UL, 0x1802012300080008UL,
  0x00060006342e1200UL, 0x0000030000800001UL, 0x0000008000000001UL, 0x0000002400001200UL,
  0x180c004200100000UL, 0x0000000700000006UL, 0x00000080180d0043UL, 0x18110043342e243fUL,
  0x0000000000000000UL, 0x0000000210007c00UL, 0x0000006410000424UL, 0x10007c0000000000UL,
  0x10007bc440000000UL, 0x0000000000000064UL, 0x0000000110007c00UL, 0x0000002b10037c00UL,
  0x00000011100c0043UL, 0x10227c000000000bUL, 0x10247c0000000015UL, 0x1800200100000029UL,
  0x001000353c007c00UL, 0x6800200164002001UL, 0x3400200128002001UL, 0x0000006418007fe4UL,
  0x10037c0000000000UL, 0x100c004300000000UL, 0x0000000000000000UL, 0x0000000010227c00UL,
  0x0000000010247c00UL, 0x0000000218007c00UL, 0x0000006418000424UL, 0x18007c0000000000UL,
  0x18007bc440000000UL, 0x0000000000000064UL, 0x3c007c0000800021UL, 0x3c00042400000002UL,
  0x0000000000000064UL, 0x400000003c007c00UL, 0x000000643c007bc4UL, 0x0080014100000000UL,
  0x0800000264007c00UL, 0x0000006464000424UL, 0x64007c0000000000UL, 0x64007bc448000000UL,
  0x0000000000000064UL, 0x68007c0000800281UL, 0x6800042408000002UL, 0x0000000000000064UL,
  0x4800000068007c00UL, 0x0000006468007bc4UL, 0x008002a100000000UL, 0x0000000228007c00UL,
  0x0000006428000424UL, 0x28007c0000000000UL, 0x28007bc440000000UL, 0x0000000000000064UL,
  0x34007c00008000a1UL, 0x3400042400000002UL, 0x0000000000000064UL, 0x4000000034007c00UL,
  0x0000006434007bc4UL, 0x0080010100000000UL, 0x008021610000025dUL, 0x10d0003440007c00UL,
  0x10800101400200e3UL, 0x10e3440400001100UL, 0x02ff000000060300UL, 0x0000000100050000UL,
  0x00000000400a7c00UL, 0x00000000400d7c00UL, 0x5c00004200802241UL, 0x156000fc08000000UL,
  0x000900005c020123UL, 0x0000000f00000000UL, 0x000011ff0000023fUL, 0x0000000000000000UL,
  0x00000001060403f1UL, 0x000000005c0c0043UL, 0x5c0b7c0020422042UL, 0x5d00200300000001UL,
  0x00002d24fe412766UL, 0x000007d5fdcf3097UL, 0x0000d19afe132816UL, 0x00001e51fe8f2f65UL,
  0x0000b240fe401e4aUL, 0x0000e385fd231796UL, 0x0000aabffd941f82UL, 0x000096b8fdf9370eUL,
  0x000067b6fdfb4f69UL, 0x0000e2eefe4524eeUL, 0x0000bc2bfe691ee3UL, 0x000039c1fddd2334UL,
  0x00004ee2fe75175bUL, 0x0000377cfd363cc1UL, 0x00003299fef941fbUL, 0x00000492ff0821d4UL,
  0x0000e43afee71be9UL, 0x0000cf28fe0b2ed3UL, 0x00000fb4fe71246cUL, 0x000089c1fe192530UL,
  0x00006f52feca29c4UL, 0x0000ebe3fd762874UL, 0x0000f47cfe4c2794UL, 0x00008d77fe0a12f5UL,
  0x00001980fe74206dUL, 0x00008ecdfdc42f5cUL, 0x00009db5fdec20c5UL, 0x0000d7c1fd2f2948UL,
  0x0000314dfdae26c8UL, 0x0000d58ffe032954UL, 0x00009be4fe562040UL, 0x0000c3bafe99212eUL,
  0x00001768fd7e025cUL, 0x0000d206fdbf3e16UL, 0x0000566efd3a2a40UL, 0x0000aa9dfeb22012UL,
  0x0000c5b0fddc2af5UL, 0x00003a2efe352a34UL, 0x0000e760fecf1f88UL, 0x0000adfffe7928aaUL,
  0x00005260fddc43e8UL, 0x0000a073fea629bbUL, 0x0000bb7afeab28cbUL, 0x0000b8d2fe2114c9UL,
  0x00008148feca246eUL, 0x0000cb64fe5c0f5dUL, 0x00007d25fe2628e5UL, 0x0000ef2bfe4b1df8UL,
  0x000066cafd7c1a28UL, 0x0000fb5cfcda29a1UL, 0x000020aafed532b6UL, 0x0000fb22fd4c4234UL,
  0x00004bfbfe6f2153UL, 0x0000dee1fd902349UL, 0x0000eb66fe441e12UL, 0x0000747afd161b29UL,
  0x000024fcfe242e83UL, 0x0000d189fde234c5UL, 0x00002655fdff160bUL, 0x0000145dfe4d1cb6UL,
  0x0000d133fe2c2486UL, 0x0000a7f7fdbd27cbUL, 0x000070d1fded3b93UL, 0x00006019fe3c2d10UL,
  0x00001322fe284dd5UL, 0x000013b8fdcc2109UL, 0x00000001fd514489UL, 0x00000351fe1f1d40UL,
  0x00009d1dff15314cUL, 0x0000423afe80244eUL, 0x00000145fe1f2df7UL, 0x0000230cfdaa2d46UL,
  0x00005f81ff25349eUL, 0x0000241afe32272aUL, 0x0000e16cfeab1444UL, 0x0000e794fe7637e6UL,
  0x00005bc8fec11485UL, 0x000056d2fd7a16bcUL, 0x0000183aff1a2c67UL, 0x00002f8efea92527UL,
  0x00005c4ffe651de4UL, 0x0000c2adfd60352bUL, 0x0000f938fdfb3bc1UL, 0x0000987ffd7a3398UL,
  0x0000910dfe053c29UL, 0x000019acfe482b1eUL, 0x0000925cfe8341e0UL, 0x00004242fe8e1741UL,
  0x0000af43fdca2306UL, 0x0000cde9fdf22040UL, 0x0000bc6cfedf2c58UL, 0x0000152ffdd71f3dUL,
  0x000067edfe9f1c63UL, 0x0000f651fea01c0fUL, 0x0000a2a2fdcf2032UL, 0x000082bbfef40fb7UL,
  0x0000ced4fdb22fc1UL, 0x000042d1fe132e53UL, 0x0000164bfda222ebUL, 0x000069edfed41563UL,
  0x0000c9c4fe3138fbUL, 0x0000791efee03343UL, 0x00006d4dfd8034eeUL, 0x0000eafbff32316eUL,
  0x00004373fe961161UL, 0x0000eb47fe26243fUL, 0x0000bbd8fe051fb2UL, 0x0000cdc3feb41666UL,
  0x0000c7bffdf6248fUL, 0x0000f009ff6c3f28UL, 0x00002768fe451dcbUL, 0x00007ab7fe9e2f10UL,
  0x00007843fe361b70UL, 0x0000b765fdca2859UL, 0x00004c32fd592f18UL, 0x00008939fea41029UL,
  0x00007120fe6b1c68UL, 0x00005d9efd3f4a0aUL, 0x0000a3d0fd8c1c46UL, 0x0000a77ffe4223c8UL,
  0x0000d3d0fd9f18edUL, 0x0000abd1fe3329acUL, 0x00006608fcbc3ec6UL, 0x00008b74fe161502UL,
  0x000034eafe860fa5UL, 0x00001b67fe32289eUL, 0x0000304dfdee2bbdUL, 0x00001185fe2b1331UL,
  0x6000004200802261UL, 0x1500000008000000UL, 0x0007000060027c00UL, 0x0000400060070043UL,
  0x600c004300000020UL, 0x1041104100000000UL, 0x34007c0000802101UL, 0x3402004308880300UL,
  0x00000600342e1200UL, 0x00000000340500c3UL, 0x0000000800000000UL, 0x0000002400001200UL,
  0x340c004200100000UL, 0x0000000700000006UL, 0x00000008340d0043UL, 0x34110043342e243fUL,
  0x0000000000000000UL, 0x20007c0000802061UL, 0x2002004308880184UL, 0x000015587039c040UL,
  0x00000000200500c3UL, 0x0000000000000000UL, 0x0000002400000000UL, 0x200c004200100000UL,
  0x0000000700000006UL, 0x00000001200d0043UL, 0x20110043703a0087UL, 0x0000000800000000UL,
  0x18007c0000802021UL, 0x1802012300080008UL, 0x00060006342e0000UL, 0x0000030000800010UL,
  0x0000000800000010UL, 0x0000002400001200UL, 0x180c004200100000UL, 0x0000000700000006UL,
  0x00000008180d0043UL, 0x18110043342e123fUL, 0x0000000000000000UL, 0x0000000210007c00UL,
  0x0000006410000424UL, 0x10007c0000000000UL, 0x10007bc440000000UL, 0x0000000000000064UL,
  0x0000000110007c00UL, 0x0000002710037c00UL, 0x00000011100f0043UL, 0x101e7c0000000007UL,
  0x10207c0000000017UL, 0x1800200100000025UL, 0x10d0003540007c00UL, 0x600020015c002001UL,
  0x3400200120002001UL, 0x0000006418007fe4UL, 0x10037c0000000000UL, 0x100f004300000000UL,
  0x0000000000000000UL, 0x00000000101e7c00UL, 0x0000000010207c00UL, 0x0000000218007c00UL,
  0x0000006418000424UL, 0x18007c0000000000UL, 0x18007bc440000000UL, 0x0000000000000064UL,
  0x40007c0000800021UL, 0x4000042400000002UL, 0x0000000000000064UL, 0x4000000040007c00UL,
  0x0000006440007bc4UL, 0x0080016100000000UL, 0x080000025c007c00UL, 0x000000645c000424UL,
  0x5c007c0000000000UL, 0x5c007bc448000000UL, 0x0000000000000064UL, 0x60007c0000800241UL,
  0x6000042408000002UL, 0x0000000000000064UL, 0x4800000060007c00UL, 0x0000006460007bc4UL,
  0x0080026100000000UL, 0x0000000220007c00UL, 0x0000006420000424UL, 0x20007c0000000000UL,
  0x20007bc440000000UL, 0x0000000000000064UL, 0x34007c0000800061UL, 0x3400042400000002UL,
  0x0000000000000064UL, 0x4000000034007c00UL, 0x0000006434007bc4UL, 0x0080010100000000UL,
  0x008021810000027dUL, 0x0010003444007c00UL, 0x01010303440200e3UL, 0x1063430300001155UL,
  0x0005000000060006UL, 0x0000000100050000UL, 0x00000000440a7c00UL, 0x00000000440d7c00UL,
  0x6400004200802281UL, 0x156000fc08000000UL, 0x0008000064020123UL, 0x0000000000000000UL,
  0x000011ff00000023UL, 0x0000000000000000UL, 0x0000000106040200UL, 0x00000000640c0043UL,
  0x640b7c0020422042UL, 0x6500200300000001UL, 0x0000b5b2ff6b0dbeUL, 0x000042bcff9b0550UL,
  0x0000a5cfff7c069aUL, 0x0000d9d2ff5c0558UL, 0x0000b1b0ff950b2bUL, 0x0000b305ff7e1456UL,
  0x00006f63ff700f23UL, 0x0000a565ffa1089fUL, 0x0000f3a3ff4d04aaUL, 0x000002ecff9b0415UL,
  0x0000ca2fff9413f4UL, 0x0000dd1cff741166UL, 0x0000dbe3ff6805afUL, 0x0000eaf4ffb60b2eUL,
  0x00009937ff800a4dUL, 0x0000ff9bff4508f5UL, 0x00002369ff8f0c31UL, 0x0000ca00ff6d0afaUL,
  0x0000eae6ffb908bdUL, 0x0000074eff550d5fUL, 0x0000712fff7c0713UL, 0x0000b63fff961505UL,
  0x00008f80ff6a0731UL, 0x00000085ff8206f9UL, 0x00000884ff7c0520UL, 0x0000a6d0ffb80746UL,
  0x000023edff6f1059UL, 0x000027b1ff7b04c6UL, 0x0000d3faffa20623UL, 0x00001e1bff650568UL,
  0x0000cbbbff720b91UL, 0x0000bfd4ff6c0752UL, 0x00006431ff6e60afUL, 0x00005fd6ff9e03d9UL,
  0x000068feff5d06acUL, 0x0000fdcbff7e091aUL, 0x00005b19ffb006c1UL, 0x0000df1bff5f088bUL,
  0x0000d502ffa00ab3UL, 0x0000d374ff5c0d34UL, 0x0000b928ff9a045fUL, 0x0000c5e9ff930831UL,
  0x000024c8ff6c0a97UL, 0x00004b2dff7c08feUL, 0x0000e871ff6b0a62UL, 0x0000c02fff7b0b12UL,
  0x0000ff44ff8208f3UL, 0x00007ef7ff7b0d5eUL, 0x0000a604ff960ca3UL, 0x00006f86ff7f1259UL,
  0x00002da6ff9c07e5UL, 0x0000408cff5804e3UL, 0x0000b64bff821274UL, 0x0000f217ff6d0756UL,
  0x0000061cff6d0c6dUL, 0x00005ff5ffb61c1dUL, 0x0000b9afff9d0463UL, 0x00009d86ff5605b8UL,
  0x00006795ff7b0e59UL, 0x000002caff811480UL, 0x0000cfacff6c0fecUL, 0x00008f66ff960d28UL,
  0x00008da0ff91070fUL, 0x0000bdcbff7b0f5bUL, 0x0000148effc20856UL, 0x0000bdbbff6c1076UL,
  0x000048bfff3d05aeUL, 0x00008fbfff7b0d40UL, 0x0000f5f2ffac0bbdUL, 0x0000b5b5ff4d04a7UL,
  0x0000a620ff9d03f8UL, 0x000007ceff8008ecUL, 0x0000843aff8e05ddUL, 0x000099aeff6d0be6UL,
  0x0000ec17ff800a36UL, 0x0000b5bbffa605b2UL, 0x00007898ff7c066dUL, 0x0000716dff5e060bUL,
  0x0000f19bff720cf8UL, 0x0000190bffbd0a9eUL, 0x0000f9f3ff720b27UL, 0x0000c70bffc7079cUL,
  0x00000bf7ff51081bUL, 0x00006570ff8d0598UL, 0x00005e57ff9d06c8UL, 0x0000e768ff760b06UL,
  0x0000ddf0ffb50524UL, 0x00007f52ff800c46UL, 0x00000e4bff860582UL, 0x0000e244ff720961UL,
  0x00002566ff7a06e1UL, 0x0000d9daff7d0a18UL, 0x00008817ff710784UL, 0x000055b2ff80074bUL,
  0x00001987ff7e09bbUL, 0x0000727cff2d0762UL, 0x00001819ff6d07c7UL, 0x00009f16ff5907caUL,
  0x0000ac85ff8b05ccUL, 0x0000541bff6d0ae3UL, 0x0000c8d3ffbb05caUL, 0x000072d2ff540d88UL,
  0x00000acbff8f069cUL, 0x00002ec4ff9c09a2UL, 0x0000f2b4ff7d085bUL, 0x0000d1b0ff79065eUL,
  0x00007412ff870621UL, 0x00008296ff5d054eUL, 0x00002c05ff4e1d26UL, 0x0000630bffb60572UL,
  0x00005d5dff7d0fe0UL, 0x000000cdffb707d8UL, 0x0000415dff780991UL, 0x0000a2abff610451UL,
  0x00005553ff8a047fUL, 0x0000ee5bff950737UL, 0x0000a8d4ff58042bUL, 0x0000d4b4ffa306d5UL,
  0x00004aa5ff6b10a0UL, 0x0000004bff9005dfUL, 0x0000bb77ff5d0b80UL, 0x00007245ffaa0607UL,
  0x0000cad5ffc606f4UL, 0x000037e7ff7509c4UL, 0x00000bf0ff63066fUL, 0x0000a9a1ffba0c7fUL,
  0x000095acffa60681UL, 0x00003a47ff8c0759UL, 0x68000042008022a1UL, 0x1500000008000000UL,
  0x0007000068027c00UL, 0x0000400068070043UL, 0x680c004300000020UL, 0x1041104100000000UL,
  0x30007c00008020e1UL, 0x3002012300080000UL, 0x00060006342e0000UL, 0x0000030000800001UL,
  0x0000000100000000UL, 0x0000002400000001UL, 0x300c004200100000UL, 0x0000000700000006UL,
  0x00000080300d0043UL, 0x30110043342e123fUL, 0x0000000000000000UL, 0x34007c0000802101UL,
  0x3402004300080184UL, 0x00000480703b21b0UL, 0x00000000340500c3UL, 0x0000000000000000UL,
  0x0000002400000000UL, 0x340c004200100000UL, 0x0000000700000006UL, 0x00000001340d0043UL,
  0x34110043703b266fUL, 0x0000000800000000UL, 0x14007c0000802001UL, 0x1402012300080008UL,
  0x00060006342e1200UL, 0x0000030000800001UL, 0x0000008000000001UL, 0x0000002400001200UL,
  0x140c004200100000UL, 0x0000000700000006UL, 0x00000080140d0043UL, 0x14110043342e243fUL,
  0x0000000000000000UL, 0x0000000210007c00UL, 0x0000006410000424UL, 0x10007c0000000000UL,
  0x10007bc440000000UL, 0x0000000000000064UL, 0x0000000110007c00UL, 0x0000002b10027c00UL,
  0x0000000f10120043UL, 0x10227c0000000011UL, 0x10247c0000000019UL, 0x1400200100000029UL,
  0x0010003544007c00UL, 0x6800200164002001UL, 0x3400200130002001UL, 0x0000006414007fe4UL,
  0x10027c0000000000UL, 0x1012004300000000UL, 0x0000000000000000UL, 0x0000000010227c00UL,
  0x0000000010247c00UL, 0x0000000214007c00UL, 0x0000006414000424UL, 0x14007c0000000000UL,
  0x14007bc440000000UL, 0x0000000000000064UL, 0x44007c0000800001UL, 0x4400042400000002UL,
  0x0000000000000064UL, 0x4000000044007c00UL, 0x0000006444007bc4UL, 0x0080018100000000UL,
  0x0800000264007c00UL, 0x0000006464000424UL, 0x64007c0000000000UL, 0x64007bc448000000UL,
  0x0000000000000064UL, 0x68007c0000800281UL, 0x6800042408000002UL, 0x0000000000000064UL,
  0x4800000068007c00UL, 0x0000006468007bc4UL, 0x008002a100000000UL, 0x0000000230007c00UL,
  0x0000006430000424UL, 0x30007c0000000000UL, 0x30007bc440000000UL, 0x0000000000000064UL,
  0x34007c00008000e1UL, 0x3400042400000002UL, 0x0000000000000064UL, 0x4000000034007c00UL,
  0x0000006434007bc4UL, 0x0080010100000000UL, 0x008021a10000029dUL, 0x10d0003448007c00UL,
  0x10800101480200e3UL, 0x10e3440400001100UL, 0x02ff000000060300UL, 0x0000000100050000UL,
  0x00000000480a7c00UL, 0x00000000480d7c00UL, 0x5c00004200802241UL, 0x156000fc08000000UL,
  0x000900005c020123UL, 0x0000000f00000000UL, 0x000011ff0000023fUL, 0x0000000000000000UL,
  0x00000001060403f1UL, 0x000000005c0c0043UL, 0x5c0b7c0020422042UL, 0x5d00200300000001UL,
  0x00006979fe4b243bUL, 0x0000980bfda41e58UL, 0x00001c1cfe580cfaUL, 0x00006cdcfeb934fbUL,
  0x0000182ffdd328b1UL, 0x0000bcfbfe942a66UL, 0x00006911fe021f8bUL, 0x00003929fcc5302fUL,
  0x0000e9f4fec50f75UL, 0x00004d48fe9a2123UL, 0x0000a181fdb32391UL, 0x000000dcfde00f53UL,
  0x0000a483fdd32809UL, 0x0000462cfd882171UL, 0x00003f6afd892981UL, 0x0000cb58fe5e11c9UL,
  0x0000ec2cfdb51d1eUL, 0x00007137fda92035UL, 0x00001609feb91d9bUL, 0x00006f12fceb175aUL,
  0x0000cd65fe2a2517UL, 0x0000cb26fe3718f4UL, 0x00005ef3fe6923beUL, 0x000023e3fdae36baUL,
  0x00000519fe6a1dc4UL, 0x0000c2f3ff1b7297UL, 0x00008d05fd9e2248UL, 0x000068defd6b432bUL,
  0x000058a4feaf4c62UL, 0x00008042fe17426fUL, 0x00007557fe721e8dUL, 0x000043d1fe45149aUL,
  0x0000bf72fddb1ca5UL, 0x00008680fed72940UL, 0x00007c95fd961c13UL, 0x00007893fe442e59UL,
  0x00002a07fdf23423UL, 0x00009c86fe02269eUL, 0x0000c596fe1b1eeeUL, 0x0000491eff041dd8UL,
  0x0000d4adfd1c212dUL, 0x0000220afded151fUL, 0x0000d34ffdd31ea8UL, 0x0000099afdfe145aUL,
  0x000044c4fe461e78UL, 0x00006dcefdbf1cacUL, 0x0000c863fec01ba9UL, 0x000068cefdd316baUL,
  0x0000bf13fd651704UL, 0x0000232ffd9e27beUL, 0x0000df86fdac0167UL, 0x000017b7ff0b2ec3UL,
  0x0000bf93fe3018f5UL, 0x0000d447fe6a27a7UL, 0x0000d4f4fe1f1009UL, 0x0000db27fdea1908UL,
  0x000091e6fd981d6cUL, 0x0000f5cafdad2160UL, 0x00007b44fe8d2d9aUL, 0x0000ed3cfebc4c0eUL,
  0x0000053cfd6b16beUL, 0x00000206fef03138UL, 0x0000b31cfe661d5aUL, 0x000034fcfe3b17e2UL,
  0x00006d7dfde41b24UL, 0x0000a25efe0c2001UL, 0x0000eb51fdbc1f35UL, 0x0000a2bafe31198cUL,
  0x0000fd8efe4f1a31UL, 0x0000f6cafe3d0ba4UL, 0x0000c1a1feb822d1UL, 0x00002e2bfe9722a1UL,
  0x000019ecfdab2c1eUL, 0x00007facfe0c4122UL, 0x0000bc75fefd35d1UL, 0x00009e8cfe591828UL,
  0x000074a3fe581cb0UL, 0x0000af40fe441d62UL, 0x00005ddafede1ea9UL, 0x0000cf83fdc21a58UL,
  0x00004b09fe3b1c2cUL, 0x00001bf6fe361cb0UL, 0x000057aafe371bf3UL, 0x00000236ff123d9bUL,
  0x0000e059fdb52948UL, 0x000073d4fe53225bUL, 0x00007455fe40138bUL, 0x0000deeffe114685UL,
  0x00006f43fd8d2f15UL, 0x00002091fe442398UL, 0x0000bf05fda6333dUL, 0x0000dafbfdf825cfUL,
  0x0000faa3fdcf1bebUL, 0x000041dffe1021d6UL, 0x00008396fe0117abUL, 0x00004799fe611b64UL,
  0x00004846fe671ce0UL, 0x00004567fe11460bUL, 0x0000dd6efe731878UL, 0x00008511fdda1719UL,
  0x0000e6b0fe80242eUL, 0x000087f9fdd71612UL, 0x0000596bfe591520UL, 0x00009b1ffe2c2359UL,
  0x00009124fdb415b6UL, 0x0000a084fd571ef4UL, 0x00000f4dfdbe1dd5UL, 0x00002d4efd712699UL,
  0x000077a5fd8a1f87UL, 0x0000ca0cfe0c14bbUL, 0x0000063bfd3a55c6UL, 0x00009d08fde426e9UL,
  0x0000f9abfe6a399cUL, 0x0000e6b1fe62203eUL, 0x0000a855fe3b1d96UL, 0x0000728cfd831c66UL,
  0x0000fba3fe232bbcUL, 0x000059b0fd5f2446UL, 0x0000fe56fe0912fcUL, 0x0000a78cfe261264UL,
  0x00000579fe65137cUL, 0x000009f2fea05c7cUL, 0x0000648afd2a209fUL, 0x00009303fe0b34bcUL,
  0x000007bbfe1224e4UL, 0x0000a2adfce11d21UL, 0x000064e2fe82157dUL, 0x0000c099fde618b0UL,
  0x6000004200802261UL, 0x1500000008000000UL, 0x0007000060027c00UL, 0x0000400060070043UL,
  0x600c004300000020UL, 0x1041104100000000UL, 0x1c007c0000802041UL, 0x1c02004308880300UL,
  0x00000600342e1200UL, 0x000000001c0500c3UL, 0x0000000800000000UL, 0x0000002400001200UL,
  0x1c0c004200100000UL, 0x0000000700000006UL, 0x000000081c0d0043UL, 0x1c110043342e243fUL,
  0x0000000000000000UL, 0x28007c00008020a1UL, 0x2802004308880184UL, 0x00001558703a0050UL,
  0x00000000280500c3UL, 0x0000000000000000UL, 0x0000002400000000UL, 0x280c004200100000UL,
  0x0000000700000006UL, 0x00000001280d0043UL, 0x28110043703a4097UL, 0x0000000800000000UL,
  0x34007c0000802101UL, 0x3402012300080008UL, 0x00060006342e0000UL, 0x0000030000800010UL,
  0x0000000800000010UL, 0x0000002400001200UL, 0x340c004200100000UL, 0x0000000700000006UL,
  0x00000008340d0043UL, 0x34110043342e123fUL, 0x0000000000000000UL, 0x0000000210007c00UL,
  0x0000006410000424UL, 0x10007c0000000000UL, 0x10007bc440000000UL, 0x0000000000000064UL,
  0x0000000110007c00UL, 0x00000027100a7c00UL, 0x0000000510150043UL, 0x101e7c000000000bUL,
  0x10207c000000001bUL, 0x3400200100000025UL, 0x10d0003548007c00UL, 0x600020015c002001UL,
  0x280020011c002001UL, 0x0000006434007fe4UL, 0x100a7c0000000000UL, 0x1015004300000000UL,
  0x0000000000000000UL, 0x00000000101e7c00UL, 0x0000000010207c00UL, 0x0000000234007c00UL,
  0x0000006434000424UL, 0x34007c0000000000UL, 0x34007bc440000000UL, 0x0000000000000064UL,
  0x48007c0000800101UL, 0x4800042400000002UL, 0x0000000000000064UL, 0x4000000048007c00UL,
  0x0000006448007bc4UL, 0x008001a100000000UL, 0x080000025c007c00UL, 0x000000645c000424UL,
  0x5c007c0000000000UL, 0x5c007bc448000000UL, 0x0000000000000064UL, 0x60007c0000800241UL,
  0x6000042408000002UL, 0x0000000000000064UL, 0x4800000060007c00UL, 0x0000006460007bc4UL,
  0x0080026100000000UL, 0x000000021c007c00UL, 0x000000641c000424UL, 0x1c007c0000000000UL,
  0x1c007bc440000000UL, 0x0000000000000064UL, 0x28007c0000800041UL, 0x2800042400000002UL,
  0x0000000000000064UL, 0x4000000028007c00UL, 0x0000006428007bc4UL, 0x008000a100000000UL,
  0x00802141000002bdUL, 0x001000343c007c00UL, 0x010103033c0200e3UL, 0x1063430300001155UL,
  0x0005000000060006UL, 0x0000000100050000UL, 0x000000003c0a7c00UL, 0x000000003c0d7c00UL,
  0x6400004200802281UL, 0x156000fc08000000UL, 0x0008000064020123UL, 0x0000000000000000UL,
  0x000011ff00000023UL, 0x0000000000000000UL, 0x0000000106040200UL, 0x00000000640c0043UL,
  0x640b7c0020422042UL, 0x6500200300000001UL, 0x00001af5ff8306c0UL, 0x000081d4ff990a6dUL,
  0x0000d153ff7608adUL, 0x00006632ff9705f0UL, 0x0000516eff9304dcUL, 0x0000c24bff6e0332UL,
  0x000069e2ff5f09e5UL, 0x0000ae92ff880364UL, 0x00000bd4ffcc0d7aUL, 0x00003c13ff9a06a1UL,
  0x0000e698ffa00828UL, 0x00006381ff820502UL, 0x000001b4ff9f0c2cUL, 0x0000e891ff95053fUL,
  0x0000c114ff550738UL, 0x000006c7ff6b091bUL, 0x0000cc55ff660a10UL, 0x00002b1eff8e0776UL,
  0x00000f23ffc7078cUL, 0x0000b28eff650e37UL, 0x0000fcc4ff7405beUL, 0x00008d23ff7806f6UL,
  0x0000a084ffb7085eUL, 0x00006c31ffa9051cUL, 0x00002771ff820ad0UL, 0x00007efaffa003bfUL,
  0x00002454ff8e0954UL, 0x0000051cff8a046cUL, 0x000023a9ff7b0ab4UL, 0x0000330fff8e03a8UL,
  0x00006934ff77139cUL, 0x0000df23ff570803UL, 0x0000ee30ff86115fUL, 0x00003c47ff7e0407UL,
  0x0000718eff7a07c7UL, 0x0000afb3ff8b07b3UL, 0x0000c67aff7e0989UL, 0x00004a8eff7c0d3cUL,
  0x0000b0b4ff6b1085UL, 0x000072cfff8a0892UL, 0x0000a59fff9b0550UL, 0x0000c37bff870badUL,
  0x0000ad08ff640984UL, 0x000072d0ff8e0ea2UL, 0x0000bcd0ff5a0944UL, 0x0000f394ff561183UL,
  0x0000a9feffb109f9UL, 0x0000561aff8707cdUL, 0x00000d3fff650f8bUL, 0x0000d31fffb10650UL,
  0x000017a9ff6b4cbcUL, 0x000049a9ff830e25UL, 0x000061ddff620954UL, 0x00001d97ff7903ffUL,
  0x000022afff6e0952UL, 0x000055e2ff7306c0UL, 0x00001541ff940d0aUL, 0x0000651cff5e31a8UL,
  0x00001686ff8b04cdUL, 0x00001df4ffa1066aUL, 0x0000b184ff500843UL, 0x00001882ff960340UL,
  0x00006911ff6a0957UL, 0x00009bf1ff820e40UL, 0x000041bcff6d0941UL, 0x000049d6ff790602UL,
  0x000076fcff5f0b24UL, 0x000037edff680c08UL, 0x000029faff8f09f3UL, 0x0000b2faff4e08b5UL,
  0x00008407ff680870UL, 0x00000dbcffa4038aUL, 0x000036e7ffc1087dUL, 0x0000a170ff790a33UL,
  0x000005e8ff9e051dUL, 0x00004d90ff890759UL, 0x0000dd42ff9510b7UL, 0x0000786aff7b0b1cUL,
  0x000025edff8105e8UL, 0x0000b192ff7d0a07UL, 0x00000274ff820bdcUL, 0x0000a430ff7705a6UL,
  0x0000cb4eff830d90UL, 0x0000a9adffb20429UL, 0x0000ca23ffc70862UL, 0x0000a39fff940a6dUL,
  0x0000c0f4ff5d074bUL, 0x000008c1ffa402f9UL, 0x00004b42ff9b0458UL, 0x00009a2fff730918UL,
  0x00005cfbffae09a5UL, 0x0000855bff7b0ca7UL, 0x0000a785ffb705f4UL, 0x0000d46aff9a06f5UL,
  0x00007b1dff6208cdUL, 0x0000e414ff7a0d54UL, 0x0000f00affba0bf6UL, 0x0000f229ff6f0a3dUL,
  0x00004b2dff820dc6UL, 0x0000423bff810b82UL, 0x000023c1ff68064eUL, 0x00002f45ff790bd7UL,
  0x000074f5ff7b06b3UL, 0x0000b5e3ff8806c4UL, 0x0000c1dbff6c0fd4UL, 0x00005582ff6511a5UL,
  0x0000eb2cff83062aUL, 0x0000cb0fff7d0c2fUL, 0x0000d1c7ff8b0b5dUL, 0x00001fa3ff6e0a2bUL,
  0x00004de8ffa5060aUL, 0x0000c828ff730968UL, 0x00004c30ff890309UL, 0x00008bc9ff6f0a04UL,
  0x0000d938ff73094bUL, 0x0000bcf1ffad10b4UL, 0x0000b4c5ff9b0388UL, 0x000077e0ff4f16d9UL,
  0x000010a1ff790695UL, 0x00003713ff8409e6UL, 0x0000e09dff6d0e28UL, 0x0000c3a8ff9f03b0UL,
  0x0000d140ff8f0be0UL, 0x00007331ffa4047aUL, 0x0000a446ff6b050bUL, 0x0000f85bff631616UL,
  0x00006a11ff500878UL, 0x000076e8ff8404f2UL, 0x68000042008022a1UL, 0x1500000008000000UL,
  0x0007000068027c00UL, 0x0000400068070043UL, 0x680c004300000020UL, 0x1041104100000000UL,
  0x38007c0000802121UL, 0x3802012300080000UL, 0x00060006342e0000UL, 0x0000030000800001UL,
  0x0000000100000000UL, 0x0000002400000001UL, 0x380c004200100000UL, 0x0000000700000006UL,
  0x00000080380d0043UL, 0x38110043342e123fUL, 0x0000000000000000UL, 0x28007c00008020a1UL,
  0x2802004300080184UL, 0x00000480703b2630UL, 0x00000000280500c3UL, 0x0000000000000000UL,
  0x0000002400000000UL, 0x280c004200100000UL, 0x0000000700000006UL, 0x00000001280d0043UL,
  0x28110043703b2aefUL, 0x0000000800000000UL, 0x24007c0000802081UL, 0x2402012300080008UL,
  0x00060006342e1200UL, 0x0000030000800001UL, 0x0000008000000001UL, 0x0000002400001200UL,
  0x240c004200100000UL, 0x0000000700000006UL, 0x00000080240d0043UL, 0x24110043342e243fUL,
  0x0000000000000000UL, 0x0000000210007c00UL, 0x0000006410000424UL, 0x10007c0000000000UL,
  0x10007bc440000000UL, 0x0000000000000064UL, 0x0000000110007c00UL, 0x0000002b10067c00UL,
  0x00000013100c0043UL, 0x10227c000000000bUL, 0x10247c0000000015UL, 0x2400200100000029UL,
  0x001000353c007c00UL, 0x6800200164002001UL, 0x3800200128002001UL, 0x0000006424007fe4UL,
  0x10067c0000000000UL, 0x100c004300000000UL, 0x0000000000000000UL, 0x0000000010227c00UL,
  0x0000000010247c00UL, 0x0000000224007c00UL, 0x0000006424000424UL, 0x24007c0000000000UL,
  0x24007bc440000000UL, 0x0000000000000064UL, 0x3c007c0000800081UL, 0x3c00042400000002UL,
  0x0000000000000064UL, 0x400000003c007c00UL, 0x000000643c007bc4UL, 0x0080014100000000UL,
  0x0800000264007c00UL, 0x0000006464000424UL, 0x64007c0000000000UL, 0x64007bc448000000UL,
  0x0000000000000064UL, 0x68007c0000800281UL, 0x6800042408000002UL, 0x0000000000000064UL,
  0x4800000068007c00UL, 0x0000006468007bc4UL, 0x008002a100000000UL, 0x0000000228007c00UL,
  0x0000006428000424UL, 0x28007c0000000000UL, 0x28007bc440000000UL, 0x0000000000000064UL,
  0x38007c00008000a1UL, 0x3800042400000002UL, 0x0000000000000064UL, 0x4000000038007c00UL,
  0x0000006438007bc4UL, 0x0080012100000000UL, 0x00802161000002ddUL, 0x10d0003440007c00UL,
  0x10800101400200e3UL, 0x10e3440400001100UL, 0x02ff000000060300UL, 0x0000000100050000UL,
  0x00000000400a7c00UL, 0x00000000400d7c00UL, 0x5c00004200802241UL, 0x156000fc08000000UL,
  0x000980005c020123UL, 0x0000000f00000000UL, 0x000011ff0000023fUL, 0x0000000000000000UL,
  0x00000001060403f1UL, 0x000000005c0c0043UL, 0x5c0b7c0020422042UL, 0x5d00200300000001UL,
  0x000055defd912c38UL, 0x00004eb0fc7f3ee1UL, 0x0000fef5fc9e2e6eUL, 0x00007ff1fc70509eUL,
  0x0000d7e5fc734535UL, 0x0000c988fbbc2cfeUL, 0x0000decbfbca3877UL, 0x0000ccbafd2a3cb8UL,
  0x00007461fdaa797dUL, 0x0000dad8fc046101UL, 0x0000bb18fe21377eUL, 0x00008a83fd8d3facUL,
  0x0000c7c0fcb623a9UL, 0x00005d34fbcb3499UL, 0x000065c0fdaf3debUL, 0x0000b710fbc0258dUL,
  0x0000333dfb2f6055UL, 0x00004dfdfc2f505dUL, 0x0000a146fb46427aUL, 0x0000a54efc822266UL,
  0x00004028fd603a8cUL, 0x0000ca38fb9e2e9aUL, 0x0000250efb7c2fa1UL, 0x0000e776fac31e0eUL,
  0x00001de1fa552ac2UL, 0x00006db1fc35255cUL, 0x0000a57bfaf036dbUL, 0x00007472fc304f6cUL,
  0x00007e96fc941fddUL, 0x000054d2fb921be6UL, 0x00007a45fc756154UL, 0x00006c14fd3b5d05UL,
  0x00002a79fc0f7619UL, 0x000038c7fbfa41beUL, 0x0000859dfadb3ba4UL, 0x00005ae2fb1924acUL,
  0x000057d8fc8c553dUL, 0x0000993ffc142d00UL, 0x0000665afb352eceUL, 0x00008fc1fcb54690UL,
  0x0000eabdfc8f4669UL, 0x00006b60fb8e2b80UL, 0x000048fbfb6f2668UL, 0x00007d4cfcae31efUL,
  0x00003a13fb023f1aUL, 0x00006c41fb654038UL, 0x0000066bfbf331abUL, 0x0000b755fb1c05bfUL,
  0x0000e90cfb9a2e1bUL, 0x00007af2fb261e68UL, 0x00008cf1fc78279eUL, 0x000083a1fc212b9bUL,
  0x0000e703fbeb32c9UL, 0x0000b36efc27263aUL, 0x000061d5fbef30d4UL, 0x0000e03dfb8932b7UL,
  0x0000f19dfc7f750eUL, 0x0000cb6cfb3f36fcUL, 0x0000c08cfadd29d6UL, 0x00004c57fbe12e44UL,
  0x00009006fc8534a1UL, 0x0000834dfdf77434UL, 0x000020a0fc7552c6UL, 0x0000eee0fb1c5296UL,
  0x00002046facf2c22UL, 0x0000db57fbc142e1UL, 0x00008884fc842572UL, 0x000031f2fa6045eaUL,
  0x0000aaa0fb282962UL, 0x0000f9e4fcee3afdUL, 0x0000be4afa4921e7UL, 0x00002eb8fb02281fUL,
  0x00005f54fd4a515aUL, 0x0000af4bfd03530aUL, 0x00005de8fc1f6a72UL, 0x0000ca2cfd3f2e7aUL,
  0x00003345fba421dbUL, 0x00007ec3fc384f01UL, 0x00009130fbc61ef0UL, 0x0000c21afbe02f7cUL,
  0x00006254fdb1306aUL, 0x000062f8fe7435e7UL, 0x000017d1faf02d41UL, 0x0000d661fb4e3604UL,
  0x0000e835fccb21a3UL, 0x00008c36fc951fd7UL, 0x00003ef0fec73921UL, 0x0000d923fc02436fUL,
  0x00003b04fbe820ceUL, 0x0000491afaec285dUL, 0x00007a8dfd7e34f4UL, 0x0000541dfb700cebUL,
  0x0000646efc474fd5UL, 0x00004e5bfc862c3cUL, 0x0000293efd0f348dUL, 0x000093f5fd5f5cd7UL,
  0x0000d22dfc932996UL, 0x00004563fd9f502dUL, 0x0000bb66fc194030UL, 0x00008b6bfb553dffUL,
  0x0000f11bfdc84e89UL, 0x000002e4fc69603aUL, 0x00005dbdfb6d28f2UL, 0x00005840fc1d346bUL,
  0x0000e191fcdb3446UL, 0x0000527afca045b0UL, 0x00007eb5fcb97cc8UL, 0x0000069cfd2e55d0UL,
  0x00008460fd132a65UL, 0x000004affd0a3848UL, 0x00006be1fb3730cfUL, 0x000021c4fbf82951UL,
  0x00002ccbfcd61c57UL, 0x00006c87fb2f3783UL, 0x0000fceffb9442e9UL, 0x000006bffa5130d6UL,
  0x00006b9dfb7b2ab9UL, 0x0000db52facb36e3UL, 0x00004e5cfde06823UL, 0x0000478dfbae269cUL,
  0x000095e0fbee39f2UL, 0x0000c41afb9b21fdUL, 0x00002b5bfb942267UL, 0x000087fcfe955c01UL,
  0x00008cc1fb31269aUL, 0x0000db60fd872f51UL, 0x00007862faa13ac4UL, 0x0000a19bfb713329UL,
  0x6000004200802261UL, 0x1500000008000000UL, 0x0007000060027c00UL, 0x0000400060070043UL,
  0x600c004300000020UL, 0x1041104100000000UL, 0x2c007c00008020c1UL, 0x2c02004308880300UL,
  0x00000600342e1200UL, 0x000000002c0500c3UL, 0x0000000800000000UL, 0x0000002400001200UL,
  0x2c0c004200100000UL, 0x0000000700000006UL, 0x000000082c0d0043UL, 0x2c110043342e243fUL,
  0x0000000000000000UL, 0x18007c0000802021UL, 0x1802004308880184UL, 0x00001558703a4060UL,
  0x00000000180500c3UL, 0x0000000000000000UL, 0x0000002400000000UL, 0x180c004200100000UL,
  0x0000000700000006UL, 0x00000001180d0043UL, 0x18110043703a80a7UL, 0x0000000800000000UL,
  0x14007c0000802001UL, 0x1402012300080008UL, 0x00060006342e0000UL, 0x0000030000800010UL,
  0x0000000800000010UL, 0x0000002400001200UL, 0x140c004200100000UL, 0x0000000700000006UL,
  0x00000008140d0043UL, 0x14110043342e123fUL, 0x0000000000000000UL, 0x0000000210007c00UL,
  0x0000006410000424UL, 0x10007c0000000000UL, 0x10007bc440000000UL, 0x0000000000000064UL,
  0x0000000110007c00UL, 0x0000002710027c00UL, 0x0000000d100f0043UL, 0x101e7c0000000003UL,
  0x10207c0000000017UL, 0x1400200100000025UL, 0x10d0003540007c00UL, 0x600020015c002001UL,
  0x2c00200118002001UL, 0x0000006414007fe4UL, 0x10027c0000000000UL, 0x100f004300000000UL,
  0x0000000000000000UL, 0x00000000101e7c00UL, 0x0000000010207c00UL, 0x0000000214007c00UL,
  0x0000006414000424UL, 0x14007c0000000000UL, 0x14007bc440000000UL, 0x0000000000000064UL,
  0x40007c0000800001UL, 0x4000042400000002UL, 0x0000000000000064UL, 0x4000000040007c00UL,
  0x0000006440007bc4UL, 0x0080016100000000UL, 0x080000025c007c00UL, 0x000000645c000424UL,
  0x5c007c0000000000UL, 0x5c007bc448000000UL, 0x0000000000000064UL, 0x60007c0000800241UL,
  0x6000042408000002UL, 0x0000000000000064UL, 0x4800000060007c00UL, 0x0000006460007bc4UL,
  0x0080026100000000UL, 0x0000000218007c00UL, 0x0000006418000424UL, 0x18007c0000000000UL,
  0x18007bc440000000UL, 0x0000000000000064UL, 0x2c007c0000800021UL, 0x2c00042400000002UL,
  0x0000000000000064UL, 0x400000002c007c00UL, 0x000000642c007bc4UL, 0x008000c100000000UL,
  0x00802181000002fdUL, 0x0010003444007c00UL, 0x01010303440200e3UL, 0x1063430300001155UL,
  0x0005000000060006UL, 0x0000000100050000UL, 0x00000000440a7c00UL, 0x00000000440d7c00UL,
  0x6400004200802281UL, 0x156000fc08000000UL, 0x0008000064020123UL, 0x0000000000000000UL,
  0x000011ff00000023UL, 0x0000000000000000UL, 0x0000000106040200UL, 0x00000000640c0043UL,
  0x640b7c0020422042UL, 0x6500200300000001UL, 0x0000f737ffa70647UL, 0x0000b513ffbb0647UL,
  0x00008b7cff7f0a22UL, 0x000032a7ff6d0544UL, 0x00003c4cff6c078cUL, 0x00005ec8ff74089cUL,
  0x0000364cff6f0671UL, 0x000026fcff76087aUL, 0x00008220ff620747UL, 0x00001deaffba041cUL,
  0x00005355ff650b12UL, 0x00008a79ffb40a33UL, 0x00004f12ff6a0965UL, 0x00003aedff7d06dcUL,
  0x000047a2ff88045bUL, 0x0000e6e3ff910613UL, 0x0000e223ff6d0e67UL, 0x0000faf3ff6b0cd4UL,
  0x0000d14eff6f09ebUL, 0x00000b4eff6b07b8UL, 0x00007121ff830a19UL, 0x0000597dff820466UL,
  0x0000bec3ff6a0918UL, 0x0000f560ff6517afUL, 0x0000a1c3ff5511beUL, 0x00005dc2ff76078eUL,
  0x0000147dff8905e2UL, 0x0000f4e7ff7e096aUL, 0x0000a4adff690929UL, 0x00006e5cff780bd3UL,
  0x0000b2eaff9f0476UL, 0x00003210ff5d107bUL, 0x00001395ff8e0363UL, 0x0000311aff5f0591UL,
  0x0000c80aff7c070bUL, 0x000028aeff8f0979UL, 0x0000e3f2ff930a2fUL, 0x00006817ff8105a6UL,
  0x000081b3ff5d0db0UL, 0x0000c526ff9506cbUL, 0x00001bb8ff92073aUL, 0x00002534ff9a078eUL,
  0x00002d8bff8f06afUL, 0x0000194cff810bf8UL, 0x00003226ff740a7dUL, 0x00007762ff88059cUL,
  0x0000cea7ff730699UL, 0x0000f7e2ff5a6e3cUL, 0x0000df0aff7d0aa2UL, 0x00001e10ff5b0886UL,
  0x000028efff6e1104UL, 0x00000f0bff7a0a1bUL, 0x000053e1ff850890UL, 0x000067efff690638UL,
  0x0000d645ffb10523UL, 0x0000db29ff7a0bd6UL, 0x000028d2ff7605e5UL, 0x00008a5fff69033bUL,
  0x00001320ff8e05acUL, 0x0000641bff7a06c9UL, 0x00006904ff830865UL, 0x000088c3ff9602b8UL,
  0x00009924ff7d0459UL, 0x00005e95ff6e0784UL, 0x000084feff8207e1UL, 0x00001d47ff7b03caUL,
  0x0000b93aff8c0613UL, 0x0000e9d0ff7a07ddUL, 0x00001d36ff8c068aUL, 0x000071a9ff7d0878UL,
  0x00009dccff89074fUL, 0x000072e4ff660dd3UL, 0x00007abdff6c0648UL, 0x0000632aff7d0866UL,
  0x00008e30ff7e0ca5UL, 0x0000dd06ff8f08d0UL, 0x0000d5b0ff6e0a2cUL, 0x0000e724ff9404daUL,
  0x0000af22ff740a48UL, 0x0000b00eff6d03feUL, 0x0000cc78ff7703ebUL, 0x0000fc2cff9e0566UL,
  0x0000e154ff5c0822UL, 0x0000fa7eff8a0488UL, 0x0000c201ff89058fUL, 0x0000c533ff8b0e21UL,
  0x0000f9daffa303f6UL, 0x0000b0bfffa209c6UL, 0x0000d66aff650513UL, 0x0000dfc8ff8104b6UL,
  0x0000a965ff7a03a3UL, 0x0000e787ff837cf1UL, 0x000073a5ff9805b3UL, 0x0000b8b8ff780e87UL,
  0x0000b8d1ff7a0aa6UL, 0x00003855ff9a088fUL, 0x00009d75ff750b4fUL, 0x0000b395ff950551UL,
  0x0000d447ff750bd9UL, 0x0000e27bff97037fUL, 0x00001c91ff7011d9UL, 0x00006db7ff9b069fUL,
  0x0000fb9bff65056aUL, 0x00008039ff6f096aUL, 0x0000b374ff6c0ceeUL, 0x00004e28ff7206ffUL,
  0x00003636ffb806a6UL, 0x0000c121ff8314baUL, 0x0000ae74ff870a4fUL, 0x0000e6e8ffb4093aUL,
  0x00000068ff6b0a6cUL, 0x00006515ff6a083cUL, 0x0000bfa7ff680ebcUL, 0x00002827ff8e0375UL,
  0x0000e404ff79041aUL, 0x00001efdff5010b7UL, 0x0000c200ff4f0a11UL, 0x000006e3ff67070eUL,
  0x00008d17ff8e0298UL, 0x0000e9aaffa80a9dUL, 0x000035e6ff790903UL, 0x00008c8aff8505d9UL,
  0x00002554ff6d0ad9UL, 0x0000e954ff7807aaUL, 0x0000f1d7ff710924UL, 0x0000712effa5087fUL,
  0x0000b088ff940342UL, 0x000043c4ff5b09a7UL, 0x68000042008022a1UL, 0x1500000008000000UL,
  0x0007000068027c00UL, 0x0000400068070043UL, 0x680c004300000020UL, 0x1041104100000000UL,
  0x1c007c0000802041UL, 0x1c02012300080000UL, 0x00060006342e0000UL, 0x0000030000800001UL,
  0x0000000100000000UL, 0x0000002400000001UL, 0x1c0c004200100000UL, 0x0000000700000006UL,
  0x000000801c0d0043UL, 0x1c110043342e123fUL, 0x0000000000000000UL, 0x34007c0000802101UL,
  0x3402004300080184UL, 0x00000480703b2ab0UL, 0x00000000340500c3UL, 0x0000000000000000UL,
  0x0000002400000000UL, 0x340c004200100000UL, 0x0000000700000006UL, 0x00000001340d0043UL,
  0x34110043703b2f6fUL, 0x0000000800000000UL, 0x2c007c00008020c1UL, 0x2c02012300080008UL,
  0x00060006342e1200UL, 0x0000030000800001UL, 0x0000008000000001UL, 0x0000002400001200UL,
  0x2c0c004200100000UL, 0x0000000700000006UL, 0x000000802c0d0043UL, 0x2c110043342e243fUL,
  0x0000000000000000UL, 0x0000000210007c00UL, 0x0000006410000424UL, 0x10007c0000000000UL,
  0x10007bc440000000UL, 0x0000000000000064UL, 0x0000000110007c00UL, 0x0000002b10087c00UL,
  0x0000000510120043UL, 0x10227c0000000011UL, 0x10247c0000000019UL, 0x2c00200100000029UL,
  0x0010003544007c00UL, 0x6800200164002001UL, 0x340020011c002001UL, 0x000000642c007fe4UL,
  0x10087c0000000000UL, 0x1012004300000000UL, 0x0000000000000000UL, 0x0000000010227c00UL,
  0x0000000010247c00UL, 0x000000022c007c00UL, 0x000000642c000424UL, 0x2c007c0000000000UL,
  0x2c007bc440000000UL, 0x0000000000000064UL, 0x44007c00008000c1UL, 0x4400042400000002UL,
  0x0000000000000064UL, 0x4000000044007c00UL, 0x0000006444007bc4UL, 0x0080018100000000UL,
  0x0800000264007c00UL, 0x0000006464000424UL, 0x64007c0000000000UL, 0x64007bc448000000UL,
  0x0000000000000064UL, 0x68007c0000800281UL, 0x6800042408000002UL, 0x0000000000000064UL,
  0x4800000068007c00UL, 0x0000006468007bc4UL, 0x008002a100000000UL, 0x000000021c007c00UL,
  0x000000641c000424UL, 0x1c007c0000000000UL, 0x1c007bc440000000UL, 0x0000000000000064UL,
  0x34007c0000800041UL, 0x3400042400000002UL, 0x0000000000000064UL, 0x4000000034007c00UL,
  0x0000006434007bc4UL, 0x0080010100000000UL, 0x008021a10000031dUL, 0x10d0003448007c00UL,
  0x10800101480200e3UL, 0x10e3450500001100UL, 0x02ff000000060300UL, 0x0000000100050000UL,
  0x00000000480a7c00UL, 0x00000000480d7c00UL, 0x5c00004200802241UL, 0x156000fc08000000UL,
  0x000880005c020123UL, 0x0000000f00000000UL, 0x000011ff0000023fUL, 0x0000000000000000UL,
  0x00000001060403f1UL, 0x000000005c0c0043UL, 0x5c0b7c0020422042UL, 0x5d00200300000001UL,
  0x00001626ff0e11c7UL, 0x00002ab9fee7184aUL, 0x0000d5b7ff1814f5UL, 0x00009667ff532d9bUL,
  0x000039defee123cbUL, 0x0000f52bff410d4aUL, 0x00001af5fe992862UL, 0x00008922fe9e1742UL,
  0x000089b4ff3614d4UL, 0x0000a0e2ff082029UL, 0x0000e4e9ff0218eeUL, 0x0000eb86ff081410UL,
  0x0000d70eff431160UL, 0x0000f1a8ff711cd3UL, 0x0000cc0afeb91658UL, 0x000021b2ff172510UL,
  0x000093fbff280c88UL, 0x0000bb8bff051239UL, 0x000087e3ff0629ddUL, 0x0000d518ff6a0fadUL,
  0x00007fe8ff7626bfUL, 0x00002f2aff3118c9UL, 0x00008ff1fee11c1cUL, 0x0000c7a1fed9101fUL,
  0x0000d1faff240c49UL, 0x00005f53ff131861UL, 0x0000a72bff10110aUL, 0x000055d7ff1c18beUL,
  0x0000516cff241421UL, 0x0000b0c8feb81b5fUL, 0x0000a850fefe276bUL, 0x000072a9febc135fUL,
  0x0000f4c7ff4e395dUL, 0x0000ec6fff36397cUL, 0x00001613ff101335UL, 0x0000203dfef11d03UL,
  0x00005270ff293938UL, 0x00006a1ffeef2343UL, 0x0000b0a0fefd3008UL, 0x0000a2b6fe8c1c37UL,
  0x000021aeff232d84UL, 0x00000ef6fedb2282UL, 0x0000b2bfff4f4797UL, 0x00007b07ff470dd0UL,
  0x0000c7f3ff4c0feaUL, 0x00004953fecd16d7UL, 0x0000a47bff7813efUL, 0x00002e27ff2d124cUL,
  0x00007d99feed42e3UL, 0x0000dc21ff522e51UL, 0x0000ea88ff240e82UL, 0x0000f3adff0216f7UL,
  0x0000dec1ff0d198dUL, 0x0000f241ff243147UL, 0x00006116ff4b1e5cUL, 0x00005044fef318c9UL,
  0x000008ecfef41ff0UL, 0x00006d7dff610b87UL, 0x000071ebff3113ecUL, 0x000089eefee51118UL,
  0x000012f7fec41a16UL, 0x0000ff6efec43ccaUL, 0x0000e627ff11214bUL, 0x0000397dff31269bUL,
  0x0000954efec41887UL, 0x0000a04eff181050UL, 0x0000f953feb60076UL, 0x0000f061fed918ebUL,
  0x00002269ff0821b0UL, 0x00004dfdfef0101dUL, 0x00005bc0fee03137UL, 0x00001563febb0cceUL,
  0x00005065ff221070UL, 0x00004386ff3e0572UL, 0x00005339ff102a0eUL, 0x0000e4efff1f0f1cUL,
  0x000025c8fed11dbdUL, 0x0000a4bafedc1713UL, 0x00008663ff4d1e38UL, 0x00004b39ff2f0f86UL,
  0x000049b6fea100baUL, 0x0000a530fef41852UL, 0x00000443ff151977UL, 0x00004217ff240ccaUL,
  0x0000d8e8fef52c3dUL, 0x0000bbeaff22352fUL, 0x0000fff5ff171ed7UL, 0x00008055febe1836UL,
  0x0000a3eaff2a0fc9UL, 0x000026ecfef71779UL, 0x0000e082ff070cfdUL, 0x0000e845fe912117UL,
  0x000035e2fe911f0eUL, 0x0000c6a8ff014018UL, 0x0000dbefff5b3228UL, 0x00008d04ff9e307aUL,
  0x00007403fef72022UL, 0x00002ea9ff591cbdUL, 0x0000c1cfff4c24deUL, 0x0000e9cdff4419bdUL,
  0x00007bd9ff022334UL, 0x000023d0ff391275UL, 0x00003320ff5020a7UL, 0x0000246dff141bebUL,
  0x0000b0affe41121dUL, 0x0000edbbfee1170bUL, 0x0000b99cfeab199aUL, 0x0000fb04feed15e0UL,
  0x0000d22ffebb192aUL, 0x00007fdafee118beUL, 0x00002dbaff061955UL, 0x00004febff132c02UL,
  0x00008578fef22894UL, 0x00001ccffefc155cUL, 0x00004565ff581dc1UL, 0x000096b4fecd2670UL,
  0x0000e091fef930a6UL, 0x00007c64ff021a2dUL, 0x00003a25ff0c11d9UL, 0x00006daaff0b172eUL,
  0x000087c8ff1a18a2UL, 0x000056bfff1f197aUL, 0x0000a279ff16249eUL, 0x0000002bff641e72UL,
  0x0000b0c8feef1f90UL, 0x0000a2aeff171c20UL, 0x0000858cfeb61fceUL, 0x00008a9cff4515faUL,
