/**
  ******************************************************************************
  * @file    network_ecblobs.h
  * @brief   NN Code autogenerated DO NOT MODIFY IT
  ******************************************************************************
  * @attention
  *
  * Copyright (c) 2024 STMicroelectronics.
  * All rights reserved.
  *
  * This software is licensed under terms that can be found in the LICENSE file
  * in the root directory of this software component.
  * If no LICENSE file comes with this software, it is provided AS-IS.
  *
  ******************************************************************************
  */


#ifdef __cplusplus
extern "C" {
#endif

#include "ll_aton_caches_interface.h"

#include <string.h>

#if !defined(ECBLOB_CONST_SECTION)
#define ECBLOB_CONST_SECTION /* Empty */
#endif
#if !defined(ECBLOB_RUNTIME_SECTION)
#define ECBLOB_RUNTIME_SECTION /* Empty */
#endif

ECBLOB_CONST_SECTION
// aligned to the cache line size (equal to 64 bytes)
__attribute__((aligned(64)))
static const uint64_t _ec_blob_network_1[49992] =
{
  0x00018684ca057a7aUL, 0x0000005d0000003dUL, 0x5c00004200802241UL, 0x1500006008000000UL,
  0x000700005c027c00UL, 0x000040005c070043UL, 0x5c0c00430000ffe0UL, 0x1041204200000000UL,
  0x20007c0000802061UL, 0x2002004300080104UL, 0x0002a300342e0000UL, 0x00000000200500c3UL,
  0x000000000002a300UL, 0x0000002400000000UL, 0x200c004200100000UL, 0x0000000700000006UL,
  0x00000001200d0043UL, 0x201100433430a33fUL, 0x0000000000000000UL, 0x28007c00008020a1UL,
  0x280200430008010cUL, 0x0002a3003430a300UL, 0x00000000280500c3UL, 0x000000000002a300UL,
  0x0000002400000000UL, 0x280c004200100000UL, 0x0000000700000006UL, 0x00000001280d0043UL,
  0x281100433433463fUL, 0x0000000000000000UL, 0x0000000210007c00UL, 0x0000006410000424UL,
  0x10007c0000000000UL, 0x10007bc440000000UL, 0x0000000000000064UL, 0x0000000110007c00UL,
  0x0000002510077c00UL, 0x00000007101e7c00UL, 0x5c00200128002001UL, 0x28007fe420002001UL,
  0x0000000000000064UL, 0x0000000010077c00UL, 0x00000000101e7c00UL, 0x0000000228007c00UL,
  0x0000006428000424UL, 0x28007c0000000000UL, 0x28007bc440000000UL, 0x0000000000000064UL,
  0x5c007c00008000a1UL, 0x5c00042408000002UL, 0x0000000000000064UL, 0x480000005c007c00UL,
  0x000000645c007bc4UL, 0x0080024100000000UL, 0x0000000220007c00UL, 0x0000006420000424UL,
  0x20007c0000000000UL, 0x20007bc440000000UL, 0x0000000000000064UL, 0x0000007d00800061UL,
  0x3c007c0000802141UL, 0x3c0200e300000034UL, 0x0000224408030303UL, 0x00f002d010634202UL,
  0x00ef000002cf0000UL, 0x3c0a7c0000000001UL, 0x3c0d7c0000000000UL, 0x0080226100000000UL,
  0x0800000060000042UL, 0x60020123156000fcUL, 0x00000000000a8000UL, 0x0001c1ff00000007UL,
  0x00000000000707ffUL, 0x078403f900000000UL, 0x600c004300000001UL, 0x2042204200000000UL,
  0x00000001600b7c00UL, 0x004e0cfa61000803UL, 0x01bd2f960000b43dUL, 0x01d53e3f0000dc23UL,
  0xf91c466d0000cfecUL, 0x00e80aa70000365fUL, 0x021e51f000002effUL, 0x014406e40000375dUL,
  0x00c761c300006303UL, 0x01130b91000066d9UL, 0x01a113150000c9b9UL, 0xfeb620990000745eUL,
  0xfe5710ac00005876UL, 0x01d343790000133cUL, 0x01ed100c0000f1e2UL, 0x01db35d50000ce75UL,
  0x00ad30a100009fdcUL, 0x01b43307000050b2UL, 0xfe9d1a800000f28bUL, 0xfadc30160000af88UL,
  0x01c262070000f698UL, 0x00f74aaa00001219UL, 0x02061f53000005ebUL, 0x01da2e66000084a2UL,
  0x00e042830000aeccUL, 0x0209065f0000cd43UL, 0x019b2c4d0000a657UL, 0xff3c22f000004d8fUL,
  0x030104e400008d8eUL, 0x0065245f00009f43UL, 0xfc271fdd0000f573UL, 0x02070a660000de3aUL,
  0x01d336be00002964UL, 0x008022010000c7f9UL, 0x0174104c54007c00UL, 0x00087f8054020043UL,
  0x550002030210520fUL, 0x0000000100000000UL, 0x0000000300000002UL, 0x0000000500000004UL,
  0x000000c700000006UL, 0x000000d7000000cfUL, 0x000000200000001fUL, 0x0000002200000021UL,
  0x0000002400000023UL, 0x0000000056000943UL, 0x000000000000c000UL, 0x000000000000c000UL,
  0x000000000000c000UL, 0x000000000000c000UL, 0x000000000000c000UL, 0x000000000000c000UL,
  0x000000000000c000UL, 0x000000000000c000UL, 0x000000000000c000UL, 0x000000000000c000UL,
  0x000000000000c000UL, 0x040000000000c000UL, 0x000000000000c300UL, 0x040000000000c080UL,
  0x080000000000c200UL, 0x180000000000c280UL, 0x300000000000bf80UL, 0x540000000000b480UL,
  0x6c00000000009b80UL, 0x6800000000008600UL, 0x4000000000008b80UL, 0x200000000000c500UL,
  0x100000000000fb00UL, 0x0800000000001a00UL, 0x0400000000002b00UL, 0x0000000000003480UL,
  0x0000000000003f00UL, 0x0000000000003f80UL, 0x0000000000003f80UL, 0x0000000000003f80UL,
  0x0000000000003f80UL, 0x0000000000003f80UL, 0x0000000000003f80UL, 0x0000000000003f80UL,
  0x0000000000003f80UL, 0x0000000000003f80UL, 0x0080212100003f80UL, 0x0008010038007c00UL,
  0x3430a30038020043UL, 0x380500c30002a300UL, 0x0002a30000000000UL, 0x0000000000000001UL,
  0x0010000000000024UL, 0x00000006380c0042UL, 0x380d004300000007UL, 0x3433463f00000004UL,
  0x0000000038110043UL, 0x008020a100000000UL, 0x0008018428007c00UL, 0x70b6618028020043UL,
  0x280500c300000360UL, 0x0000000000000000UL, 0x0000000000000000UL, 0x0010000000000024UL,
  0x00000006280c0042UL, 0x280d004300000007UL, 0x70b6651f00000001UL, 0x0000000028110043UL,
  0x0080200100000008UL, 0x0008010814007c00UL, 0x3425180014020043UL, 0x140500c30001c200UL,
  0x0001c20000000000UL, 0x0000000000000000UL, 0x0010000000000024UL, 0x00000006140c0042UL,
  0x140d004300000007UL, 0x342c203f00000004UL, 0x0000000014110043UL, 0x0080208100000000UL,
  0x0008010824007c00UL, 0x341e100024020043UL, 0x240500c30001c200UL, 0x0001c20000000000UL,
  0x0000000000000000UL, 0x0010000000000024UL, 0x00000006240c0042UL, 0x240d004300000007UL,
  0x3425183f00000004UL, 0x0000000024110043UL, 0x10007c0000000000UL, 0x1000042400000002UL,
  0x0000000000000064UL, 0x4000000010007c00UL, 0x0000006410007bc4UL, 0x10007c0000000000UL,
  0x10027c0000000001UL, 0x10067c0000000027UL, 0x100c004300000021UL, 0x0000000b00000013UL,
  0x00000027101c7c00UL, 0x0000001510207c00UL, 0x2400200114002001UL, 0x000000353c007c00UL,
  0x6000200154002001UL, 0x3800200128002001UL, 0x0000006414007fe4UL, 0x24007fe400000000UL,
  0x0000000000000064UL, 0x0000000010027c00UL, 0x0000000010067c00UL, 0x00000000100c0043UL,
  0x101c7c0000000000UL, 0x10207c0000000000UL, 0x14007c0000000000UL, 0x1400042400000002UL,
  0x0000000000000064UL, 0x4000000014007c00UL, 0x0000006414007bc4UL, 0x0080000100000000UL,
  0x0000000224007c00UL, 0x0000006424000424UL, 0x24007c0000000000UL, 0x24007bc440000000UL,
  0x0000000000000064UL, 0x3c007c0000800081UL, 0x3c00042400000002UL, 0x0000000000000064UL,
  0x400000003c007c00UL, 0x000000643c007bc4UL, 0x0080014100000000UL, 0x0088108254007c00UL,
  0x0000006454000424UL, 0x54007c0000000000UL, 0x54007bc440881080UL, 0x0000000000000064UL,
  0x60007c0000800201UL, 0x6000042408000002UL, 0x0000000000000064UL, 0x4800000060007c00UL,
  0x0000006460007bc4UL, 0x0080026100000000UL, 0x0000000228007c00UL, 0x0000006428000424UL,
  0x28007c0000000000UL, 0x28007bc440000000UL, 0x0000000000000064UL, 0x38007c00008000a1UL,
  0x3800042400000002UL, 0x0000000000000064UL, 0x4000000038007c00UL, 0x0000006438007bc4UL,
  0x0080012100000000UL, 0x008022810000009dUL, 0x0800000064000042UL, 0x64027c0009000f60UL,
  0x6407004300000000UL, 0x0000000100010001UL, 0x00000000640c0043UL, 0x008022a110411041UL,
  0x0800000068000042UL, 0x68027c0009000160UL, 0x6807004300038007UL, 0x0000400000004000UL,
  0x00000000680c0043UL, 0x0080204110412042UL, 0x000801001c007c00UL, 0x342518001c020043UL,
  0x1c0500c30001c200UL, 0x0001c20000000000UL, 0x0000000000000000UL, 0x0010000000000024UL,
  0x000000061c0c0042UL, 0x1c0d004300000007UL, 0x342c203f00000004UL, 0x000000001c110043UL,
  0x0080210100000000UL, 0x0008010034007c00UL, 0x341e100034020043UL, 0x340500c30001c200UL,
  0x0001c20000000000UL, 0x0000000000000000UL, 0x0010000000000024UL, 0x00000006340c0042UL,
  0x340d004300000007UL, 0x3425183f00000004UL, 0x0000000034110043UL, 0x008020c100000000UL,
  0x000801002c007c00UL, 0x342518002c020043UL, 0x2c0500c30001c200UL, 0x0001c20000000000UL,
  0x0000000000000000UL, 0x0010000000000024UL, 0x000000062c0c0042UL, 0x2c0d004300000007UL,
  0x342c203f00000004UL, 0x000000002c110043UL, 0x0080208100000000UL, 0x0088010824007c00UL,
  0x3410000024020043UL, 0x240500c30001c200UL, 0x0003840000000000UL, 0x0000000000000000UL,
  0x0010000000000024UL, 0x00000006240c0042UL, 0x240d004300000007UL, 0x341e103f00000004UL,
  0x0000000024110043UL, 0x10007c0000000000UL, 0x1000042400000002UL, 0x0000000000000064UL,
  0x4000000010007c00UL, 0x0000006410007bc4UL, 0x10007c0000000000UL, 0x10067c0000000001UL,
  0x102200830000002bUL, 0x0000001100000005UL, 0x0000000d00000029UL, 0x6400200124002001UL,
  0x1c00200168002001UL, 0x340020012c002001UL, 0x0000006424007fe4UL, 0x10067c0000000000UL,
  0x1022008300000000UL, 0x0000000000000000UL, 0x0000000000000000UL, 0x0000000224007c00UL,
  0x0000006424000424UL, 0x24007c0000000000UL, 0x24007bc440000000UL, 0x0000000000000064UL,
  0x64007c0000800081UL, 0x6400042408000002UL, 0x0000000000000064UL, 0x4800000064007c00UL,
  0x0000006464007bc4UL, 0x0080028100000000UL, 0x0800000268007c00UL, 0x0000006468000424UL,
  0x68007c0000000000UL, 0x68007bc448000000UL, 0x0000000000000064UL, 0x1c007c00008002a1UL,
  0x1c00042400000002UL, 0x0000000000000064UL, 0x400000001c007c00UL, 0x000000641c007bc4UL,
  0x0080004100000000UL, 0x000000022c007c00UL, 0x000000642c000424UL, 0x2c007c0000000000UL,
  0x2c007bc440000000UL, 0x0000000000000064UL, 0x34007c00008000c1UL, 0x3400042400000002UL,
  0x0000000000000064UL, 0x4000000034007c00UL, 0x0000006434007bc4UL, 0x0080010100000000UL,
  0x00802241000000bdUL, 0x080000005c000042UL, 0x5c027c0005000160UL, 0x5c07004300092c03UL,
  0x0000b25cbba64504UL, 0x000000005c0c0043UL, 0x0080210110412042UL, 0x0088010034007c00UL,
  0x3410000034020043UL, 0x340500c30001c200UL, 0x0003840000000000UL, 0x0000000000000000UL,
  0x0010000000000024UL, 0x00000006340c0042UL, 0x340d004300000007UL, 0x341e103f00000004UL,
  0x0000000034110043UL, 0x0080208100000000UL, 0x0008010024007c00UL, 0x341e100024020043UL,
  0x240500c30001c200UL, 0x0001c20000000000UL, 0x0000000000000000UL, 0x0010000000000024UL,
  0x00000006240c0042UL, 0x240d004300000007UL, 0x3425183f00000004UL, 0x0000000024110043UL,
  0x0080202100000000UL, 0x0008010818007c00UL, 0x3431840018020043UL, 0x180500c30001c200UL,
  0x0001c20000000000UL, 0x0000000000000000UL, 0x0010000000000024UL, 0x00000006180c0042UL,
  0x180d004300000007UL, 0x34388c3f00000004UL, 0x0000000018110043UL, 0x10007c0000000000UL,
  0x1000042400000002UL, 0x0000000000000064UL, 0x4000000010007c00UL, 0x0000006410007bc4UL,
  0x10007c0000000000UL, 0x10037c0000000001UL, 0x101e004300000025UL, 0x0000000900000011UL,
  0x5c00200118002001UL, 0x3400200124002001UL, 0x0000006418007fe4UL, 0x10037c0000000000UL,
  0x101e004300000000UL, 0x0000000000000000UL, 0x0000000218007c00UL, 0x0000006418000424UL,
  0x18007c0000000000UL, 0x18007bc440000000UL, 0x0000000000000064UL, 0x5c007c0000800021UL,
  0x5c00042408000002UL, 0x0000000000000064UL, 0x480000005c007c00UL, 0x000000645c007bc4UL,
  0x0080024100000000UL, 0x0000000224007c00UL, 0x0000006424000424UL, 0x24007c0000000000UL,
  0x24007bc440000000UL, 0x0000000000000064UL, 0x34007c0000800081UL, 0x3400042400000002UL,
  0x0000000000000064UL, 0x4000000034007c00UL, 0x0000006434007bc4UL, 0x0080010100000000UL,
  0x00802161000000ddUL, 0x0000005440007c00UL, 0x04080303400200e3UL, 0x10b7400400001155UL,
  0x03bf0000007803c0UL, 0x0003001000770000UL, 0x00000000400a7c00UL, 0x00ffff81400c0043UL,
  0x0080218100000000UL, 0x0000004044007c00UL, 0x04080303440200e3UL, 0x10b7400000001155UL,
  0x03bf0000007803c0UL, 0x0007041000770000UL, 0x00000000440a7c00UL, 0x00ffff81440c0043UL,
  0x008021a100000000UL, 0x0000004048007c00UL, 0x04080303480200e3UL, 0x10b7400000001155UL,
  0x03bf0000007803c0UL, 0x000b081000770000UL, 0x00000000480a7c00UL, 0x00ffff81480c0043UL,
  0x0080214100000000UL, 0x000000403c007c00UL, 0x040803033c0200e3UL, 0x10a3440000001155UL,
  0x03bf0000007803c0UL, 0x000f0c1000770000UL, 0x000000003c0a7c00UL, 0x00ffff813c0c0043UL,
  0x0080226100000000UL, 0x0800000060000042UL, 0x60020123156000fcUL, 0x0000000000090000UL,
  0x0000e0ff00000003UL, 0x00000000000383ffUL, 0x07c403fd00000000UL, 0x600c004300000001UL,
  0x2042204200000000UL, 0x00000001600b7c00UL, 0x00581b6861000403UL, 0x007239a4000033b5UL,
  0x00555a4a00005344UL, 0x007215690000eaf4UL, 0x008c41680000f430UL, 0x008f1a41000082afUL,
  0x006434980000686fUL, 0x00511b5c00003453UL, 0x006812340000b57fUL, 0x00aa1e8600002e23UL,
  0x00b812280000b144UL, 0x00c10ce70000eaebUL, 0x0054295b00009c4dUL, 0x005e356600004d8bUL,
  0x008916a40000cea3UL, 0x005b16330000cd2dUL, 0x008022210000c2ffUL, 0x0174104c58007c00UL,
  0x00087f8058020043UL, 0x59000203021062cfUL, 0x0000000100000000UL, 0x0000000300000002UL,
  0x0000000500000004UL, 0x0000000700000006UL, 0x000000cc00000088UL, 0x0000001500000014UL,
  0x0000001700000016UL, 0x0000001900000018UL, 0x000000005a000683UL, 0x000000000000f800UL,
  0x000000000000f800UL, 0x000000000000f800UL, 0x000000000000f800UL, 0x000000000000f800UL,
  0x000000000000f800UL, 0x000000000000f800UL, 0x000000000000f800UL, 0x000000000000f800UL,
  0x000000000000f800UL, 0xf30020000000f800UL, 0x040000000000faa2UL, 0x240000000000f620UL,
  0x760000000000e480UL, 0x4c0000000000b280UL, 0x100000000000cf70UL, 0x020000000000fb30UL,
  0x0000000000000630UL, 0x00000000000007f0UL, 0x00000000000007f0UL, 0x00000000000007f0UL,
  0x00000000000007f0UL, 0x00000000000007f0UL, 0x00000000000007f0UL, 0x00000000000007f0UL,
  0x00802101000007f0UL, 0x0008c10034007c00UL, 0x3431840034020043UL, 0x340500c30001c200UL,
  0x0007080000000000UL, 0x0000000000000001UL, 0x0010000000000024UL, 0x00000006340c0042UL,
  0x340d004300000007UL, 0x34388c3f00000004UL, 0x0000000034110043UL, 0x008020e100000000UL,
  0x0008c18430007c00UL, 0x70b5348030020043UL, 0x300500c300001200UL, 0x0000000000000000UL,
  0x0000000000000000UL, 0x0010000000000024UL, 0x00000006300c0042UL, 0x300d004300000007UL,
  0x70b546bf00000001UL, 0x0000000030110043UL, 0x008020c100000008UL, 0x0008c1002c007c00UL,
  0x343346002c020043UL, 0x2c0500c30001c200UL, 0x0007080000000000UL, 0x0000000000000001UL,
  0x0010000000000024UL, 0x000000062c0c0042UL, 0x2c0d004300000007UL, 0x34388c3f00000004UL,
  0x000000002c110043UL, 0x0080202100000000UL, 0x0008c10018007c00UL, 0x3435080018020043UL,
  0x180500c30001c200UL, 0x0007080000000000UL, 0x0000000000000001UL, 0x0010000000000024UL,
  0x00000006180c0042UL, 0x180d004300000007UL, 0x34388c3f00000004UL, 0x0000000018110043UL,
  0x0080206100000000UL, 0x0008c10020007c00UL, 0x3436ca0020020043UL, 0x200500c30001c200UL,
  0x0007080000000000UL, 0x0000000000000001UL, 0x0010000000000024UL, 0x00000006200c0042UL,
  0x200d004300000007UL, 0x34388c3f00000004UL, 0x0000000020110043UL, 0x0080212100000000UL,
  0x0008010838007c00UL, 0x3427000038020043UL, 0x380500c30000e100UL, 0x0000e10000000000UL,
  0x0000000000000000UL, 0x0010000000000024UL, 0x00000006380c0042UL, 0x380d004300000007UL,
  0x342a843f00000004UL, 0x0000000038110043UL, 0x0080200100000000UL, 0x0008010814007c00UL,
  0x342e000014020043UL, 0x140500c30000e100UL, 0x0000e10000000000UL, 0x0000000000000000UL,
  0x0010000000000024UL, 0x00000006140c0042UL, 0x140d004300000007UL, 0x3431843f00000004UL,
  0x0000000014110043UL, 0x10007c0000000000UL, 0x1000042400000002UL, 0x0000000000000064UL,
  0x4000000010007c00UL, 0x0000006410007bc4UL, 0x10007c0000000000UL, 0x10027c0000000001UL,
  0x100b00c300000023UL, 0x0000000700000027UL, 0x0000001b0000000fUL, 0x0000000f00000011UL,
  0x0000000d101200c3UL, 0x000000170000000fUL, 0x0000000f00000003UL, 0x101d7c0000000019UL,
  0x10207c0000000027UL, 0x1400200100000015UL, 0x3c007c0038002001UL, 0x40007c0000000041UL,
  0x44007c0000000055UL, 0x48007c0000000041UL, 0x5800200100000041UL, 0x1800200160002001UL,
  0x2c00200120002001UL, 0x3400200130002001UL, 0x0000006414007fe4UL, 0x38007fe400000000UL,
  0x0000000000000064UL, 0x0000000010027c00UL, 0x00000000100b00c3UL, 0x0000000000000000UL,
  0x0000000000000000UL, 0x101200c300000000UL, 0x0000000000000000UL, 0x0000000000000000UL,
  0x0000000000000000UL, 0x00000000101d7c00UL, 0x0000000010207c00UL, 0x0000000214007c00UL,
  0x0000006414000424UL, 0x14007c0000000000UL, 0x14007bc440000000UL, 0x0000000000000064UL,
  0x38007c0000800001UL, 0x3800042400000002UL, 0x0000000000000064UL, 0x4000000038007c00UL,
  0x0000006438007bc4UL, 0x0080012100000000UL, 0x000000023c007c00UL, 0x000000643c000424UL,
  0x3c007c0000000000UL, 0x3c007bc440000000UL, 0x0000000000000064UL, 0x40007c0000800141UL,
  0x4000042400000002UL, 0x0000000000000064UL, 0x4000000040007c00UL, 0x0000006440007bc4UL,
  0x0080016100000000UL, 0x0000000244007c00UL, 0x0000006444000424UL, 0x44007c0000000000UL,
  0x44007bc440000000UL, 0x0000000000000064UL, 0x48007c0000800181UL, 0x4800042400000002UL,
  0x0000000000000064UL, 0x4000000048007c00UL, 0x0000006448007bc4UL, 0x008001a100000000UL,
  0x0088108258007c00UL, 0x0000006458000424UL, 0x58007c0000000000UL, 0x58007bc440881080UL,
  0x0000000000000064UL, 0x60007c0000800221UL, 0x6000042408000002UL, 0x0000000000000064UL,
  0x4800000060007c00UL, 0x0000006460007bc4UL, 0x0080026100000000UL, 0x0000000218007c00UL,
  0x0000006418000424UL, 0x18007c0000000000UL, 0x18007bc440000000UL, 0x0000000000000064UL,
  0x20007c0000800021UL, 0x2000042400000002UL, 0x0000000000000064UL, 0x4000000020007c00UL,
  0x0000006420007bc4UL, 0x0080006100000000UL, 0x000000022c007c00UL, 0x000000642c000424UL,
  0x2c007c0000000000UL, 0x2c007bc440000000UL, 0x0000000000000064UL, 0x30007c00008000c1UL,
  0x3000042400000002UL, 0x0000000000000064UL, 0x4000000030007c00UL, 0x0000006430007bc4UL,
  0x008000e100000000UL, 0x0000000234007c00UL, 0x0000006434000424UL, 0x34007c0000000000UL,
  0x34007bc440000000UL, 0x0000000000000064UL, 0x000000fd00800101UL, 0x6400004200802281UL,
  0x09000f6008000000UL, 0x0000000064027c00UL, 0x0001000164070043UL, 0x640c004300000001UL,
  0x1041104100000000UL, 0x68000042008022a1UL, 0x0900016008000000UL, 0x0003800768027c00UL,
  0x0000400068070043UL, 0x680c004300004000UL, 0x1041204200000000UL, 0x34007c0000802101UL,
  0x3402004300080100UL, 0x0000e10034270000UL, 0x00000000340500c3UL, 0x000000000000e100UL,
  0x0000002400000000UL, 0x340c004200100000UL, 0x0000000700000006UL, 0x00000004340d0043UL,
  0x34110043342a843fUL, 0x0000000000000000UL, 0x28007c00008020a1UL, 0x2802004300080100UL,
  0x0000e100342e0000UL, 0x00000000280500c3UL, 0x000000000000e100UL, 0x0000002400000000UL,
  0x280c004200100000UL, 0x0000000700000006UL, 0x00000004280d0043UL, 0x281100433431843fUL,
  0x0000000000000000UL, 0x20007c0000802061UL, 0x2002004300080100UL, 0x0000e10034270000UL,
  0x00000000200500c3UL, 0x000000000000e100UL, 0x0000002400000000UL, 0x200c004200100000UL,
  0x0000000700000006UL, 0x00000004200d0043UL, 0x20110043342a843fUL, 0x0000000000000000UL,
  0x1c007c0000802041UL, 0x1c02004300880108UL, 0x0000e10034100000UL, 0x000000001c0500c3UL,
  0x000000000001c200UL, 0x0000002400000000UL, 0x1c0c004200100000UL, 0x0000000700000006UL,
  0x000000041c0d0043UL, 0x1c1100433417083fUL, 0x0000000000000000UL, 0x0000000210007c00UL,
  0x0000006410000424UL, 0x10007c0000000000UL, 0x10007bc440000000UL, 0x0000000000000064UL,
  0x0000000110007c00UL, 0x0000002b10047c00UL, 0x0000001110220083UL, 0x000000290000000bUL,
  0x1c00200100000007UL, 0x6800200164002001UL, 0x2800200120002001UL, 0x1c007fe434002001UL,
  0x0000000000000064UL, 0x0000000010047c00UL, 0x0000000010220083UL, 0x0000000000000000UL,
  0x1c007c0000000000UL, 0x1c00042400000002UL, 0x0000000000000064UL, 0x400000001c007c00UL,
  0x000000641c007bc4UL, 0x0080004100000000UL, 0x0800000264007c00UL, 0x0000006464000424UL,
  0x64007c0000000000UL, 0x64007bc448000000UL, 0x0000000000000064UL, 0x68007c0000800281UL,
  0x6800042408000002UL, 0x0000000000000064UL, 0x4800000068007c00UL, 0x0000006468007bc4UL,
  0x008002a100000000UL, 0x0000000220007c00UL, 0x0000006420000424UL, 0x20007c0000000000UL,
  0x20007bc440000000UL, 0x0000000000000064UL, 0x28007c0000800061UL, 0x2800042400000002UL,
  0x0000000000000064UL, 0x4000000028007c00UL, 0x0000006428007bc4UL, 0x008000a100000000UL,
  0x0000000234007c00UL, 0x0000006434000424UL, 0x34007c0000000000UL, 0x34007bc440000000UL,
  0x0000000000000064UL, 0x0000011d00800101UL, 0x5c00004200802241UL, 0x0500016008000000UL,
  0x0008a8045c027c00UL, 0xb3d04d535c070043UL, 0x5c0c004300009a83UL, 0x1041204200000000UL,
  0x20007c0000802061UL, 0x2002004300880100UL, 0x0000e10034100000UL, 0x00000000200500c3UL,
  0x000000000001c200UL, 0x0000002400000000UL, 0x200c004200100000UL, 0x0000000700000006UL,
  0x00000004200d0043UL, 0x201100433417083fUL, 0x0000000000000000UL, 0x28007c00008020a1UL,
  0x2802004300080100UL, 0x0000e100342e0000UL, 0x00000000280500c3UL, 0x000000000000e100UL,
  0x0000002400000000UL, 0x280c004200100000UL, 0x0000000700000006UL, 0x00000004280d0043UL,
  0x281100433431843fUL, 0x0000000000000000UL, 0x34007c0000802101UL, 0x3402012300080008UL,
  0x0078007834200000UL, 0x0000078000100004UL, 0x0000000400000004UL, 0x0000002400038400UL,
  0x340c004200100000UL, 0x0000000700000006UL, 0x00000004340d0043UL, 0x341100433423843fUL,
  0x0000000000000000UL, 0x0000000210007c00UL, 0x0000006410000424UL, 0x10007c0000000000UL,
  0x10007bc440000000UL, 0x0000000000000064UL, 0x0000000110007c00UL, 0x00000025100a7c00UL,
  0x00000007101e0043UL, 0x340020010000000bUL, 0x200020015c002001UL, 0x34007fe428002001UL,
  0x0000000000000064UL, 0x00000000100a7c00UL, 0x00000000101e0043UL, 0x34007c0000000000UL,
  0x3400042400000002UL, 0x0000000000000064UL, 0x4000000034007c00UL, 0x0000006434007bc4UL,
  0x0080010100000000UL, 0x080000025c007c00UL, 0x000000645c000424UL, 0x5c007c0000000000UL,
  0x5c007bc448000000UL, 0x0000000000000064UL, 0x20007c0000800241UL, 0x2000042400000002UL,
  0x0000000000000064UL, 0x4000000020007c00UL, 0x0000006420007bc4UL, 0x0080006100000000UL,
  0x0000000228007c00UL, 0x0000006428000424UL, 0x28007c0000000000UL, 0x28007bc440000000UL,
  0x0000000000000064UL, 0x0000013d008000a1UL, 0x3c007c0000802141UL, 0x3c0200e300000054UL,
  0x0000115504080303UL, 0x007803c010b74004UL, 0x0077000003bf0000UL, 0x3c0a7c0000030008UL,
  0x3c0c004300000000UL, 0x0000000000ffff81UL, 0x40007c0000802161UL, 0x400200e300000040UL,
  0x0000115504080303UL, 0x007803c010a34400UL, 0x0077000003bf0000UL, 0x400a7c0000070408UL,
  0x400c004300000000UL, 0x0000000000ffff81UL, 0x6000004200802261UL, 0x156000fc08000000UL,
  0x0008800060020123UL, 0x0000000300000000UL, 0x000383ff0000e0ffUL, 0x0000000000000000UL,
  0x0000000107c403fdUL, 0x00000000600c0043UL, 0x600b7c0020422042UL, 0x6100040300000001UL,
  0x0000c19b00231975UL, 0x0000e7c4002711b2UL, 0x00004a4a002e5442UL, 0x00002da500261242UL,
  0x00002cfa00440cd4UL, 0x0000e05700331091UL, 0x0000d80c002212edUL, 0x00006d2d0037076dUL,
  0x00006220004208c4UL, 0x0000d57d002604dcUL, 0x0000062c001f06aaUL, 0x0000da3b00150a96UL,
  0x000088fa0027108cUL, 0x0000418700241282UL, 0x000061c40029096cUL, 0x0000cfd800241a06UL,
  0x54007c0000802201UL, 0x540200430174104cUL, 0x0210628f00087f80UL, 0x0000000055000203UL,
  0x0000000200000001UL, 0x0000000400000003UL, 0x0000000600000005UL, 0x000000c800000007UL,
  0x00000018000000d0UL, 0x0000001a00000019UL, 0x0000001c0000001bUL, 0x560007830000001dUL,
  0x0000f00000000000UL, 0x0000f00000000000UL, 0x0000f00000000000UL, 0x0000f00000000000UL,
  0x0000f00000000000UL, 0x0000f00000000000UL, 0x0000f00000000000UL, 0x0000f00000000000UL,
  0x0000f00000000000UL, 0x0000f00000000000UL, 0x0000f00000000000UL, 0x0000f00000000000UL,
  0x0000f00000000000UL, 0x0000f02000000000UL, 0x0000ed6004000000UL, 0x0000e32010000000UL,
  0x0000c5e02e000000UL, 0x0000a0e050000000UL, 0x0000b28042000000UL, 0x0000e5801c000000UL,
  0x000002c008000000UL, 0x0000090004000000UL, 0x00000c4002000000UL, 0x00000fe000000000UL,
  0x00000fe000000000UL, 0x00000fe000000000UL, 0x00000fe000000000UL, 0x00000fe000000000UL,
  0x00000fe000000000UL, 0x00000fe000000000UL, 0x20007c0000802061UL, 0x200201230008c000UL,
  0x0078007834200000UL, 0x0000078000100008UL, 0x0000000100000010UL, 0x0000002400000000UL,
  0x200c004200100000UL, 0x0000000700000006UL, 0x00000004200d0043UL, 0x201100433423843fUL,
  0x0000000000000000UL, 0x38007c0000802121UL, 0x380200430008c184UL, 0x0000090070b56680UL,
  0x00000000380500c3UL, 0x0000000000000000UL, 0x0000002400000000UL, 0x380c004200100000UL,
  0x0000000700000006UL, 0x00000001380d0043UL, 0x3811004370b56fbfUL, 0x0000000800000000UL,
  0x28007c00008020a1UL, 0x280201230008c000UL, 0x0078007834200008UL, 0x0000078000100008UL,
  0x0000000100000010UL, 0x0000002400000000UL, 0x280c004200100000UL, 0x0000000700000006UL,
  0x00000004280d0043UL, 0x281100433423843fUL, 0x0000000000000000UL, 0x34007c0000802101UL,
  0x3402004300080108UL, 0x0000e100342e0000UL, 0x00000000340500c3UL, 0x000000000000e100UL,
  0x0000002400000000UL, 0x340c004200100000UL, 0x0000000700000006UL, 0x00000004340d0043UL,
  0x341100433431843fUL, 0x0000000000000000UL, 0x14007c0000802001UL, 0x1402004300080108UL,
  0x0000e10034270000UL, 0x00000000140500c3UL, 0x000000000000e100UL, 0x0000002400000000UL,
  0x140c004200100000UL, 0x0000000700000006UL, 0x00000004140d0043UL, 0x14110043342a843fUL,
  0x0000000000000000UL, 0x0000000210007c00UL, 0x0000006410000424UL, 0x10007c0000000000UL,
  0x10007bc440000000UL, 0x0000000000000064UL, 0x0000000110007c00UL, 0x0000002110027c00UL,
  0x00000027100a7c00UL, 0x00000007100c0043UL, 0x100f006300000013UL, 0x000000130000000bUL,
  0x101c7c0000000015UL, 0x10207c0000000027UL, 0x1400200100000017UL, 0x3c007c0034002001UL,
  0x40007c0000000055UL, 0x5400200100000041UL, 0x2000200160002001UL, 0x3800200128002001UL,
  0x0000006414007fe4UL, 0x34007fe400000000UL, 0x0000000000000064UL, 0x0000000010027c00UL,
  0x00000000100a7c00UL, 0x00000000100c0043UL, 0x100f006300000000UL, 0x0000000000000000UL,
  0x101c7c0000000000UL, 0x10207c0000000000UL, 0x14007c0000000000UL, 0x1400042400000002UL,
  0x0000000000000064UL, 0x4000000014007c00UL, 0x0000006414007bc4UL, 0x0080000100000000UL,
  0x0000000234007c00UL, 0x0000006434000424UL, 0x34007c0000000000UL, 0x34007bc440000000UL,
  0x0000000000000064UL, 0x3c007c0000800101UL, 0x3c00042400000002UL, 0x0000000000000064UL,
  0x400000003c007c00UL, 0x000000643c007bc4UL, 0x0080014100000000UL, 0x0000000240007c00UL,
  0x0000006440000424UL, 0x40007c0000000000UL, 0x40007bc440000000UL, 0x0000000000000064UL,
  0x54007c0000800161UL, 0x5400042400881082UL, 0x0000000000000064UL, 0x4088108054007c00UL,
  0x0000006454007bc4UL, 0x0080020100000000UL, 0x0800000260007c00UL, 0x0000006460000424UL,
  0x60007c0000000000UL, 0x60007bc448000000UL, 0x0000000000000064UL, 0x20007c0000800261UL,
  0x2000042400000002UL, 0x0000000000000064UL, 0x4000000020007c00UL, 0x0000006420007bc4UL,
  0x0080006100000000UL, 0x0000000228007c00UL, 0x0000006428000424UL, 0x28007c0000000000UL,
  0x28007bc440000000UL, 0x0000000000000064UL, 0x38007c00008000a1UL, 0x3800042400000002UL,
  0x0000000000000064UL, 0x4000000038007c00UL, 0x0000006438007bc4UL, 0x0080012100000000UL,
  0x008022810000015dUL, 0x0800000064000042UL, 0x64027c0009000f60UL, 0x6407004300000000UL,
  0x0000000100010001UL, 0x00000000640c0043UL, 0x008022a110411041UL, 0x0800000068000042UL,
  0x68027c0009000160UL, 0x6807004300038007UL, 0x0000400000004000UL, 0x00000000680c0043UL,
  0x0080204110412042UL, 0x000801001c007c00UL, 0x342e00001c020043UL, 0x1c0500c30000e100UL,
  0x0000e10000000000UL, 0x0000000000000000UL, 0x0010000000000024UL, 0x000000061c0c0042UL,
  0x1c0d004300000007UL, 0x3431843f00000004UL, 0x000000001c110043UL, 0x008020c100000000UL,
  0x000801002c007c00UL, 0x342700002c020043UL, 0x2c0500c30000e100UL, 0x0000e10000000000UL,
  0x0000000000000000UL, 0x0010000000000024UL, 0x000000062c0c0042UL, 0x2c0d004300000007UL,
  0x342a843f00000004UL, 0x000000002c110043UL, 0x008020a100000000UL, 0x0008010028007c00UL,
  0x342e000028020043UL, 0x280500c30000e100UL, 0x0000e10000000000UL, 0x0000000000000000UL,
  0x0010000000000024UL, 0x00000006280c0042UL, 0x280d004300000007UL, 0x3431843f00000004UL,
  0x0000000028110043UL, 0x0080208100000000UL, 0x0088010824007c00UL, 0x3410000024020043UL,
  0x240500c30000e100UL, 0x0001c20000000000UL, 0x0000000000000000UL, 0x0010000000000024UL,
  0x00000006240c0042UL, 0x240d004300000007UL, 0x3417083f00000004UL, 0x0000000024110043UL,
  0x10007c0000000000UL, 0x1000042400000002UL, 0x0000000000000064UL, 0x4000000010007c00UL,
  0x0000006410007bc4UL, 0x10007c0000000000UL, 0x10067c0000000001UL, 0x102200830000002bUL,
  0x0000000d00000005UL, 0x0000000b00000029UL, 0x6400200124002001UL, 0x1c00200168002001UL,
  0x2c00200128002001UL, 0x0000006424007fe4UL, 0x10067c0000000000UL, 0x1022008300000000UL,
  0x0000000000000000UL, 0x0000000000000000UL, 0x0000000224007c00UL, 0x0000006424000424UL,
  0x24007c0000000000UL, 0x24007bc440000000UL, 0x0000000000000064UL, 0x64007c0000800081UL,
  0x6400042408000002UL, 0x0000000000000064UL, 0x4800000064007c00UL, 0x0000006464007bc4UL,
  0x0080028100000000UL, 0x0800000268007c00UL, 0x0000006468000424UL, 0x68007c0000000000UL,
  0x68007bc448000000UL, 0x0000000000000064UL, 0x1c007c00008002a1UL, 0x1c00042400000002UL,
  0x0000000000000064UL, 0x400000001c007c00UL, 0x000000641c007bc4UL, 0x0080004100000000UL,
  0x0000000228007c00UL, 0x0000006428000424UL, 0x28007c0000000000UL, 0x28007bc440000000UL,
  0x0000000000000064UL, 0x2c007c00008000a1UL, 0x2c00042400000002UL, 0x0000000000000064UL,
  0x400000002c007c00UL, 0x000000642c007bc4UL, 0x008000c100000000UL, 0x008022410000017dUL,
  0x080000005c000042UL, 0x5c027c0005000160UL, 0x5c0700430008a804UL, 0x0000a613b5424bbaUL,
  0x000000005c0c0043UL, 0x0080202110412042UL, 0x0088010018007c00UL, 0x3410000018020043UL,
  0x180500c30000e100UL, 0x0001c20000000000UL, 0x0000000000000000UL, 0x0010000000000024UL,
  0x00000006180c0042UL, 0x180d004300000007UL, 0x3417083f00000004UL, 0x0000000018110043UL,
  0x008020e100000000UL, 0x0008010030007c00UL, 0x3427000030020043UL, 0x300500c30000e100UL,
  0x0000e10000000000UL, 0x0000000000000000UL, 0x0010000000000024UL, 0x00000006300c0042UL,
  0x300d004300000007UL, 0x342a843f00000004UL, 0x0000000030110043UL, 0x008020c100000000UL,
  0x000801082c007c00UL, 0x342e00002c020043UL, 0x2c0500c30000e100UL, 0x0000e10000000000UL,
  0x0000000000000000UL, 0x0010000000000024UL, 0x000000062c0c0042UL, 0x2c0d004300000007UL,
  0x3431843f00000004UL, 0x000000002c110043UL, 0x10007c0000000000UL, 0x1000042400000002UL,
  0x0000000000000064UL, 0x4000000010007c00UL, 0x0000006410007bc4UL, 0x10007c0000000000UL,
  0x10087c0000000001UL, 0x101e004300000025UL, 0x0000000f00000003UL, 0x5c0020012c002001UL,
  0x3000200118002001UL, 0x000000642c007fe4UL, 0x10087c0000000000UL, 0x101e004300000000UL,
  0x0000000000000000UL, 0x000000022c007c00UL, 0x000000642c000424UL, 0x2c007c0000000000UL,
  0x2c007bc440000000UL, 0x0000000000000064UL, 0x5c007c00008000c1UL, 0x5c00042408000002UL,
  0x0000000000000064UL, 0x480000005c007c00UL, 0x000000645c007bc4UL, 0x0080024100000000UL,
  0x0000000218007c00UL, 0x0000006418000424UL, 0x18007c0000000000UL, 0x18007bc440000000UL,
  0x0000000000000064UL, 0x30007c0000800021UL, 0x3000042400000002UL, 0x0000000000000064UL,
  0x4000000030007c00UL, 0x0000006430007bc4UL, 0x008000e100000000UL, 0x008022610000019dUL,
  0x0800000060000042UL, 0x60027c0005000160UL, 0x6007004300079800UL, 0x000073607dd24c08UL,
  0x00000000600c0043UL, 0x008020a110411041UL, 0x0008010028007c00UL, 0x342e000028020043UL,
  0x280500c30000e100UL, 0x0000e10000000000UL, 0x0000000000000000UL, 0x0010000000000024UL,
  0x00000006280c0042UL, 0x280d004300000007UL, 0x3431843f00000004UL, 0x0000000028110043UL,
  0x0080200100000000UL, 0x0008000014007c00UL, 0x3420000014020123UL, 0x0010000400780078UL,
  0x0000000400000780UL, 0x0003840000000004UL, 0x0010000000000024UL, 0x00000006140c0042UL,
  0x140d004300000007UL, 0x3423843f00000004UL, 0x0000000014110043UL, 0x0080208100000000UL,
  0x0008000824007c00UL, 0x3435000024020123UL, 0x0010000400780078UL, 0x0000000400000780UL,
  0x0003840000000004UL, 0x0010000000000024UL, 0x00000006240c0042UL, 0x240d004300000007UL,
  0x3438843f00000004UL, 0x0000000024110043UL, 0x10007c0000000000UL, 0x1000042400000002UL,
  0x0000000000000064UL, 0x4000000010007c00UL, 0x0000006410007bc4UL, 0x10007c0000000000UL,
  0x10067c0000000001UL, 0x1020004300000027UL, 0x000000010000000bUL, 0x6000200124002001UL,
  0x2800200114002001UL, 0x0000006424007fe4UL, 0x10067c0000000000UL, 0x1020004300000000UL,
  0x0000000000000000UL, 0x0000000224007c00UL, 0x0000006424000424UL, 0x24007c0000000000UL,
  0x24007bc440000000UL, 0x0000000000000064UL, 0x60007c0000800081UL, 0x6000042408000002UL,
  0x0000000000000064UL, 0x4800000060007c00UL, 0x0000006460007bc4UL, 0x0080026100000000UL,
  0x0000000214007c00UL, 0x0000006414000424UL, 0x14007c0000000000UL, 0x14007bc440000000UL,
  0x0000000000000064UL, 0x28007c0000800001UL, 0x2800042400000002UL, 0x0000000000000064UL,
  0x4000000028007c00UL, 0x0000006428007bc4UL, 0x008000a100000000UL, 0x00802181000001bdUL,
  0x0000005444007c00UL, 0x04080303440200e3UL, 0x10b7400400002244UL, 0x03bf0000007803c0UL,
  0x0003000800770000UL, 0x00000000440a7c00UL, 0x00ffff81440c0043UL, 0x008021a100000000UL,
  0x0000004048007c00UL, 0x04080303480200e3UL, 0x10a3440000002244UL, 0x03bf0000007803c0UL,
  0x0007040800770000UL, 0x00000000480a7c00UL, 0x00ffff81480c0043UL, 0x0080228100000000UL,
  0x0800000064000042UL, 0x64020123156000fcUL, 0x0000000000090000UL, 0x0000383f00000003UL,
  0x00000000000383ffUL, 0x070403fd00000000UL, 0x640c004300000001UL, 0x2042204200000000UL,
  0x00000001640b7c00UL, 0x007914e265001003UL, 0x00501298000045f6UL, 0xfff30bb700005f0dUL,
  0x0078264700009dddUL, 0x00780d0f00004990UL, 0x00da0937000067ceUL, 0x009313d2000031b8UL,
  0x005f182200004ddfUL, 0x005a1d6200000baaUL, 0x00580efa00009b0bUL, 0x005e0fa70000efa8UL,
  0x00a72f9300003ff9UL, 0x005d23dc000074ecUL, 0x00852c9700003bcbUL, 0x009910fc00006511UL,
  0x00560eca0000021cUL, 0x00751cec00003f75UL, 0x005b18b900007898UL, 0xff121c4e00009356UL,
  0x00641e0200000867UL, 0x00601bd0000099caUL, 0x007a22110000bd75UL, 0x0070214200002a83UL,
  0x00562072000015edUL, 0x006c0f310000b740UL, 0x00845865000067b5UL, 0x00661d7e0000f7e2UL,
  0x007e17a500005602UL, 0x006117e900005450UL, 0x008520e200007d17UL, 0x005b0cf900006b11UL,
  0x00740e940000d113UL, 0x00690d370000de48UL, 0x0073367100009c37UL, 0x00930abe00005a1dUL,
  0x0081105000000762UL, 0x007512a400004b6aUL, 0x006d1c8a000049feUL, 0x005e1cc40000ca2aUL,
  0x009112d10000d58aUL, 0x00840e860000905cUL, 0x00650cc80000f521UL, 0x0062139800009d49UL,
  0x00890f520000905bUL, 0x00681afd00002c80UL, 0x00531c6300005274UL, 0x00850c600000b640UL,
  0x008d169b00001754UL, 0x006714a700008539UL, 0x00a10b850000c28aUL, 0x006b1b830000c213UL,
  0x0054128400009ecfUL, 0x008225c30000a4c7UL, 0x009617960000ee40UL, 0x00d50abd00002843UL,
  0x0083172a0000e93eUL, 0x008331ff00007573UL, 0x009c0d9600008e8dUL, 0x0072129000001274UL,
  0x0050172200007a62UL, 0x005619ba000049f1UL, 0x003412c00000bc5fUL, 0x007b252d00003b15UL,
  0x00801a880000ba6bUL, 0x008022210000b20cUL, 0x0174104c58007c00UL, 0x00087f8058020043UL,
  0x590002030210528fUL, 0x0000000100000000UL, 0x0000000300000002UL, 0x0000000500000004UL,
  0x0000000700000006UL, 0x000000d0000000c8UL, 0x00000020000000d8UL, 0x0000002200000021UL,
  0x0000002400000023UL, 0x000000005a000943UL, 0x000000000000f000UL, 0x000000000000f000UL,
  0x000000000000f000UL, 0x000000000000f000UL, 0x000000000000f000UL, 0x000000000000f000UL,
  0x000000000000f000UL, 0x000000000000f000UL, 0x000000000000f000UL, 0x000000000000f000UL,
  0x000000000000f000UL, 0x040000000000f000UL, 0x040000000000ef00UL, 0x040000000000eee0UL,
  0x080000000000eec0UL, 0x140000000000ed20UL, 0x280000000000e760UL, 0x400000000000dc40UL,
  0x5c0000000000cd80UL, 0x640000000000bac0UL, 0x500000000000b4e0UL, 0x300000000000c4e0UL,
  0x180000000000e060UL, 0x100000000000f6a0UL, 0x080000000000fe80UL, 0x00000000000006c0UL,
  0x0000000000000fa0UL, 0x0000000000000fc0UL, 0x0000000000000fe0UL, 0x0000000000000fe0UL,
  0x0000000000000fe0UL, 0x0000000000000fe0UL, 0x0000000000000fe0UL, 0x0000000000000fe0UL,
  0x0000000000000fe0UL, 0x0000000000000fe0UL, 0x0080212100000fe0UL, 0x0008c00038007c00UL,
  0x3435000038020123UL, 0x0010000800780078UL, 0x0000001000000780UL, 0x0000000000000001UL,
  0x0010000000000024UL, 0x00000006380c0042UL, 0x380d004300000007UL, 0x3438843f00000010UL,
  0x0000000038110043UL, 0x0080206100000000UL, 0x0008c18420007c00UL, 0x70b3998020020043UL,
  0x200500c300002400UL, 0x0000000000000000UL, 0x0000000000000000UL, 0x0010000000000024UL,
  0x00000006200c0042UL, 0x200d004300000007UL, 0x70b3bdbf00000001UL, 0x0000000020110043UL,
  0x0080204100000008UL, 0x0008c0001c007c00UL, 0x343500081c020123UL, 0x0010000800780078UL,
  0x0000001000000780UL, 0x0000000000000001UL, 0x0010000000000024UL, 0x000000061c0c0042UL,
  0x1c0d004300000007UL, 0x3438843f00000010UL, 0x000000001c110043UL, 0x0080210100000000UL,
  0x0008010834007c00UL, 0x3427000034020043UL, 0x340500c300003840UL, 0x0000384000000000UL,
  0x0000000000000000UL, 0x0010000000000024UL, 0x00000006340c0042UL, 0x340d004300000007UL,
  0x342a843f00000010UL, 0x0000000034110043UL, 0x0080202100000000UL, 0x0008010818007c00UL,
  0x342e000018020043UL, 0x180500c300003840UL, 0x0000384000000000UL, 0x0000000000000000UL,
  0x0010000000000024UL, 0x00000006180c0042UL, 0x180d004300000007UL, 0x3431843f00000010UL,
  0x0000000018110043UL, 0x10007c0000000000UL, 0x1000042400000002UL, 0x0000000000000064UL,
  0x4000000010007c00UL, 0x0000006410007bc4UL, 0x10007c0000000000UL, 0x10037c0000000001UL,
  0x100a7c0000000023UL, 0x1012004300000029UL, 0x0000000700000013UL, 0x0000000510150063UL,
  0x0000001900000007UL, 0x00000029101d7c00UL, 0x0000001b10227c00UL, 0x3400200118002001UL,
  0x0000005544007c00UL, 0x0000004148007c00UL, 0x6400200158002001UL, 0x200020011c002001UL,
  0x18007fe438002001UL, 0x0000000000000064UL, 0x0000006434007fe4UL, 0x10037c0000000000UL,
  0x100a7c0000000000UL, 0x1012004300000000UL, 0x0000000000000000UL, 0x0000000010150063UL,
  0x0000000000000000UL, 0x00000000101d7c00UL, 0x0000000010227c00UL, 0x0000000218007c00UL,
  0x0000006418000424UL, 0x18007c0000000000UL, 0x18007bc440000000UL, 0x0000000000000064UL,
  0x34007c0000800021UL, 0x3400042400000002UL, 0x0000000000000064UL, 0x4000000034007c00UL,
  0x0000006434007bc4UL, 0x0080010100000000UL, 0x0000000244007c00UL, 0x0000006444000424UL,
  0x44007c0000000000UL, 0x44007bc440000000UL, 0x0000000000000064UL, 0x48007c0000800181UL,
  0x4800042400000002UL, 0x0000000000000064UL, 0x4000000048007c00UL, 0x0000006448007bc4UL,
  0x008001a100000000UL, 0x0088108258007c00UL, 0x0000006458000424UL, 0x58007c0000000000UL,
  0x58007bc440881080UL, 0x0000000000000064UL, 0x64007c0000800221UL, 0x6400042408000002UL,
  0x0000000000000064UL, 0x4800000064007c00UL, 0x0000006464007bc4UL, 0x0080028100000000UL,
  0x000000021c007c00UL, 0x000000641c000424UL, 0x1c007c0000000000UL, 0x1c007bc440000000UL,
  0x0000000000000064UL, 0x20007c0000800041UL, 0x2000042400000002UL, 0x0000000000000064UL,
  0x4000000020007c00UL, 0x0000006420007bc4UL, 0x0080006100000000UL, 0x0000000238007c00UL,
  0x0000006438000424UL, 0x38007c0000000000UL, 0x38007bc440000000UL, 0x0000000000000064UL,
  0x000001dd00800121UL, 0x68000042008022a1UL, 0x09000f6008000000UL, 0x0000000068027c00UL,
  0x0001000168070043UL, 0x680c004300000001UL, 0x1041104100000000UL, 0x5c00004200802241UL,
  0x0900016008000000UL, 0x000380075c027c00UL, 0x000040005c070043UL, 0x5c0c004300004000UL,
  0x1041204200000000UL, 0x28007c00008020a1UL, 0x2802004300080100UL, 0x0000384034270000UL,
  0x00000000280500c3UL, 0x0000000000003840UL, 0x0000002400000000UL, 0x280c004200100000UL,
  0x0000000700000006UL, 0x00000010280d0043UL, 0x28110043342a843fUL, 0x0000000000000000UL,
  0x2c007c00008020c1UL, 0x2c02004300080100UL, 0x00003840342e0000UL, 0x000000002c0500c3UL,
  0x0000000000003840UL, 0x0000002400000000UL, 0x2c0c004200100000UL, 0x0000000700000006UL,
  0x000000102c0d0043UL, 0x2c1100433431843fUL, 0x0000000000000000UL, 0x20007c0000802061UL,
  0x2002004300080100UL, 0x0000384034270000UL, 0x00000000200500c3UL, 0x0000000000003840UL,
  0x0000002400000000UL, 0x200c004200100000UL, 0x0000000700000006UL, 0x00000010200d0043UL,
  0x20110043342a843fUL, 0x0000000000000000UL, 0x18007c0000802021UL, 0x1802004300880108UL,
  0x0000384034100000UL, 0x00000000180500c3UL, 0x0000000000007080UL, 0x0000002400000000UL,
  0x180c004200100000UL, 0x0000000700000006UL, 0x00000010180d0043UL, 0x181100433417083fUL,
  0x0000000000000000UL, 0x0000000210007c00UL, 0x0000006410000424UL, 0x10007c0000000000UL,
  0x10007bc440000000UL, 0x0000000000000064UL, 0x0000000110007c00UL, 0x0000002510037c00UL,
  0x0000002b101e0043UL, 0x1024004300000007UL, 0x0000000d0000000bUL, 0x5c00200118002001UL,
  0x2000200168002001UL, 0x2c00200128002001UL, 0x0000006418007fe4UL, 0x10037c0000000000UL,
  0x101e004300000000UL, 0x0000000000000000UL, 0x0000000010240043UL, 0x18007c0000000000UL,
  0x1800042400000002UL, 0x0000000000000064UL, 0x4000000018007c00UL, 0x0000006418007bc4UL,
  0x0080002100000000UL, 0x080000025c007c00UL, 0x000000645c000424UL, 0x5c007c0000000000UL,
  0x5c007bc448000000UL, 0x0000000000000064UL, 0x68007c0000800241UL, 0x6800042408000002UL,
  0x0000000000000064UL, 0x4800000068007c00UL, 0x0000006468007bc4UL, 0x008002a100000000UL,
  0x0000000220007c00UL, 0x0000006420000424UL, 0x20007c0000000000UL, 0x20007bc440000000UL,
  0x0000000000000064UL, 0x28007c0000800061UL, 0x2800042400000002UL, 0x0000000000000064UL,
  0x4000000028007c00UL, 0x0000006428007bc4UL, 0x008000a100000000UL, 0x000000022c007c00UL,
  0x000000642c000424UL, 0x2c007c0000000000UL, 0x2c007bc440000000UL, 0x0000000000000064UL,
  0x000001fd008000c1UL, 0x6000004200802261UL, 0x0500016008000000UL, 0x0008a80460027c00UL,
  0xb23d4ebb60070043UL, 0x600c0043000089e7UL, 0x1041204200000000UL, 0x20007c0000802061UL,
  0x2002004300880100UL, 0x0000384034100000UL, 0x00000000200500c3UL, 0x0000000000007080UL,
  0x0000002400000000UL, 0x200c004200100000UL, 0x0000000700000006UL, 0x00000010200d0043UL,
  0x201100433417083fUL, 0x0000000000000000UL, 0x2c007c00008020c1UL, 0x2c02004300080100UL,
  0x00003840342e0000UL, 0x000000002c0500c3UL, 0x0000000000003840UL, 0x0000002400000000UL,
  0x2c0c004200100000UL, 0x0000000700000006UL, 0x000000102c0d0043UL, 0x2c1100433431843fUL,
  0x0000000000000000UL, 0x38007c0000802121UL, 0x3802012300080008UL, 0x003c003c34270000UL,
  0x00000f0000400004UL, 0x0000001000000004UL, 0x0000002400038400UL, 0x380c004200100000UL,
  0x0000000700000006UL, 0x00000010380d0043UL, 0x38110043342a843fUL, 0x0000000000000000UL,
  0x0000000210007c00UL, 0x0000006410000424UL, 0x10007c0000000000UL, 0x10007bc440000000UL,
  0x0000000000000064UL, 0x0000000110007c00UL, 0x00000027100b7c00UL, 0x0000000710200043UL,
  0x380020010000000dUL, 0x2000200160002001UL, 0x38007fe42c002001UL, 0x0000000000000064UL,
  0x00000000100b7c00UL, 0x0000000010200043UL, 0x38007c0000000000UL, 0x3800042400000002UL,
  0x0000000000000064UL, 0x4000000038007c00UL, 0x0000006438007bc4UL, 0x0080012100000000UL,
  0x0800000260007c00UL, 0x0000006460000424UL, 0x60007c0000000000UL, 0x60007bc448000000UL,
  0x0000000000000064UL, 0x20007c0000800261UL, 0x2000042400000002UL, 0x0000000000000064UL,
  0x4000000020007c00UL, 0x0000006420007bc4UL, 0x0080006100000000UL, 0x000000022c007c00UL,
  0x000000642c000424UL, 0x2c007c0000000000UL, 0x2c007bc440000000UL, 0x0000000000000064UL,
  0x0000021d008000c1UL, 0x3c007c0000802141UL, 0x3c0200e300000054UL, 0x0000110010100101UL,
  0x003c03c010b74003UL, 0x003b000003bf0000UL, 0x3c0a7c00000f0040UL, 0x3c0c004300000000UL,
  0x0000000000ffff82UL, 0x40007c0000802161UL, 0x400200e300000040UL, 0x0000110010100101UL,
  0x003c03c010b74000UL, 0x003b000003bf0000UL, 0x400a7c00001f1040UL, 0x400c004300000000UL,
  0x0000000000ffff82UL, 0x44007c0000802181UL, 0x440200e300000040UL, 0x0000110010100101UL,
  0x003c03c010b74000UL, 0x003b000003bf0000UL, 0x440a7c00002f2040UL, 0x440c004300000000UL,
  0x0000000000ffff82UL, 0x48007c00008021a1UL, 0x480200e300000040UL, 0x0000110010100101UL,
  0x003c03c010a34300UL, 0x003b000003bf0000UL, 0x480a7c00003f3040UL, 0x480c004300000000UL,
  0x0000000000ffff82UL, 0x6400004200802281UL, 0x156000fc08000000UL, 0x0009800064020123UL,
  0x0000000f00000000UL, 0x0001c1ff0000e0ffUL, 0x0000000000000000UL, 0x00000001078403f1UL,
  0x00000000640c0043UL, 0x640b7c0020422042UL, 0x6500080300000001UL, 0x0000048b006b32b4UL,
  0x0000cc18ff483aa2UL, 0x00005647ff8d2640UL, 0x0000d946ff6936b5UL, 0x000067ebff04245aUL,
  0x0000d901ffdd4392UL, 0x00009553fffd407dUL, 0x0000e50500173a73UL, 0x000030ef00a444dfUL,
  0x0000a8e700b84a63UL, 0x00004b9dff4e314bUL, 0x000019ff005f3567UL, 0x000080d8ff7641ceUL,
  0x00000d66ffb83040UL, 0x0000b90200002b4fUL, 0x0000770a01364496UL, 0x00001ae7ffa53b27UL,
  0x0000d28ffeb7481bUL, 0x0000335100ef47ffUL, 0x00004928008b2f02UL, 0x00009292ff594d51UL,
  0x000079a300e746d3UL, 0x00009ac7fec03c0dUL, 0x0000951400b94369UL, 0x00007e55ff0132a7UL,
  0x0000ca7f00743fc6UL, 0x0000557cff232984UL, 0x00002c670067461dUL, 0x00005778ffa23e31UL,
  0x0000313a009e34b3UL, 0x0000209300df2268UL, 0x0000ceccff7a4cedUL, 0x2c007c00008020c1UL,
  0x2c0201230008c000UL, 0x003c003c34270000UL, 0x00000f0000400010UL, 0x0000000100000040UL,
  0x0000002400000000UL, 0x2c0c004200100000UL, 0x0000000700000006UL, 0x000000022c0d0043UL,
  0x2c110043342a843fUL, 0x0000000000000000UL, 0x34007c0000802101UL, 0x340200430008c184UL,
  0x0000080070b61180UL, 0x00000000340500c3UL, 0x0000000000000000UL, 0x0000002400000000UL,
  0x340c004200100000UL, 0x0000000700000006UL, 0x00000001340d0043UL, 0x3411004370b619bfUL,
  0x0000000800000000UL, 0x20007c0000802061UL, 0x200201230008c000UL, 0x003c003c34270010UL,
  0x00000f0000400010UL, 0x0000000100000040UL, 0x0000002400000000UL, 0x200c004200100000UL,
  0x0000000700000006UL, 0x00000002200d0043UL, 0x20110043342a843fUL, 0x0000000000000000UL,
  0x1c007c0000802041UL, 0x1c0201230008c000UL, 0x003c003c34270020UL, 0x00000f0000400010UL,
  0x0000000100000040UL, 0x0000002400000000UL, 0x1c0c004200100000UL, 0x0000000700000006UL,
  0x000000021c0d0043UL, 0x1c110043342a843fUL, 0x0000000000000000UL, 0x14007c0000802001UL,
  0x140201230008c000UL, 0x003c003c34270030UL, 0x00000f0000400010UL, 0x0000000100000040UL,
  0x0000002400000000UL, 0x140c004200100000UL, 0x0000000700000006UL, 0x00000002140d0043UL,
  0x14110043342a843fUL, 0x0000000000000000UL, 0x38007c0000802121UL, 0x3802012300080008UL,
  0x003c003c342fc200UL, 0x0000078000200010UL, 0x0000000200000010UL, 0x000000240001c200UL,
  0x380c004200100000UL, 0x0000000700000006UL, 0x00000002380d0043UL, 0x381100433431843fUL,
  0x0000000000000000UL, 0x0000000210007c00UL, 0x0000006410000424UL, 0x10007c0000000000UL,
  0x10007bc440000000UL, 0x0000000000000064UL, 0x0000000110007c00UL, 0x00000029100b0063UL,
  0x000000110000000dUL, 0x00000007100f0123UL, 0x0000001500000011UL, 0x0000001100000005UL,
  0x0000000100000017UL, 0x0000001900000011UL, 0x0000001b10227c00UL, 0x3c007c0038002001UL,
  0x40007c0000000055UL, 0x44007c0000000041UL, 0x48007c0000000041UL, 0x6400200100000041UL,
  0x1c00200114002001UL, 0x2c00200120002001UL, 0x38007fe434002001UL, 0x0000000000000064UL,
  0x00000000100b0063UL, 0x0000000000000000UL, 0x00000000100f0123UL, 0x0000000000000000UL,
  0x0000000000000000UL, 0x0000000000000000UL, 0x0000000000000000UL, 0x0000000010227c00UL,
  0x0000000238007c00UL, 0x0000006438000424UL, 0x38007c0000000000UL, 0x38007bc440000000UL,
  0x0000000000000064UL, 0x3c007c0000800121UL, 0x3c00042400000002UL, 0x0000000000000064UL,
  0x400000003c007c00UL, 0x000000643c007bc4UL, 0x0080014100000000UL, 0x0000000240007c00UL,
  0x0000006440000424UL, 0x40007c0000000000UL, 0x40007bc440000000UL, 0x0000000000000064UL,
  0x44007c0000800161UL, 0x4400042400000002UL, 0x0000000000000064UL, 0x4000000044007c00UL,
  0x0000006444007bc4UL, 0x0080018100000000UL, 0x0000000248007c00UL, 0x0000006448000424UL,
  0x48007c0000000000UL, 0x48007bc440000000UL, 0x0000000000000064UL, 0x64007c00008001a1UL,
  0x6400042408000002UL, 0x0000000000000064UL, 0x4800000064007c00UL, 0x0000006464007bc4UL,
  0x0080028100000000UL, 0x0000000214007c00UL, 0x0000006414000424UL, 0x14007c0000000000UL,
  0x14007bc440000000UL, 0x0000000000000064UL, 0x1c007c0000800001UL, 0x1c00042400000002UL,
  0x0000000000000064UL, 0x400000001c007c00UL, 0x000000641c007bc4UL, 0x0080004100000000UL,
  0x0000000220007c00UL, 0x0000006420000424UL, 0x20007c0000000000UL, 0x20007bc440000000UL,
  0x0000000000000064UL, 0x2c007c0000800061UL, 0x2c00042400000002UL, 0x0000000000000064UL,
  0x400000002c007c00UL, 0x000000642c007bc4UL, 0x008000c100000000UL, 0x0000000234007c00UL,
  0x0000006434000424UL, 0x34007c0000000000UL, 0x34007bc440000000UL, 0x0000000000000064UL,
  0x0000023d00800101UL, 0x3c007c0000802141UL, 0x3c0200e300000054UL, 0x0000115504080303UL,
  0x003c01e010b74004UL, 0x003b000001df0000UL, 0x3c0a7c0000030010UL, 0x3c0c004300000000UL,
  0x0000000000000004UL, 0x40007c0000802161UL, 0x400200e300000040UL, 0x0000115504080303UL,
  0x003c01e010b74000UL, 0x003b000001df0000UL, 0x400a7c0000070410UL, 0x400c004300000000UL,
  0x0000000000000004UL, 0x44007c0000802181UL, 0x440200e300000040UL, 0x0000115504080303UL,
  0x003c01e010b74000UL, 0x003b000001df0000UL, 0x440a7c00000b0810UL, 0x440c004300000000UL,
  0x0000000000000004UL, 0x48007c00008021a1UL, 0x480200e300000040UL, 0x0000115504080303UL,
  0x003c01e010a34400UL, 0x003b000001df0000UL, 0x480a7c00000f0c10UL, 0x480c004300000000UL,
  0x0000000000000004UL, 0x5c00004200802241UL, 0x156000fc08000000UL, 0x000980005c020123UL,
  0x0000000300000000UL, 0x000707ff0000383fUL, 0x0000000000000000UL, 0x00000001060403fdUL,
  0x000000005c0c0043UL, 0x5c0b7c0020422042UL, 0x5d00200300000001UL, 0x000025dd00e331c2UL,
  0x0000f85001281923UL, 0x0000598e00ee1d8aUL, 0x0000bdb90074309cUL, 0x0000a67501931082UL,
  0x00003a40015a2bdeUL, 0x000000c100b01951UL, 0x00002e3000b02934UL, 0x0000e371010a295dUL,
  0x00006911011617e5UL, 0x0000d066010b4805UL, 0x0000db0400a32086UL, 0x00001965017047d7UL,
  0x0000f46000f6250cUL, 0x0000f5bc011d20dfUL, 0x000005ef00a0181bUL, 0x00009ef301212329UL,
  0x00003db0012d2bdaUL, 0x0000f615015c25c6UL, 0x0000aaed011314e7UL, 0x00005499016414b7UL,
  0x00004749013f10e0UL, 0x00005264015c2f76UL, 0x0000539e011c21f5UL, 0x00009b9b01982836UL,
  0x0000416b010122deUL, 0x000031f600e237faUL, 0x000067cd00f212a2UL, 0x0000d13a015328cbUL,
  0x0000fa9201002271UL, 0x0000927f01965270UL, 0x0000e06b00d121c4UL, 0x0000223b01072eafUL,
  0x0000fa3e01531fbfUL, 0x0000bef3005d3963UL, 0x00006262015c154dUL, 0x0000024901423457UL,
  0x0000b4b4011a3d66UL, 0x0000831201b21c56UL, 0x0000811701263ad9UL, 0x0000816c0182290bUL,
  0x00006cb801581c84UL, 0x0000bba500653fb6UL, 0x0000d73d01b91074UL, 0x0000774f01254747UL,
  0x00005054010d4692UL, 0x0000409601931e20UL, 0x0000c79e00fb2cddUL, 0x0000ab62010f315fUL,
  0x00007824015c32feUL, 0x0000cbaf00b62ddeUL, 0x0000d49e01403112UL, 0x0000889c00f428c1UL,
  0x0000353e01171d3eUL, 0x0000e0e800ff3c14UL, 0x0000a972013536c0UL, 0x0000e09c012b2edeUL,
  0x0000521701d22566UL, 0x000091f400e51fefUL, 0x000067eb01523450UL, 0x00006a7c01122190UL,
  0x0000017600f4184fUL, 0x0000bdd001521ed0UL, 0x0000404a00f03196UL, 0x0000a1d901321b6fUL,
  0x000091ff00f713faUL, 0x00003f0000e322cdUL, 0x00004a6501e73152UL, 0x000020b700e34d6cUL,
  0x00005b3901243eceUL, 0x00002ca301083d18UL, 0x00009c7c01004121UL, 0x0000fadc01261dd8UL,
  0x0000947b00d93836UL, 0x00009d90011c27e8UL, 0x000052b700fe1bacUL, 0x000084ba00f63385UL,
  0x00008fbe01761b26UL, 0x0000dc2901842721UL, 0x0000ca8200c61cdeUL, 0x0000c7c700d52ddcUL,
  0x0000ccc601374bb6UL, 0x0000559d00f22d37UL, 0x000053fe01940a17UL, 0x0000020501e42ed9UL,
  0x0000b10b00d63e23UL, 0x0000dc34016d204dUL, 0x0000e2d300405d1bUL, 0x000017a900f32cf2UL,
  0x00003bd801503631UL, 0x0000967801141c7fUL, 0x00009a1400f0320aUL, 0x00009fb601703325UL,
  0x00005c3c011d2a79UL, 0x00002da700df185aUL, 0x00000bca00ec170bUL, 0x0000cf81018334f7UL,
  0x000059d501f6240cUL, 0x0000e33000852de8UL, 0x000038f801343288UL, 0x0000fce601122899UL,
  0x00004d1301443dbcUL, 0x0000c1a400e018b9UL, 0x00004607013b3cd7UL, 0x00003600010228d1UL,
  0x0000c13a01685014UL, 0x0000cb8501002688UL, 0x0000230e00ae3744UL, 0x00008d7501b44484UL,
  0x0000d2a0010922f9UL, 0x0000901c00f818beUL, 0x0000ae9100f521f7UL, 0x000079d001c40ec7UL,
  0x0000374201481b39UL, 0x00001033009f4255UL, 0x00009b7400f31578UL, 0x0000216701bb1e7eUL,
  0x00009419012b1e8eUL, 0x0000361800c32929UL, 0x0000d3f701222807UL, 0x0000b9c10167232eUL,
  0x0000dad900fa4310UL, 0x000057e7012d1957UL, 0x0000fa9a01122659UL, 0x0000c10b00574224UL,
  0x00002c3501051a21UL, 0x000007e0010a224cUL, 0x0000240300f214d0UL, 0x54007c0000802201UL,
  0x540200430174104cUL, 0x021062cf00087f80UL, 0x0000000055000203UL, 0x0000000200000001UL,
  0x0000000400000003UL, 0x0000000600000005UL, 0x000000c800000007UL, 0x000000d8000000d0UL,
  0x0000002200000060UL, 0x0000002400000023UL, 0x5600098300000025UL, 0x0000f80000000000UL,
  0x0000f80000000000UL, 0x0000f80000000000UL, 0x0000f80000000000UL, 0x0000f80000000000UL,
  0x0000f80000000000UL, 0x0000f80000000000UL, 0x0000f80000000000UL, 0x0000f80000000000UL,
  0x0000f80000000000UL, 0x0000f80000000000UL, 0x0000f80000000000UL, 0x0000f80000000000UL,
  0x0000f80000000000UL, 0x0000f81000000000UL, 0x0000f81000000000UL, 0x0000f71002000000UL,
  0x0000f82000000000UL, 0x0000f83000000000UL, 0x0000f6e002000000UL, 0x0000f6e002000000UL,
  0x0000f55004000000UL, 0x0000f55004000000UL, 0x0000f1a008000000UL, 0x0000efa00a000000UL,
  0x0000eb700e000000UL, 0x0000e94010000000UL, 0x0000e4a014000000UL, 0x0000dfb018000000UL,
  0x0000dd101a000000UL, 0x0000dfc018000000UL, 0x0000e2a016000000UL, 0x0000aa576380caabUL,
  0x0000e4b22180f000UL, 0x00000249048bfe2cUL, 0x000007f000000000UL, 0x000007f000000000UL,
  0x000007f000000000UL, 0x14007c0000802001UL, 0x140201230008c000UL, 0x003c003c342fc200UL,
  0x0000078000200008UL, 0x0000000100000020UL, 0x0000002400000000UL, 0x140c004200100000UL,
  0x0000000700000006UL, 0x00000020140d0043UL, 0x141100433431843fUL, 0x0000000000000000UL,
  0x24007c0000802081UL, 0x240200430008c184UL, 0x0000900070942f00UL, 0x00000000240500c3UL,
  0x0000000000000000UL, 0x0000002400000000UL, 0x240c004200100000UL, 0x0000000700000006UL,
  0x00000001240d0043UL, 0x241100437094bf3fUL, 0x0000000800000000UL, 0x34007c0000802101UL,
  0x340201230008c000UL, 0x003c003c342fc208UL, 0x0000078000200008UL, 0x0000000100000020UL,
  0x0000002400000000UL, 0x340c004200100000UL, 0x0000000700000006UL, 0x00000020340d0043UL,
  0x341100433431843fUL, 0x0000000000000000UL, 0x38007c0000802121UL, 0x380201230008c000UL,
  0x003c003c342fc210UL, 0x0000078000200008UL, 0x0000000100000020UL, 0x0000002400000000UL,
  0x380c004200100000UL, 0x0000000700000006UL, 0x00000020380d0043UL, 0x381100433431843fUL,
  0x0000000000000000UL, 0x1c007c0000802041UL, 0x1c0201230008c000UL, 0x003c003c342fc218UL,
  0x0000078000200008UL, 0x0000000100000020UL, 0x0000002400000000UL, 0x1c0c004200100000UL,
  0x0000000700000006UL, 0x000000201c0d0043UL, 0x1c1100433431843fUL, 0x0000000000000000UL,
  0x28007c00008020a1UL, 0x2802004300080108UL, 0x0000384034251800UL, 0x00000000280500c3UL,
  0x0000000000003840UL, 0x0000002400000000UL, 0x280c004200100000UL, 0x0000000700000006UL,
  0x00000020280d0043UL, 0x28110043342c203fUL, 0x0000000000000000UL, 0x20007c0000802061UL,
  0x2002004300080108UL, 0x00003840341e1000UL, 0x00000000200500c3UL, 0x0000000000003840UL,
  0x0000002400000000UL, 0x200c004200100000UL, 0x0000000700000006UL, 0x00000020200d0043UL,
  0x201100433425183fUL, 0x0000000000000000UL, 0x0000000210007c00UL, 0x0000006410000424UL,
  0x10007c0000000000UL, 0x10007bc440000000UL, 0x0000000000000064UL, 0x0000000110007c00UL,
  0x0000002110057c00UL, 0x0000002510077c00UL, 0x00000001100c0043UL, 0x100f012300000009UL,
  0x0000000900000011UL, 0x0000001300000015UL, 0x0000001700000009UL, 0x0000000900000005UL,
  0x101c7c0000000019UL, 0x101e7c0000000025UL, 0x200020010000001bUL, 0x3c007c0028002001UL,
  0x40007c0000000055UL, 0x44007c0000000041UL, 0x48007c0000000041UL, 0x5400200100000041UL,
  0x140020015c002001UL, 0x240020011c002001UL, 0x3800200134002001UL, 0x0000006420007fe4UL,
  0x28007fe400000000UL, 0x0000000000000064UL, 0x0000000010057c00UL, 0x0000000010077c00UL,
  0x00000000100c0043UL, 0x100f012300000000UL, 0x0000000000000000UL, 0x0000000000000000UL,
  0x0000000000000000UL, 0x0000000000000000UL, 0x101c7c0000000000UL, 0x101e7c0000000000UL,
  0x20007c0000000000UL, 0x2000042400000002UL, 0x0000000000000064UL, 0x4000000020007c00UL,
  0x0000006420007bc4UL, 0x0080006100000000UL, 0x0000000228007c00UL, 0x0000006428000424UL,
  0x28007c0000000000UL, 0x28007bc440000000UL, 0x0000000000000064UL, 0x3c007c00008000a1UL,
  0x3c00042400000002UL, 0x0000000000000064UL, 0x400000003c007c00UL, 0x000000643c007bc4UL,
  0x0080014100000000UL, 0x0000000240007c00UL, 0x0000006440000424UL, 0x40007c0000000000UL,
  0x40007bc440000000UL, 0x0000000000000064UL, 0x44007c0000800161UL, 0x4400042400000002UL,
  0x0000000000000064UL, 0x4000000044007c00UL, 0x0000006444007bc4UL, 0x0080018100000000UL,
  0x0000000248007c00UL, 0x0000006448000424UL, 0x48007c0000000000UL, 0x48007bc440000000UL,
  0x0000000000000064UL, 0x54007c00008001a1UL, 0x5400042400881082UL, 0x0000000000000064UL,
  0x4088108054007c00UL, 0x0000006454007bc4UL, 0x0080020100000000UL, 0x080000025c007c00UL,
  0x000000645c000424UL, 0x5c007c0000000000UL, 0x5c007bc448000000UL, 0x0000000000000064UL,
  0x14007c0000800241UL, 0x1400042400000002UL, 0x0000000000000064UL, 0x4000000014007c00UL,
  0x0000006414007bc4UL, 0x0080000100000000UL, 0x000000021c007c00UL, 0x000000641c000424UL,
  0x1c007c0000000000UL, 0x1c007bc440000000UL, 0x0000000000000064UL, 0x24007c0000800041UL,
  0x2400042400000002UL, 0x0000000000000064UL, 0x4000000024007c00UL, 0x0000006424007bc4UL,
  0x0080008100000000UL, 0x0000000234007c00UL, 0x0000006434000424UL, 0x34007c0000000000UL,
  0x34007bc440000000UL, 0x0000000000000064UL, 0x38007c0000800101UL, 0x3800042400000002UL,
  0x0000000000000064UL, 0x4000000038007c00UL, 0x0000006438007bc4UL, 0x0080012100000000UL,
  0x008022a10000025dUL, 0x0800000068000042UL, 0x68027c0009000f60UL, 0x6807004300000000UL,
  0x0000000100010001UL, 0x00000000680c0043UL, 0x0080226110411041UL, 0x0800000060000042UL,
  0x60027c0009000160UL, 0x6007004300038007UL, 0x0000400000004000UL, 0x00000000600c0043UL,
  0x0080212110412042UL, 0x0008010038007c00UL, 0x3425180038020043UL, 0x380500c300003840UL,
  0x0000384000000000UL, 0x0000000000000000UL, 0x0010000000000024UL, 0x00000006380c0042UL,
  0x380d004300000007UL, 0x342c203f00000020UL, 0x0000000038110043UL, 0x0080204100000000UL,
  0x000801001c007c00UL, 0x341e10001c020043UL, 0x1c0500c300003840UL, 0x0000384000000000UL,
  0x0000000000000000UL, 0x0010000000000024UL, 0x000000061c0c0042UL, 0x1c0d004300000007UL,
  0x3425183f00000020UL, 0x000000001c110043UL, 0x008020c100000000UL, 0x000801002c007c00UL,
  0x342518002c020043UL, 0x2c0500c300003840UL, 0x0000384000000000UL, 0x0000000000000000UL,
  0x0010000000000024UL, 0x000000062c0c0042UL, 0x2c0d004300000007UL, 0x342c203f00000020UL,
  0x000000002c110043UL, 0x0080206100000000UL, 0x0088010820007c00UL, 0x3410000020020043UL,
  0x200500c300003840UL, 0x0000708000000000UL, 0x0000000000000000UL, 0x0010000000000024UL,
  0x00000006200c0042UL, 0x200d004300000007UL, 0x341e103f00000020UL, 0x0000000020110043UL,
  0x10007c0000000000UL, 0x1000042400000002UL, 0x0000000000000064UL, 0x4000000010007c00UL,
  0x0000006410007bc4UL, 0x10007c0000000000UL, 0x10057c0000000001UL, 0x1020004300000027UL,
  0x0000000d0000002bUL, 0x0000001310240043UL, 0x2000200100000005UL, 0x6800200160002001UL,
  0x2c0020011c002001UL, 0x20007fe438002001UL, 0x0000000000000064UL, 0x0000000010057c00UL,
  0x0000000010200043UL, 0x1024004300000000UL, 0x0000000000000000UL, 0x0000000220007c00UL,
  0x0000006420000424UL, 0x20007c0000000000UL, 0x20007bc440000000UL, 0x0000000000000064UL,
  0x60007c0000800061UL, 0x6000042408000002UL, 0x0000000000000064UL, 0x4800000060007c00UL,
  0x0000006460007bc4UL, 0x0080026100000000UL, 0x0800000268007c00UL, 0x0000006468000424UL,
  0x68007c0000000000UL, 0x68007bc448000000UL, 0x0000000000000064UL, 0x1c007c00008002a1UL,
  0x1c00042400000002UL, 0x0000000000000064UL, 0x400000001c007c00UL, 0x000000641c007bc4UL,
  0x0080004100000000UL, 0x000000022c007c00UL, 0x000000642c000424UL, 0x2c007c0000000000UL,
  0x2c007bc440000000UL, 0x0000000000000064UL, 0x38007c00008000c1UL, 0x3800042400000002UL,
  0x0000000000000064UL, 0x4000000038007c00UL, 0x0000006438007bc4UL, 0x0080012100000000UL,
  0x008022810000027dUL, 0x0800000064000042UL, 0x64027c0005000160UL, 0x640700430007a006UL,
  0x0000bfd7a1ec5f7eUL, 0x00000000640c0043UL, 0x0080208110412042UL, 0x0088010024007c00UL,
  0x3410000024020043UL, 0x240500c300003840UL, 0x0000708000000000UL, 0x0000000000000000UL,
  0x0010000000000024UL, 0x00000006240c0042UL, 0x240d004300000007UL, 0x341e103f00000020UL,
  0x0000000024110043UL, 0x0080212100000000UL, 0x0008010038007c00UL, 0x341e100038020043UL,
  0x380500c300003840UL, 0x0000384000000000UL, 0x0000000000000000UL, 0x0010000000000024UL,
  0x00000006380c0042UL, 0x380d004300000007UL, 0x3425183f00000020UL, 0x0000000038110043UL,
  0x0080210100000000UL, 0x0008000834007c00UL, 0x3425180034020123UL, 0x00800004003c003cUL,
  0x0000000400001e00UL, 0x0007080000000020UL, 0x0010000000000024UL, 0x00000006340c0042UL,
  0x340d004300000007UL, 0x342c203f00000020UL, 0x0000000034110043UL, 0x10007c0000000000UL,
  0x1000042400000002UL, 0x0000000000000064UL, 0x4000000010007c00UL, 0x0000006410007bc4UL,
  0x10007c0000000000UL, 0x100a7c0000000001UL, 0x1022004300000029UL, 0x0000001300000009UL,
  0x6400200134002001UL, 0x3800200124002001UL, 0x0000006434007fe4UL, 0x100a7c0000000000UL,
  0x1022004300000000UL, 0x0000000000000000UL, 0x0000000234007c00UL, 0x0000006434000424UL,
  0x34007c0000000000UL, 0x34007bc440000000UL, 0x0000000000000064UL, 0x64007c0000800101UL,
  0x6400042408000002UL, 0x0000000000000064UL, 0x4800000064007c00UL, 0x0000006464007bc4UL,
  0x0080028100000000UL, 0x0000000224007c00UL, 0x0000006424000424UL, 0x24007c0000000000UL,
  0x24007bc440000000UL, 0x0000000000000064UL, 0x38007c0000800081UL, 0x3800042400000002UL,
  0x0000000000000064UL, 0x4000000038007c00UL, 0x0000006438007bc4UL, 0x0080012100000000UL,
  0x008021410000029dUL, 0x000003503c007c00UL, 0x101001013c020123UL, 0x10b7400400001100UL,
  0x03bf0000003c03c0UL, 0x000f0040003b0000UL, 0x0000000000010102UL, 0x00ffff843c0c0043UL,
  0x0080216100000000UL, 0x0000004040007c00UL, 0x10100101400200e3UL, 0x10b7400000001100UL,
  0x03bf0000003c03c0UL, 0x001f1040003b0000UL, 0x00000000400a7c00UL, 0x00ffff84400c0043UL,
  0x0080218100000000UL, 0x0000004044007c00UL, 0x10100101440200e3UL, 0x10b7400000001100UL,
  0x03bf0000003c03c0UL, 0x002f2040003b0000UL, 0x00000000440a7c00UL, 0x00ffff84440c0043UL,
  0x008021a100000000UL, 0x0000004048007c00UL, 0x10100101480200e3UL, 0x10a3440000001100UL,
  0x03bf0000003c03c0UL, 0x003f3040003b0000UL, 0x00000000480a7c00UL, 0x00ffff84480c0043UL,
  0x0080224100000000UL, 0x080000005c000042UL, 0x5c020123156000fcUL, 0x0000000000090000UL,
  0x0000e0ff0000000fUL, 0x000000000001c1ffUL, 0x078403f100000000UL, 0x5c0c004300000001UL,
  0x2042204200000000UL, 0x000000015c0b7c00UL, 0x00584bff5d000803UL, 0x0022291a00004da8UL,
  0x00001cbc00001785UL, 0x004c351800006434UL, 0x00041b940000aa3eUL, 0xffff108700007405UL,
  0x000a180a00001192UL, 0x0014361400006526UL, 0x000f10b10000a257UL, 0x0013328d0000a325UL,
  0x00141393000012b9UL, 0xffd33f190000c29bUL, 0x004737b900006e07UL, 0x0025141900003bd7UL,
  0xfffe1f2f00007ddeUL, 0xffee4d5d0000db2dUL, 0x002e2ee500006612UL, 0x00112e780000d230UL,
  0x00544144000053caUL, 0x001e303300003abfUL, 0xfff330de0000a367UL, 0x000c0d6800006d57UL,
  0xfff014380000c6c6UL, 0xfff8254700008680UL, 0xfff412bd00000c22UL, 0x002953870000e50dUL,
  0x003b1d770000b70bUL, 0x003231a90000c2a0UL, 0x0004307c000087b5UL, 0x00082058000035dbUL,
  0x002c1e7b00003ae3UL, 0x003c406600001f7cUL, 0x008022610000f331UL, 0x0800000060000042UL,
  0x60027c0005000160UL, 0x6007004300078800UL, 0x00007d2880586281UL, 0x00000000600c0043UL,
  0x0080206110411041UL, 0x0008c00020007c00UL, 0x3425180020020123UL, 0x00800010003c003cUL,
  0x0000004000001e00UL, 0x0000000000000002UL, 0x0010000000000024UL, 0x00000006200c0042UL,
  0x200d004300000007UL, 0x342c203f00000004UL, 0x0000000020110043UL, 0x008020e100000000UL,
  0x0008c18430007c00UL, 0x70b5468030020043UL, 0x300500c300001000UL, 0x0000000000000000UL,
  0x0000000000000000UL, 0x0010000000000024UL, 0x00000006300c0042UL, 0x300d004300000007UL,
  0x70b556bf00000001UL, 0x0000000030110043UL, 0x0080210100000008UL, 0x0088c10034007c00UL,
  0x342e000034020043UL, 0x340500c30000e100UL, 0x0000000000000000UL, 0x0000000000000000UL,
  0x0010000000000024UL, 0x00000006340c0042UL, 0x340d004300000007UL, 0x342fc23f00000004UL,
  0x0000000034110043UL, 0x0080202100000000UL, 0x0008c00018007c00UL, 0x3425181018020123UL,
  0x00800010003c003cUL, 0x0000004000001e00UL, 0x0000000000000002UL, 0x0010000000000024UL,
  0x00000006180c0042UL, 0x180d004300000007UL, 0x342c203f00000004UL, 0x0000000018110043UL,
  0x0080208100000000UL, 0x0008c00024007c00UL, 0x3425182024020123UL, 0x00800010003c003cUL,
  0x0000004000001e00UL, 0x0000000000000002UL, 0x0010000000000024UL, 0x00000006240c0042UL,
  0x240d004300000007UL, 0x342c203f00000004UL, 0x0000000024110043UL, 0x008020c100000000UL,
  0x0008c0002c007c00UL, 0x342518302c020123UL, 0x00800010003c003cUL, 0x0000004000001e00UL,
  0x0000000000000002UL, 0x0010000000000024UL, 0x000000062c0c0042UL, 0x2c0d004300000007UL,
  0x342c203f00000004UL, 0x000000002c110043UL, 0x008020a100000000UL, 0x0008000028007c00UL,
  0x342fc20028020123UL, 0x00200010003c003cUL, 0x0000001000000780UL, 0x0001c20000000002UL,
  0x0010000000000024UL, 0x00000006280c0042UL, 0x280d004300000007UL, 0x3431843f00000002UL,
  0x0000000028110043UL, 0x0080200100000000UL, 0x0088010814007c00UL, 0x342e000014020043UL,
  0x140500c30000e100UL, 0x0000000000000000UL, 0x0000000000000000UL, 0x0010000000000024UL,
  0x00000006140c0042UL, 0x140d004300000007UL, 0x342fc23f00000004UL, 0x0000000014110043UL,
  0x0080204100000000UL, 0x000800081c007c00UL, 0x343184001c020123UL, 0x00200010003c003cUL,
  0x0000001000000780UL, 0x0001c20000000002UL, 0x0010000000000024UL, 0x000000061c0c0042UL,
  0x1c0d004300000007UL, 0x3433463f00000002UL, 0x000000001c110043UL, 0x10007c0000000000UL,
  0x1000042400000002UL, 0x0000000000000064UL, 0x4000000010007c00UL, 0x0000006410007bc4UL,
  0x10007c0000000000UL, 0x10027c0000000001UL, 0x10047c000000001bUL, 0x100c018300000027UL,
  0x0000000f00000007UL, 0x0000000300000011UL, 0x000000150000000fUL, 0x0000000f00000009UL,
  0x0000000d00000017UL, 0x000000190000000fUL, 0x011b011a101e7c00UL, 0x0000002510200043UL,
  0x140020010000000bUL, 0x3c007c001c002001UL, 0x40007c0000000351UL, 0x44007c0000000041UL,
  0x48007c0000000041UL, 0x5c00200100000041UL, 0x1800200160002001UL, 0x2400200120002001UL,
  0x2c00200128002001UL, 0x3400200130002001UL, 0x0000006414007fe4UL, 0x1c007fe400000000UL,
  0x0000000000000064UL, 0x0000000010027c00UL, 0x0000000010047c00UL, 0x00000000100c0183UL,
  0x0000000000000000UL, 0x0000000000000000UL, 0x0000000000000000UL, 0x0000000000000000UL,
  0x0000000000000000UL, 0x101e7c0000000000UL, 0x1020004300000000UL, 0x0000000000000000UL,
  0x0000000214007c00UL, 0x0000006414000424UL, 0x14007c0000000000UL, 0x14007bc440000000UL,
  0x0000000000000064UL, 0x1c007c0000800001UL, 0x1c00042400000002UL, 0x0000000000000064UL,
  0x400000001c007c00UL, 0x000000641c007bc4UL, 0x0080004100000000UL, 0x000000023c007c00UL,
  0x000000643c000424UL, 0x3c007c0000000000UL, 0x3c007bc440000000UL, 0x0000000000000064UL,
  0x40007c0000800141UL, 0x4000042400000002UL, 0x0000000000000064UL, 0x4000000040007c00UL,
  0x0000006440007bc4UL, 0x0080016100000000UL, 0x0000000244007c00UL, 0x0000006444000424UL,
  0x44007c0000000000UL, 0x44007bc440000000UL, 0x0000000000000064UL, 0x48007c0000800181UL,
  0x4800042400000002UL, 0x0000000000000064UL, 0x4000000048007c00UL, 0x0000006448007bc4UL,
  0x008001a100000000UL, 0x080000025c007c00UL, 0x000000645c000424UL, 0x5c007c0000000000UL,
  0x5c007bc448000000UL, 0x0000000000000064UL, 0x60007c0000800241UL, 0x6000042408000002UL,
  0x0000000000000064UL, 0x4800000060007c00UL, 0x0000006460007bc4UL, 0x0080026100000000UL,
  0x0000000218007c00UL, 0x0000006418000424UL, 0x18007c0000000000UL, 0x18007bc440000000UL,
  0x0000000000000064UL, 0x20007c0000800021UL, 0x2000042400000002UL, 0x0000000000000064UL,
  0x4000000020007c00UL, 0x0000006420007bc4UL, 0x0080006100000000UL, 0x0000000224007c00UL,
  0x0000006424000424UL, 0x24007c0000000000UL, 0x24007bc440000000UL, 0x0000000000000064UL,
  0x28007c0000800081UL, 0x2800042400000002UL, 0x0000000000000064UL, 0x4000000028007c00UL,
  0x0000006428007bc4UL, 0x008000a100000000UL, 0x000000022c007c00UL, 0x000000642c000424UL,
  0x2c007c0000000000UL, 0x2c007bc440000000UL, 0x0000000000000064UL, 0x30007c00008000c1UL,
  0x3000042400000002UL, 0x0000000000000064UL, 0x4000000030007c00UL, 0x0000006430007bc4UL,
  0x008000e100000000UL, 0x0000000234007c00UL, 0x0000006434000424UL, 0x34007c0000000000UL,
  0x34007bc440000000UL, 0x0000000000000064UL, 0x000002bd00800101UL, 0x3c007c0000802141UL,
  0x3c0200e300000054UL, 0x0000115504080303UL, 0x003c01e010b74004UL, 0x003b000001df0000UL,
  0x3c0a7c0000030010UL, 0x3c0c004300000000UL, 0x0000000000000003UL, 0x40007c0000802161UL,
  0x400200e300000040UL, 0x0000115504080303UL, 0x003c01e010b74000UL, 0x003b000001df0000UL,
  0x400a7c0000070410UL, 0x400c004300000000UL, 0x0000000000000003UL, 0x44007c0000802181UL,
  0x440200e300000040UL, 0x0000115504080303UL, 0x003c01e010b74000UL, 0x003b000001df0000UL,
  0x440a7c00000b0810UL, 0x440c004300000000UL, 0x0000000000000003UL, 0x48007c00008021a1UL,
  0x480200e300000040UL, 0x0000115504080303UL, 0x003c01e010a34400UL, 0x003b000001df0000UL,
  0x480a7c00000f0c10UL, 0x480c004300000000UL, 0x0000000000000003UL, 0x68000042008022a1UL,
  0x156000fc08000000UL, 0x0009800068020123UL, 0x0000000300000000UL, 0x000707ff0000383fUL,
  0x0000000000000000UL, 0x00000001060403fdUL, 0x00000000680c0043UL, 0x680b7c0020422042UL,
  0x6900200300000001UL, 0x00000b6701202443UL, 0x00001f7d016b1b47UL, 0x00008fa501f6252dUL,
  0x0000b9af012524a4UL, 0x000067bb01963b5eUL, 0x00005cc0014e3877UL, 0x0000c544019229a7UL,
  0x00000495011b2831UL, 0x0000c2a6018a2735UL, 0x00000d5401791e3eUL, 0x00009ab601283c51UL,
  0x0000d10d00f73415UL, 0x0000aa9801123e10UL, 0x0000a70301521dbeUL, 0x00009f51014139dfUL,
  0x0000ebb20182291dUL, 0x000027ae01511f4fUL, 0x000021b5012e4507UL, 0x0000b350013959e6UL,
  0x0000402701fb4478UL, 0x0000b5bd01451c9bUL, 0x0000f65c00c357acUL, 0x00004ec60139285eUL,
  0x0000da3c00f1321dUL, 0x000015b4016c4183UL, 0x0000e181015223c4UL, 0x0000fc7601522316UL,
  0x0000cf6c0136344bUL, 0x0000430a01702838UL, 0x00008abd016520cdUL, 0x00002b7e00b62712UL,
  0x0000ab32018d3849UL, 0x000022020136239fUL, 0x000069e201ca0b36UL, 0x000084ab015e2459UL,
  0x0000990f00dc34aaUL, 0x0000066f014f2822UL, 0x00007ac7014027a5UL, 0x000078ce014933acUL,
  0x000004eb016d2575UL, 0x0000abed01421bedUL, 0x0000afd001783ed4UL, 0x0000a75601952122UL,
  0x0000643901421d7eUL, 0x00009f0b012b2761UL, 0x00001e350153375dUL, 0x0000727201912210UL,
  0x00002ea7016f2994UL, 0x00002118017c245aUL, 0x0000b60500b73bafUL, 0x000074a001802814UL,
  0x0000f5fb01a330b8UL, 0x0000474301d017dfUL, 0x0000f1ff015d1e25UL, 0x000070c001261ed1UL,
  0x0000976c013441d7UL, 0x0000616901b933d3UL, 0x000006f0014d1a61UL, 0x000017a6014e33e1UL,
  0x0000c9a801373551UL, 0x00000a7a014429a9UL, 0x00005de701612d3bUL, 0x00007ec70143214aUL,
  0x0000a9fc011a1e41UL, 0x0000d9a40177280bUL, 0x000007c101222c86UL, 0x000016c701922c8dUL,
  0x0000142101611ebcUL, 0x0000921a0184247aUL, 0x0000485d01e72068UL, 0x00009f7d014a29deUL,
  0x0000391a0133564cUL, 0x0000a4d601412a80UL, 0x0000c41301d73e30UL, 0x00007c1401c11ed4UL,
  0x0000c452017b2290UL, 0x00003ec5017a19a3UL, 0x00000919017112e0UL, 0x0000372b00f91fb0UL,
  0x0000cec9013d17c1UL, 0x00008b54014325c1UL, 0x00004f4f01a740abUL, 0x00009289016b2500UL,
  0x0000525b015f3da7UL, 0x0000a67400d9291fUL, 0x00001d1301453131UL, 0x0000137301521f32UL,
  0x0000cc4f01951b90UL, 0x0000551a018c1638UL, 0x0000ff41012e229fUL, 0x0000485a0165356cUL,
  0x0000b84f0146226eUL, 0x00003568018f228bUL, 0x000098f901821f10UL, 0x0000e95901571837UL,
  0x00005c7d00df299cUL, 0x0000149e011f1b88UL, 0x0000b2c7009b7a94UL, 0x00008f9201a92429UL,
  0x0000835001512f1eUL, 0x00008cc001822084UL, 0x00003a4e014a2295UL, 0x0000aba501572d57UL,
  0x00008b8a0161497dUL, 0x0000c3be016a21c8UL, 0x000067f0013f2d29UL, 0x0000d01400b136c7UL,
  0x0000ab7201742417UL, 0x00002c56017b25f3UL, 0x00002ac80149249cUL, 0x0000e57801652016UL,
  0x0000eaa0015e2c27UL, 0x0000dd43014028deUL, 0x0000d7b201783e37UL, 0x000054f7017b1ee6UL,
  0x00008db200f2655cUL, 0x0000d7b6018d18b5UL, 0x00002a3901c433faUL, 0x0000e090012e3181UL,
  0x000025130132181fUL, 0x00002fd40110291cUL, 0x0000303001651ec1UL, 0x0000597c015f22abUL,
  0x000088a9012b309dUL, 0x0000786f012a2249UL, 0x0000ece8018f342cUL, 0x0000898401142c8fUL,
  0x0000ae6201c0262cUL, 0x58007c0000802221UL, 0x580200430174104cUL, 0x0210528f00087f80UL,
  0x0000000059000203UL, 0x0000000200000001UL, 0x0000000400000003UL, 0x0000000600000005UL,
  0x0000000800000007UL, 0x000000d1000000c9UL, 0x0000005b00000059UL, 0x0000001e0000001dUL,
  0x5a0008030000001fUL, 0x0000f00000000000UL, 0x0000f00000000000UL, 0x0000f00000000000UL,
  0x0000f00000000000UL, 0x0000f00000000000UL, 0x0000f00000000000UL, 0x0000f00000000000UL,
  0x0000f00000000000UL, 0x0000f00e002200e9UL, 0x0000f06000000000UL, 0x0000f08000000000UL,
  0x0000f0a000000000UL, 0x0000ee0004000000UL, 0x0000ee0004000000UL, 0x0000ee0004000000UL,
  0x0000ee2004000000UL, 0x0000ea8008000000UL, 0x0000ea8008000000UL, 0x0000e6600c000000UL,
  0x0000e1e010000000UL, 0x0000dd0014000000UL, 0x0000dce014000000UL, 0x0000d7a018000000UL,
  0x0000d2201c000000UL, 0x0000d2001c000000UL, 0x0000c82a25cdfddeUL, 0x000094d86100eccdUL,
  0x000082f67380e800UL, 0x0000a5d85200f000UL, 0x0000f4061270fceeUL, 0x000007de0470ff64UL,
  0x00000fe000000000UL, 0x24007c0000802081UL, 0x240201230008c000UL, 0x003c003c34318400UL,
  0x0000078000200008UL, 0x0000000100000020UL, 0x0000002400000000UL, 0x240c004200100000UL,
  0x0000000700000006UL, 0x00000020240d0043UL, 0x241100433433463fUL, 0x0000000000000000UL,
  0x38007c0000802121UL, 0x380200430008c184UL, 0x000090007094bf00UL, 0x00000000380500c3UL,
  0x0000000000000000UL, 0x0000002400000000UL, 0x380c004200100000UL, 0x0000000700000006UL,
  0x00000001380d0043UL, 0x3811004370954f3fUL, 0x0000000800000000UL, 0x30007c00008020e1UL,
  0x300201230008c000UL, 0x003c003c34318408UL, 0x0000078000200008UL, 0x0000000100000020UL,
  0x0000002400000000UL, 0x300c004200100000UL, 0x0000000700000006UL, 0x00000020300d0043UL,
  0x301100433433463fUL, 0x0000000000000000UL, 0x28007c00008020a1UL, 0x280201230008c000UL,
  0x003c003c34318410UL, 0x0000078000200008UL, 0x0000000100000020UL, 0x0000002400000000UL,
  0x280c004200100000UL, 0x0000000700000006UL, 0x00000020280d0043UL, 0x281100433433463fUL,
  0x0000000000000000UL, 0x14007c0000802001UL, 0x140201230008c000UL, 0x003c003c34318418UL,
  0x0000078000200008UL, 0x0000000100000020UL, 0x0000002400000000UL, 0x140c004200100000UL,
  0x0000000700000006UL, 0x00000020140d0043UL, 0x141100433433463fUL, 0x0000000000000000UL,
  0x1c007c0000802041UL, 0x1c02004300080108UL, 0x0000384034251800UL, 0x000000001c0500c3UL,
  0x0000000000003840UL, 0x0000002400000000UL, 0x1c0c004200100000UL, 0x0000000700000006UL,
  0x000000201c0d0043UL, 0x1c110043342c203fUL, 0x0000000000000000UL, 0x2c007c00008020c1UL,
  0x2c02004300080108UL, 0x00003840341e1000UL, 0x000000002c0500c3UL, 0x0000000000003840UL,
  0x0000002400000000UL, 0x2c0c004200100000UL, 0x0000000700000006UL, 0x000000202c0d0043UL,
  0x2c1100433425183fUL, 0x0000000000000000UL, 0x0000000210007c00UL, 0x0000006410000424UL,
  0x10007c0000000000UL, 0x10007bc440000000UL, 0x0000000000000064UL, 0x0000000110007c00UL,
  0x0000002b10047c00UL, 0x0000002310087c00UL, 0x00000009100c0043UL, 0x100f012300000013UL,
  0x000000130000000fUL, 0x0000000b00000015UL, 0x0000001700000013UL, 0x0000001300000001UL,
  0x101d7c0000000019UL, 0x10247c000000002bUL, 0x1c0020010000001bUL, 0x3c007c002c002001UL,
  0x40007c0000000055UL, 0x44007c0000000041UL, 0x48007c0000000041UL, 0x5800200100000041UL,
  0x1400200168002001UL, 0x2800200124002001UL, 0x3800200130002001UL, 0x000000641c007fe4UL,
  0x2c007fe400000000UL, 0x0000000000000064UL, 0x0000000010047c00UL, 0x0000000010087c00UL,
  0x00000000100c0043UL, 0x100f012300000000UL, 0x0000000000000000UL, 0x0000000000000000UL,
  0x0000000000000000UL, 0x0000000000000000UL, 0x101d7c0000000000UL, 0x10247c0000000000UL,
  0x1c007c0000000000UL, 0x1c00042400000002UL, 0x0000000000000064UL, 0x400000001c007c00UL,
  0x000000641c007bc4UL, 0x0080004100000000UL, 0x000000022c007c00UL, 0x000000642c000424UL,
  0x2c007c0000000000UL, 0x2c007bc440000000UL, 0x0000000000000064UL, 0x3c007c00008000c1UL,
  0x3c00042400000002UL, 0x0000000000000064UL, 0x400000003c007c00UL, 0x000000643c007bc4UL,
  0x0080014100000000UL, 0x0000000240007c00UL, 0x0000006440000424UL, 0x40007c0000000000UL,
  0x40007bc440000000UL, 0x0000000000000064UL, 0x44007c0000800161UL, 0x4400042400000002UL,
  0x0000000000000064UL, 0x4000000044007c00UL, 0x0000006444007bc4UL, 0x0080018100000000UL,
  0x0000000248007c00UL, 0x0000006448000424UL, 0x48007c0000000000UL, 0x48007bc440000000UL,
  0x0000000000000064UL, 0x58007c00008001a1UL, 0x5800042400881082UL, 0x0000000000000064UL,
  0x4088108058007c00UL, 0x0000006458007bc4UL, 0x0080022100000000UL, 0x0800000268007c00UL,
  0x0000006468000424UL, 0x68007c0000000000UL, 0x68007bc448000000UL, 0x0000000000000064UL,
  0x14007c00008002a1UL, 0x1400042400000002UL, 0x0000000000000064UL, 0x4000000014007c00UL,
  0x0000006414007bc4UL, 0x0080000100000000UL, 0x0000000224007c00UL, 0x0000006424000424UL,
  0x24007c0000000000UL, 0x24007bc440000000UL, 0x0000000000000064UL, 0x28007c0000800081UL,
  0x2800042400000002UL, 0x0000000000000064UL, 0x4000000028007c00UL, 0x0000006428007bc4UL,
  0x008000a100000000UL, 0x0000000230007c00UL, 0x0000006430000424UL, 0x30007c0000000000UL,
  0x30007bc440000000UL, 0x0000000000000064UL, 0x38007c00008000e1UL, 0x3800042400000002UL,
  0x0000000000000064UL, 0x4000000038007c00UL, 0x0000006438007bc4UL, 0x0080012100000000UL,
  0x00802281000002ddUL, 0x0800000064000042UL, 0x64027c0009000f60UL, 0x6407004300000000UL,
  0x0000000100010001UL, 0x00000000640c0043UL, 0x0080224110411041UL, 0x080000005c000042UL,
  0x5c027c0009000160UL, 0x5c07004300038007UL, 0x0000400000004000UL, 0x000000005c0c0043UL,
  0x008020c110412042UL, 0x000801002c007c00UL, 0x342518002c020043UL, 0x2c0500c300003840UL,
  0x0000384000000000UL, 0x0000000000000000UL, 0x0010000000000024UL, 0x000000062c0c0042UL,
  0x2c0d004300000007UL, 0x342c203f00000020UL, 0x000000002c110043UL, 0x0080202100000000UL,
  0x0008010018007c00UL, 0x341e100018020043UL, 0x180500c300003840UL, 0x0000384000000000UL,
  0x0000000000000000UL, 0x0010000000000024UL, 0x00000006180c0042UL, 0x180d004300000007UL,
  0x3425183f00000020UL, 0x0000000018110043UL, 0x0080200100000000UL, 0x0008010014007c00UL,
  0x3425180014020043UL, 0x140500c300003840UL, 0x0000384000000000UL, 0x0000000000000000UL,
  0x0010000000000024UL, 0x00000006140c0042UL, 0x140d004300000007UL, 0x342c203f00000020UL,
  0x0000000014110043UL, 0x008020e100000000UL, 0x0088010830007c00UL, 0x3410000030020043UL,
  0x300500c300003840UL, 0x0000708000000000UL, 0x0000000000000000UL, 0x0010000000000024UL,
  0x00000006300c0042UL, 0x300d004300000007UL, 0x341e103f00000020UL, 0x0000000030110043UL,
  0x10007c0000000000UL, 0x1000042400000002UL, 0x0000000000000064UL, 0x4000000010007c00UL,
  0x0000006410007bc4UL, 0x10007c0000000000UL, 0x10097c0000000001UL, 0x101e004300000025UL,
  0x0000000100000029UL, 0x0000000d10220043UL, 0x3000200100000003UL, 0x640020015c002001UL,
  0x1800200114002001UL, 0x30007fe42c002001UL, 0x0000000000000064UL, 0x0000000010097c00UL,
  0x00000000101e0043UL, 0x1022004300000000UL, 0x0000000000000000UL, 0x0000000230007c00UL,
  0x0000006430000424UL, 0x30007c0000000000UL, 0x30007bc440000000UL, 0x0000000000000064UL,
  0x5c007c00008000e1UL, 0x5c00042408000002UL, 0x0000000000000064UL, 0x480000005c007c00UL,
  0x000000645c007bc4UL, 0x0080024100000000UL, 0x0800000264007c00UL, 0x0000006464000424UL,
  0x64007c0000000000UL, 0x64007bc448000000UL, 0x0000000000000064UL, 0x14007c0000800281UL,
  0x1400042400000002UL, 0x0000000000000064UL, 0x4000000014007c00UL, 0x0000006414007bc4UL,
  0x0080000100000000UL, 0x0000000218007c00UL, 0x0000006418000424UL, 0x18007c0000000000UL,
  0x18007bc440000000UL, 0x0000000000000064UL, 0x2c007c0000800021UL, 0x2c00042400000002UL,
  0x0000000000000064UL, 0x400000002c007c00UL, 0x000000642c007bc4UL, 0x008000c100000000UL,
  0x00802261000002fdUL, 0x0800000060000042UL, 0x60027c0005000160UL, 0x600700430007a006UL,
  0x0000a998984c6a58UL, 0x00000000600c0043UL, 0x008020c110412042UL, 0x008801002c007c00UL,
  0x341000002c020043UL, 0x2c0500c300003840UL, 0x0000708000000000UL, 0x0000000000000000UL,
  0x0010000000000024UL, 0x000000062c0c0042UL, 0x2c0d004300000007UL, 0x341e103f00000020UL,
  0x000000002c110043UL, 0x0080200100000000UL, 0x0008010014007c00UL, 0x341e100014020043UL,
  0x140500c300003840UL, 0x0000384000000000UL, 0x0000000000000000UL, 0x0010000000000024UL,
  0x00000006140c0042UL, 0x140d004300000007UL, 0x3425183f00000020UL, 0x0000000014110043UL,
  0x0080206100000000UL, 0x0008000820007c00UL, 0x3433460020020123UL, 0x00800004003c003cUL,
  0x0000000400001e00UL, 0x0007080000000020UL, 0x0010000000000024UL, 0x00000006200c0042UL,
  0x200d004300000007UL, 0x343a4e3f00000020UL, 0x0000000020110043UL, 0x10007c0000000000UL,
  0x1000042400000002UL, 0x0000000000000064UL, 0x4000000010007c00UL, 0x0000006410007bc4UL,
  0x10007c0000000000UL, 0x10057c0000000001UL, 0x1020004300000027UL, 0x000000010000000dUL,
  0x6000200120002001UL, 0x2c00200114002001UL, 0x0000006420007fe4UL, 0x10057c0000000000UL,
  0x1020004300000000UL, 0x0000000000000000UL, 0x0000000220007c00UL, 0x0000006420000424UL,
  0x20007c0000000000UL, 0x20007bc440000000UL, 0x0000000000000064UL, 0x60007c0000800061UL,
  0x6000042408000002UL, 0x0000000000000064UL, 0x4800000060007c00UL, 0x0000006460007bc4UL,
  0x0080026100000000UL, 0x0000000214007c00UL, 0x0000006414000424UL, 0x14007c0000000000UL,
  0x14007bc440000000UL, 0x0000000000000064UL, 0x2c007c0000800001UL, 0x2c00042400000002UL,
  0x0000000000000064UL, 0x400000002c007c00UL, 0x000000642c007bc4UL, 0x008000c100000000UL,
  0x008021410000031dUL, 0x000003503c007c00UL, 0x101001013c020123UL, 0x10b7400400001100UL,
  0x03bf0000003c03c0UL, 0x000f0040003b0000UL, 0x0000000000010102UL, 0x00ffff873c0c0043UL,
  0x0080216100000000UL, 0x0000004040007c00UL, 0x10100101400200e3UL, 0x10b7400000001100UL,
  0x03bf0000003c03c0UL, 0x001f1040003b0000UL, 0x00000000400a7c00UL, 0x00ffff87400c0043UL,
  0x0080218100000000UL, 0x0000004044007c00UL, 0x10100101440200e3UL, 0x10b7400000001100UL,
  0x03bf0000003c03c0UL, 0x002f2040003b0000UL, 0x00000000440a7c00UL, 0x00ffff87440c0043UL,
  0x008021a100000000UL, 0x0000004048007c00UL, 0x10100101480200e3UL, 0x10a3440000001100UL,
  0x03bf0000003c03c0UL, 0x003f3040003b0000UL, 0x00000000480a7c00UL, 0x00ffff87480c0043UL,
  0x008022a100000000UL, 0x0800000068000042UL, 0x68020123156000fcUL, 0x0000000000090000UL,
  0x0000e0ff0000000fUL, 0x000000000001c1ffUL, 0x078403f100000000UL, 0x680c004300000001UL,
  0x2042204200000000UL, 0x00000001680b7c00UL, 0x0000410969000803UL, 0xfffb22250000f398UL,
  0x00061bec000025bfUL, 0xffe22ddc0000aa51UL, 0xfff912aa0000bf21UL, 0xffdc1afc000053e3UL,
  0x0009170e000024baUL, 0x0016360300000100UL, 0x000a100400009b1dUL, 0xffeb278e0000766eUL,
  0x001d0e0f000069baUL, 0xfff93b7400002595UL, 0xfff842e20000b568UL, 0x0039108f00007062UL,
  0xffce2118000091c0UL, 0x00105560000064c6UL, 0x00242bc80000c191UL, 0x001a33980000b82fUL,
  0xffde2c820000280dUL, 0xfffe22030000dc23UL, 0x00122edd0000761dUL, 0xffed0e500000f9fbUL,
  0xffd713380000a9dcUL, 0xffe91f8600001657UL, 0xffe513b3000037b3UL, 0x000650b90000ac2dUL,
  0x00471b490000b333UL, 0xffdd3f210000adbeUL, 0xffd7287b000097f9UL, 0x001b21e900005484UL,
  0x00211de40000108cUL, 0xfff83a8f0000bcd9UL, 0x0080224100000892UL, 0x080000005c000042UL,
  0x5c027c0005000160UL, 0x5c07004300078800UL, 0x0000609f9fb05f64UL, 0x000000005c0c0043UL,
  0x0080210110411041UL, 0x0008c00034007c00UL, 0x3433460034020123UL, 0x00800010003c003cUL,
  0x0000004000001e00UL, 0x0000000000000002UL, 0x0010000000000024UL, 0x00000006340c0042UL,
  0x340d004300000007UL, 0x343a4e3f00000004UL, 0x0000000034110043UL, 0x008020c100000000UL,
  0x0008c1842c007c00UL, 0x70b556802c020043UL, 0x2c0500c300001000UL, 0x0000000000000000UL,
  0x0000000000000000UL, 0x0010000000000024UL, 0x000000062c0c0042UL, 0x2c0d004300000007UL,
  0x70b566bf00000001UL, 0x000000002c110043UL, 0x008020a100000008UL, 0x0088c10028007c00UL,
  0x3428c20028020043UL, 0x280500c30000e100UL, 0x0000000000000000UL, 0x0000000000000000UL,
  0x0010000000000024UL, 0x00000006280c0042UL, 0x280d004300000007UL, 0x342a843f00000004UL,
  0x0000000028110043UL, 0x0080204100000000UL, 0x0008c0001c007c00UL, 0x343346101c020123UL,
  0x00800010003c003cUL, 0x0000004000001e00UL, 0x0000000000000002UL, 0x0010000000000024UL,
  0x000000061c0c0042UL, 0x1c0d004300000007UL, 0x343a4e3f00000004UL, 0x000000001c110043UL,
  0x0080208100000000UL, 0x0008c00024007c00UL, 0x3433462024020123UL, 0x00800010003c003cUL,
  0x0000004000001e00UL, 0x0000000000000002UL, 0x0010000000000024UL, 0x00000006240c0042UL,
  0x240d004300000007UL, 0x343a4e3f00000004UL, 0x0000000024110043UL, 0x0080200100000000UL,
  0x0008c00014007c00UL, 0x3433463014020123UL, 0x00800010003c003cUL, 0x0000004000001e00UL,
  0x0000000000000002UL, 0x0010000000000024UL, 0x00000006140c0042UL, 0x140d004300000007UL,
  0x343a4e3f00000004UL, 0x0000000014110043UL, 0x008020e100000000UL, 0x0008000030007c00UL,
  0x3431840030020123UL, 0x00200010003c003cUL, 0x0000001000000780UL, 0x0001c20000000002UL,
  0x0010000000000024UL, 0x00000006300c0042UL, 0x300d004300000007UL, 0x3433463f00000002UL,
  0x0000000030110043UL, 0x0080206100000000UL, 0x0088010820007c00UL, 0x3428c20020020043UL,
  0x200500c30000e100UL, 0x0000000000000000UL, 0x0000000000000000UL, 0x0010000000000024UL,
  0x00000006200c0042UL, 0x200d004300000007UL, 0x342a843f00000004UL, 0x0000000020110043UL,
  0x0080202100000000UL, 0x0008000818007c00UL, 0x342a840018020123UL, 0x00200010003c003cUL,
  0x0000001000000780UL, 0x0001c20000000002UL, 0x0010000000000024UL, 0x00000006180c0042UL,
  0x180d004300000007UL, 0x342c463f00000002UL, 0x0000000018110043UL, 0x10007c0000000000UL,
  0x1000042400000002UL, 0x0000000000000064UL, 0x4000000010007c00UL, 0x0000006410007bc4UL,
  0x10007c0000000000UL, 0x10037c0000000001UL, 0x10057c0000000025UL, 0x100c01830000001bUL,
  0x0000000d00000011UL, 0x000000050000000bUL, 0x000000150000000dUL, 0x0000000d00000009UL,
  0x0000000100000017UL, 0x000000190000000dUL, 0x0000002b101e0043UL, 0x10247c000000000fUL,
  0x18002001011b011aUL, 0x3c007c0020002001UL, 0x40007c0000000351UL, 0x44007c0000000041UL,
  0x48007c0000000041UL, 0x5c00200100000041UL, 0x1400200168002001UL, 0x240020011c002001UL,
  0x2c00200128002001UL, 0x3400200130002001UL, 0x0000006418007fe4UL, 0x20007fe400000000UL,
  0x0000000000000064UL, 0x0000000010037c00UL, 0x0000000010057c00UL, 0x00000000100c0183UL,
  0x0000000000000000UL, 0x0000000000000000UL, 0x0000000000000000UL, 0x0000000000000000UL,
  0x0000000000000000UL, 0x101e004300000000UL, 0x0000000000000000UL, 0x0000000010247c00UL,
  0x0000000218007c00UL, 0x0000006418000424UL, 0x18007c0000000000UL, 0x18007bc440000000UL,
  0x0000000000000064UL, 0x20007c0000800021UL, 0x2000042400000002UL, 0x0000000000000064UL,
  0x4000000020007c00UL, 0x0000006420007bc4UL, 0x0080006100000000UL, 0x000000023c007c00UL,
  0x000000643c000424UL, 0x3c007c0000000000UL, 0x3c007bc440000000UL, 0x0000000000000064UL,
  0x40007c0000800141UL, 0x4000042400000002UL, 0x0000000000000064UL, 0x4000000040007c00UL,
  0x0000006440007bc4UL, 0x0080016100000000UL, 0x0000000244007c00UL, 0x0000006444000424UL,
  0x44007c0000000000UL, 0x44007bc440000000UL, 0x0000000000000064UL, 0x48007c0000800181UL,
  0x4800042400000002UL, 0x0000000000000064UL, 0x4000000048007c00UL, 0x0000006448007bc4UL,
  0x008001a100000000UL, 0x080000025c007c00UL, 0x000000645c000424UL, 0x5c007c0000000000UL,
  0x5c007bc448000000UL, 0x0000000000000064UL, 0x68007c0000800241UL, 0x6800042408000002UL,
  0x0000000000000064UL, 0x4800000068007c00UL, 0x0000006468007bc4UL, 0x008002a100000000UL,
  0x0000000214007c00UL, 0x0000006414000424UL, 0x14007c0000000000UL, 0x14007bc440000000UL,
  0x0000000000000064UL, 0x1c007c0000800001UL, 0x1c00042400000002UL, 0x0000000000000064UL,
  0x400000001c007c00UL, 0x000000641c007bc4UL, 0x0080004100000000UL, 0x0000000224007c00UL,
  0x0000006424000424UL, 0x24007c0000000000UL, 0x24007bc440000000UL, 0x0000000000000064UL,
  0x28007c0000800081UL, 0x2800042400000002UL, 0x0000000000000064UL, 0x4000000028007c00UL,
  0x0000006428007bc4UL, 0x008000a100000000UL, 0x000000022c007c00UL, 0x000000642c000424UL,
  0x2c007c0000000000UL, 0x2c007bc440000000UL, 0x0000000000000064UL, 0x30007c00008000c1UL,
  0x3000042400000002UL, 0x0000000000000064UL, 0x4000000030007c00UL, 0x0000006430007bc4UL,
  0x008000e100000000UL, 0x0000000234007c00UL, 0x0000006434000424UL, 0x34007c0000000000UL,
  0x34007bc440000000UL, 0x0000000000000064UL, 0x0000033d00800101UL, 0x3c007c0000802141UL,
  0x3c0200e300000034UL, 0x0000224408080303UL, 0x003c01e010774005UL, 0x003b000001df0000UL,
  0x3c0a7c0000070020UL, 0x3c0d7c0000000000UL, 0x0080216100000000UL, 0x0000002040007c00UL,
  0x08080303400200e3UL, 0x1077400000002244UL, 0x01df0000003c01e0UL, 0x000f0820003b0000UL,
  0x00000000400a7c00UL, 0x00000000400d7c00UL, 0x44007c0000802181UL, 0x440200e300000020UL,
  0x0000224408080303UL, 0x003c01e010774000UL, 0x003b000001df0000UL, 0x440a7c0000171020UL,
  0x440d7c0000000000UL, 0x008021a100000000UL, 0x0000002048007c00UL, 0x08080303480200e3UL,
  0x1063450000002244UL, 0x01df0000003c01e0UL, 0x001f1820003b0000UL, 0x00000000480a7c00UL,
  0x00000000480d7c00UL, 0x6400004200802281UL, 0x156000fc08000000UL, 0x0009000064020123UL,
  0x0000000700000000UL, 0x0001c1ff00001c1fUL, 0x0000000000000000UL, 0x00000001060403f9UL,
  0x00000000640c0043UL, 0x640b7c0020422042UL, 0x6500200300000001UL, 0x0000b3d5006c207bUL,
  0x0000ff65003f29c0UL, 0x0000eb7e00641ab9UL, 0x000011cf003f1e00UL, 0x0000592e00d81490UL,
  0x0000cba900311b69UL, 0x00003a04010c1c5aUL, 0x0000edd2009813ebUL, 0x0000210b0120110cUL,
  0x00009bd0006a1bb5UL, 0x0000c40a00702aafUL, 0x0000a24a00971528UL, 0x0000ed870089142aUL,
  0x000039dc0079155dUL, 0x0000d0b2007a24a6UL, 0x0000722100841ab2UL, 0x000003ba007f1caeUL,
  0x00001e1b008125fdUL, 0x000022f900601566UL, 0x0000ddfe00852ea3UL, 0x0000b149006314feUL,
  0x000018490096232fUL, 0x0000c37e00ab190dUL, 0x0000a070009220d2UL, 0x0000cdf9004e157bUL,
  0x00000630006b2af9UL, 0x0000daf80099197aUL, 0x00001987006a22d2UL, 0x0000006c00a01f6fUL,
  0x0000772000c91340UL, 0x0000cd5b0099205fUL, 0x0000ebbb008c2487UL, 0x00006c2e008b1b7eUL,
  0x0000dd7f009e4738UL, 0x0000d6bc005365ffUL, 0x0000106100851d21UL, 0x0000074d008830e2UL,
  0x00004fd60080259cUL, 0x0000598800a31167UL, 0x000056a4006b146fUL, 0x00000d9d006122efUL,
  0x000090b0008c1be8UL, 0x0000472d009f1abcUL, 0x00000a3e00a228beUL, 0x000020c200d0182aUL,
  0x00008af600671b33UL, 0x00003b0e00872309UL, 0x00008f7300ab1573UL, 0x000015a0006428b5UL,
  0x000047f000583797UL, 0x000020ee00941c0cUL, 0x00003fe0008327c8UL, 0x0000507c004d33a3UL,
  0x000018bf005a5594UL, 0x0000872000e12537UL, 0x00003d290046389bUL, 0x0000c64a0063100fUL,
  0x0000f82500e71e17UL, 0x0000d4b6009e20a9UL, 0x0000458700ae16c1UL, 0x000019f000432934UL,
  0x000058930067267fUL, 0x0000a64f0052461fUL, 0x00003453009f2143UL, 0x0000eac700921a78UL,
  0x00009ca6006c26aeUL, 0x00004b9e00952cd1UL, 0x00000a260057137fUL, 0x00005ed400b92475UL,
  0x0000e87d008a1509UL, 0x00006e2f00b02804UL, 0x0000b20500a51fe0UL, 0x00002afd00481745UL,
  0x000072aa009715a6UL, 0x000074980070275aUL, 0x0000feac004f4442UL, 0x00006c610060203cUL,
  0x00000cec008a2004UL, 0x0000b4df00f0308eUL, 0x0000a331009b1abcUL, 0x0000ed8b006d280bUL,
  0x00001460011d126cUL, 0x00000673005229baUL, 0x0000fdd6004f14b7UL, 0x0000dd7800702832UL,
  0x00004e7c00941f12UL, 0x00004948008e2358UL, 0x0000171700752e25UL, 0x0000e6d100a12efeUL,
  0x000063ec006825bdUL, 0x00009a69003430b9UL, 0x0000a9d1007825c2UL, 0x0000d1830120142dUL,
  0x0000ff8b0092179aUL, 0x0000f00300681cdfUL, 0x00009c5400561709UL, 0x0000e120007214faUL,
  0x0000271300b01c36UL, 0x00000dd200ac1338UL, 0x0000ad7b010219daUL, 0x0000e0500063258eUL,
  0x0000899900f211ffUL, 0x0000a1bd007212a3UL, 0x00007cd500830dedUL, 0x00007d9c008035f0UL,
  0x00009a49005a2c80UL, 0x0000a81100a514fdUL, 0x0000d923005f36dbUL, 0x0000b800007b1720UL,
  0x00002dfe00432111UL, 0x0000f92700af2412UL, 0x00006dbe004e268dUL, 0x00004adf0042162cUL,
  0x000046a500791db4UL, 0x0000861a008637afUL, 0x00000cce01100fbbUL, 0x00008369007d385eUL,
  0x000062a4007d2954UL, 0x00007217008713dfUL, 0x0000cd92007f1079UL, 0x0000b1e4005f1067UL,
  0x0000606800d51e9eUL, 0x0000101c006e2e01UL, 0x0000b4fc006628eaUL, 0x0000b85a00631d65UL,
  0x0000a039004d2071UL, 0x0000595900ca330cUL, 0x00001ee4007e4441UL, 0x54007c0000802201UL,
  0x540200430174104cUL, 0x0210420f00087f80UL, 0x0000000055000203UL, 0x0000000200000001UL,
  0x0000000400000003UL, 0x000000c600000005UL, 0x0000004f0000000eUL, 0x000000d300000051UL,
  0x000000e3000000dbUL, 0x0000002c0000002bUL, 0x56000b830000002dUL, 0x0000c00000000000UL,
  0x0000c00000000000UL, 0x0000c00000000000UL, 0x0000c00000000000UL, 0x0000c00000000000UL,
  0x0000c00000000000UL, 0x0000c00000000000UL, 0x0000c00000000000UL, 0x0000ce0008000000UL,
  0x0000c08000000000UL, 0x0000c08000000000UL, 0x0000c08000000000UL, 0x0000c08000000000UL,
  0x0000c10000000000UL, 0x0000c61509550444UL, 0x0000c6280a001000UL, 0x0000c98cff001800UL,
  0x0000bc5a17330ccdUL, 0x00008d045600f800UL, 0x0000b90030000000UL, 0x0000b90030000000UL,
  0x0000ca8028000000UL, 0x0000ca0028000000UL, 0x0000dd0020000000UL, 0x0000f18018000000UL,
  0x0000078010000000UL, 0x0000080010000000UL, 0x0000200008000000UL, 0x0000208008000000UL,
  0x0000208008000000UL, 0x0000208008000000UL, 0x00003c8000000000UL, 0x0000200008000000UL,
  0x00001f8008000000UL, 0x00003e0000000000UL, 0x00003e8000000000UL, 0x00003e8000000000UL,
  0x00001c8008000000UL, 0x00003f0000000000UL, 0x00003f0000000000UL, 0x00003f0000000000UL,
  0x00003f0000000000UL, 0x00003f8000000000UL, 0x00003f8000000000UL, 0x00003f8000000000UL,
  0x00003f8000000000UL, 0x28007c00008020a1UL, 0x2802012300080000UL, 0x003c003c342a8400UL,
  0x0000078000200008UL, 0x0000000100000020UL, 0x0000002400000000UL, 0x280c004200100000UL,
  0x0000000700000006UL, 0x00000010280d0043UL, 0x28110043342c463fUL, 0x0000000000000000UL,
  0x34007c0000802101UL, 0x3402004300080184UL, 0x0000900070954f00UL, 0x00000000340500c3UL,
  0x0000000000000000UL, 0x0000002400000000UL, 0x340c004200100000UL, 0x0000000700000006UL,
  0x00000001340d0043UL, 0x341100437095df3fUL, 0x0000000800000000UL, 0x18007c0000802021UL,
  0x1802012300080000UL, 0x003c003c342a8408UL, 0x0000078000200008UL, 0x0000000100000020UL,
  0x0000002400000000UL, 0x180c004200100000UL, 0x0000000700000006UL, 0x00000010180d0043UL,
  0x18110043342c463fUL, 0x0000000000000000UL, 0x38007c0000802121UL, 0x3802012300080000UL,
  0x003c003c342a8410UL, 0x0000078000200008UL, 0x0000000100000020UL, 0x0000002400000000UL,
  0x380c004200100000UL, 0x0000000700000006UL, 0x00000010380d0043UL, 0x38110043342c463fUL,
  0x0000000000000000UL, 0x24007c0000802081UL, 0x2402012300080000UL, 0x003c003c342a8418UL,
  0x0000078000200008UL, 0x0000000100000020UL, 0x0000002400000000UL, 0x240c004200100000UL,
  0x0000000700000006UL, 0x00000010240d0043UL, 0x24110043342c463fUL, 0x0000000000000000UL,
  0x1c007c0000802041UL, 0x1c02004300080108UL, 0x00001c2034270000UL, 0x000000001c0500c3UL,
  0x0000000000001c20UL, 0x0000002400000000UL, 0x1c0c004200100000UL, 0x0000000700000006UL,
  0x000000101c0d0043UL, 0x1c1100433428c23fUL, 0x0000000000000000UL, 0x2c007c00008020c1UL,
  0x2c02004300080108UL, 0x00001c2034318400UL, 0x000000002c0500c3UL, 0x0000000000001c20UL,
  0x0000002400000000UL, 0x2c0c004200100000UL, 0x0000000700000006UL, 0x000000102c0d0043UL,
  0x2c1100433433463fUL, 0x0000000000000000UL, 0x0000000210007c00UL, 0x0000006410000424UL,
  0x10007c0000000000UL, 0x10007bc440000000UL, 0x0000000000000064UL, 0x0000000110007c00UL,
  0x0000002910047c00UL, 0x0000002110087c00UL, 0x0000000b100c0043UL, 0x100f012300000011UL,
  0x0000001100000003UL, 0x0000001300000015UL, 0x0000001700000011UL, 0x0000001100000009UL,
  0x101c7c0000000019UL, 0x10227c0000000029UL, 0x1c0020010000001bUL, 0x3c007c002c002001UL,
  0x40007c0000000035UL, 0x44007c0000000021UL, 0x48007c0000000021UL, 0x5400200100000021UL,
  0x1800200164002001UL, 0x2800200124002001UL, 0x3800200134002001UL, 0x000000641c007fe4UL,
  0x2c007fe400000000UL, 0x0000000000000064UL, 0x0000000010047c00UL, 0x0000000010087c00UL,
  0x00000000100c0043UL, 0x100f012300000000UL, 0x0000000000000000UL, 0x0000000000000000UL,
  0x0000000000000000UL, 0x0000000000000000UL, 0x101c7c0000000000UL, 0x10227c0000000000UL,
  0x1c007c0000000000UL, 0x1c00042400000002UL, 0x0000000000000064UL, 0x400000001c007c00UL,
  0x000000641c007bc4UL, 0x0080004100000000UL, 0x000000022c007c00UL, 0x000000642c000424UL,
  0x2c007c0000000000UL, 0x2c007bc440000000UL, 0x0000000000000064UL, 0x3c007c00008000c1UL,
  0x3c00042400000002UL, 0x0000000000000064UL, 0x400000003c007c00UL, 0x000000643c007bc4UL,
  0x0080014100000000UL, 0x0000000240007c00UL, 0x0000006440000424UL, 0x40007c0000000000UL,
  0x40007bc440000000UL, 0x0000000000000064UL, 0x44007c0000800161UL, 0x4400042400000002UL,
  0x0000000000000064UL, 0x4000000044007c00UL, 0x0000006444007bc4UL, 0x0080018100000000UL,
  0x0000000248007c00UL, 0x0000006448000424UL, 0x48007c0000000000UL, 0x48007bc440000000UL,
  0x0000000000000064UL, 0x54007c00008001a1UL, 0x5400042400881082UL, 0x0000000000000064UL,
  0x4088108054007c00UL, 0x0000006454007bc4UL, 0x0080020100000000UL, 0x0800000264007c00UL,
  0x0000006464000424UL, 0x64007c0000000000UL, 0x64007bc448000000UL, 0x0000000000000064UL,
  0x18007c0000800281UL, 0x1800042400000002UL, 0x0000000000000064UL, 0x4000000018007c00UL,
  0x0000006418007bc4UL, 0x0080002100000000UL, 0x0000000224007c00UL, 0x0000006424000424UL,
  0x24007c0000000000UL, 0x24007bc440000000UL, 0x0000000000000064UL, 0x28007c0000800081UL,
  0x2800042400000002UL, 0x0000000000000064UL, 0x4000000028007c00UL, 0x0000006428007bc4UL,
  0x008000a100000000UL, 0x0000000234007c00UL, 0x0000006434000424UL, 0x34007c0000000000UL,
  0x34007bc440000000UL, 0x0000000000000064UL, 0x38007c0000800101UL, 0x3800042400000002UL,
  0x0000000000000064UL, 0x4000000038007c00UL, 0x0000006438007bc4UL, 0x0080012100000000UL,
  0x008022610000035dUL, 0x0800000060000042UL, 0x60027c0009000f60UL, 0x6007004300000000UL,
  0x0000000100010001UL, 0x00000000600c0043UL, 0x0080224110411041UL, 0x080000005c000042UL,
  0x5c027c0009000160UL, 0x5c07004300038007UL, 0x0000400000004000UL, 0x000000005c0c0043UL,
  0x0080202110412042UL, 0x0008010018007c00UL, 0x3427000018020043UL, 0x180500c300001c20UL,
  0x00001c2000000000UL, 0x0000000000000000UL, 0x0010000000000024UL, 0x00000006180c0042UL,
  0x180d004300000007UL, 0x3428c23f00000010UL, 0x0000000018110043UL, 0x0080206100000000UL,
  0x0008010020007c00UL, 0x3431840020020043UL, 0x200500c300001c20UL, 0x00001c2000000000UL,
  0x0000000000000000UL, 0x0010000000000024UL, 0x00000006200c0042UL, 0x200d004300000007UL,
  0x3433463f00000010UL, 0x0000000020110043UL, 0x0080212100000000UL, 0x0008010038007c00UL,
  0x3427000038020043UL, 0x380500c300001c20UL, 0x00001c2000000000UL, 0x0000000000000000UL,
  0x0010000000000024UL, 0x00000006380c0042UL, 0x380d004300000007UL, 0x3428c23f00000010UL,
  0x0000000038110043UL, 0x0080210100000000UL, 0x0088010834007c00UL, 0x342e000034020043UL,
  0x340500c300001c20UL, 0x0000384000000000UL, 0x0000000000000000UL, 0x0010000000000024UL,
  0x00000006340c0042UL, 0x340d004300000007UL, 0x3431843f00000010UL, 0x0000000034110043UL,
  0x10007c0000000000UL, 0x1000042400000002UL, 0x0000000000000064UL, 0x4000000010007c00UL,
  0x0000006410007bc4UL, 0x10007c0000000000UL, 0x100a7c0000000001UL, 0x101e008300000025UL,
  0x0000001300000027UL, 0x0000000700000003UL, 0x5c00200134002001UL, 0x1800200160002001UL,
  0x3800200120002001UL, 0x0000006434007fe4UL, 0x100a7c0000000000UL, 0x101e008300000000UL,
  0x0000000000000000UL, 0x0000000000000000UL, 0x0000000234007c00UL, 0x0000006434000424UL,
  0x34007c0000000000UL, 0x34007bc440000000UL, 0x0000000000000064UL, 0x5c007c0000800101UL,
  0x5c00042408000002UL, 0x0000000000000064UL, 0x480000005c007c00UL, 0x000000645c007bc4UL,
  0x0080024100000000UL, 0x0800000260007c00UL, 0x0000006460000424UL, 0x60007c0000000000UL,
  0x60007bc448000000UL, 0x0000000000000064UL, 0x18007c0000800261UL, 0x1800042400000002UL,
  0x0000000000000064UL, 0x4000000018007c00UL, 0x0000006418007bc4UL, 0x0080002100000000UL,
  0x0000000220007c00UL, 0x0000006420000424UL, 0x20007c0000000000UL, 0x20007bc440000000UL,
  0x0000000000000064UL, 0x38007c0000800061UL, 0x3800042400000002UL, 0x0000000000000064UL,
  0x4000000038007c00UL, 0x0000006438007bc4UL, 0x0080012100000000UL, 0x008022a10000037dUL,
  0x0800000068000042UL, 0x68027c0005000160UL, 0x680700430008a804UL, 0x000085dbb3bb4e2cUL,
  0x00000000680c0043UL, 0x0080208110412042UL, 0x0088010024007c00UL, 0x342e000024020043UL,
  0x240500c300001c20UL, 0x0000384000000000UL, 0x0000000000000000UL, 0x0010000000000024UL,
