/**
  ******************************************************************************
  * @file    network_ecblobs.h
  * @brief   NN Code autogenerated DO NOT MODIFY IT
  ******************************************************************************
  * @attention
  *
  * Copyright (c) 2024 STMicroelectronics.
  * All rights reserved.
  *
  * This software is licensed under terms that can be found in the LICENSE file
  * in the root directory of this software component.
  * If no LICENSE file comes with this software, it is provided AS-IS.
  *
  ******************************************************************************
  */


#ifdef __cplusplus
extern "C" {
#endif

#include "ll_aton_caches_interface.h"

#include <string.h>

#if !defined(ECBLOB_CONST_SECTION)
#define ECBLOB_CONST_SECTION /* Empty */
#endif
#if !defined(ECBLOB_RUNTIME_SECTION)
#define ECBLOB_RUNTIME_SECTION /* Empty */
#endif

ECBLOB_CONST_SECTION
// aligned to the cache line size (equal to 64 bytes)
__attribute__((aligned(64)))
static const uint64_t _ec_blob_network_1[38136] =
{
  0x000129dfca057a7aUL, 0x0000005d0000003dUL, 0x5c00004200802241UL, 0x1500006008000000UL,
  0x000700005c027c00UL, 0x000040005c070043UL, 0x5c0c00430000ffe0UL, 0x1041204200000000UL,
  0x14007c0000802001UL, 0x1402004300080104UL, 0x0002a300342e0000UL, 0x00000000140500c3UL,
  0x000000000002a300UL, 0x0000002400000000UL, 0x140c004200100000UL, 0x0000000700000006UL,
  0x00000001140d0043UL, 0x141100433430a33fUL, 0x0000000000000000UL, 0x38007c0000802121UL,
  0x380200430008010cUL, 0x0002a3003430a300UL, 0x00000000380500c3UL, 0x000000000002a300UL,
  0x0000002400000000UL, 0x380c004200100000UL, 0x0000000700000006UL, 0x00000001380d0043UL,
  0x381100433433463fUL, 0x0000000000000000UL, 0x00000025100b7c00UL, 0x00000001101e7c00UL,
  0x0000000110007c00UL, 0x5c00200138002001UL, 0x38007fe414002001UL, 0x0000000000000064UL,
  0x0000000210007c00UL, 0x0000006410000424UL, 0x10007c0000000000UL, 0x10007bc440000000UL,
  0x0000000000000064UL, 0x00000000100b7c00UL, 0x00000000101e7c00UL, 0x0000000238007c00UL,
  0x0000006438000424UL, 0x38007c0000000000UL, 0x38007bc440000000UL, 0x0000000000000064UL,
  0x5c007c0000800121UL, 0x5c00042408000002UL, 0x0000000000000064UL, 0x480000005c007c00UL,
  0x000000645c007bc4UL, 0x0080024100000000UL, 0x0000000214007c00UL, 0x0000006414000424UL,
  0x14007c0000000000UL, 0x14007bc440000000UL, 0x0000000000000064UL, 0x0000007d00800001UL,
  0x3c007c0000802141UL, 0x3c0200e300000034UL, 0x0000224408030303UL, 0x00f002d010634202UL,
  0x00ef000002cf0000UL, 0x3c0a7c0000000001UL, 0x3c0d7c0000000000UL, 0x0080226100000000UL,
  0x0800000060000042UL, 0x60020123156000fcUL, 0x00000000000a8000UL, 0x0001c1ff00000007UL,
  0x00000000000707ffUL, 0x078403f900000000UL, 0x600c004300000001UL, 0x2042204200000000UL,
  0x00000001600b7c00UL, 0x004e0cfa61000803UL, 0x01bd2f960000b43dUL, 0x01d53e3f0000dc23UL,
  0xf91c466d0000cfecUL, 0x00e80aa70000365fUL, 0x021e51f000002effUL, 0x014406e40000375dUL,
  0x00c761c300006303UL, 0x01130b91000066d9UL, 0x01a113150000c9b9UL, 0xfeb620990000745eUL,
  0xfe5710ac00005876UL, 0x01d343790000133cUL, 0x01ed100c0000f1e2UL, 0x01db35d50000ce75UL,
  0x00ad30a100009fdcUL, 0x01b43307000050b2UL, 0xfe9d1a800000f28bUL, 0xfadc30160000af88UL,
  0x01c262070000f698UL, 0x00f74aaa00001219UL, 0x02061f53000005ebUL, 0x01da2e66000084a2UL,
  0x00e042830000aeccUL, 0x0209065f0000cd43UL, 0x019b2c4d0000a657UL, 0xff3c22f000004d8fUL,
  0x030104e400008d8eUL, 0x0065245f00009f43UL, 0xfc271fdd0000f573UL, 0x02070a660000de3aUL,
  0x01d336be00002964UL, 0x008022010000c7f9UL, 0x0174104c54007c00UL, 0x00087f8054020043UL,
  0x550002030210220fUL, 0x0000000100000000UL, 0x0000000300000002UL, 0x0000000500000004UL,
  0x0000000700000006UL, 0x000000d0000000c8UL, 0x0000001900000018UL, 0x00000022000000daUL,
  0x000000e400000023UL, 0x0000000056000b03UL, 0x000000000000c080UL, 0x000000000000c080UL,
  0x000000000000c080UL, 0x000000000000c080UL, 0x000000000000c080UL, 0x000000000000c080UL,
  0x000000000000c080UL, 0x000000000000c080UL, 0x000000000000c080UL, 0x000000000000c000UL,
  0x000000000000c000UL, 0x200000000000c000UL, 0x400000000000bc00UL, 0x400000000000b700UL,
  0x400000000000b700UL, 0x600000000000b780UL, 0x400000000000af80UL, 0x600000000000b800UL,
  0x400000000000ae00UL, 0x400000000000b880UL, 0x400000000000b880UL, 0x400000000000b900UL,
  0x400000000000b900UL, 0x449200000000b900UL, 0x58deff450000b6eeUL, 0x400000000000ae3aUL,
  0x600000000000bb80UL, 0x4000000000009a80UL, 0x400000000000bc00UL, 0x400000000000bc00UL,
  0x400000000000bc00UL, 0x400000000000bc80UL, 0x400000000000bc80UL, 0x449200000000bc80UL,
  0x455500000000b712UL, 0x400000000000b5e0UL, 0x400000000000bf00UL, 0x400000000000bf80UL,
  0x400000000000bf80UL, 0x600000000000bf80UL, 0x4000000000008380UL, 0x400000000000c000UL,
  0x400000000000c000UL, 0x008020010000c000UL, 0x0008010014007c00UL, 0x3430a30014020043UL,
  0x140500c30002a300UL, 0x0002a30000000000UL, 0x0000000000000001UL, 0x0010000000000024UL,
  0x00000006140c0042UL, 0x140d004300000007UL, 0x3433463f00000004UL, 0x0000000014110043UL,
  0x008020c100000000UL, 0x000801842c007c00UL, 0x70b661802c020043UL, 0x2c0500c300000360UL,
  0x0000000000000000UL, 0x0000000000000000UL, 0x0010000000000024UL, 0x000000062c0c0042UL,
  0x2c0d004300000007UL, 0x70b6651f00000001UL, 0x000000002c110043UL, 0x008020e100000008UL,
  0x0008010830007c00UL, 0x3410000030020043UL, 0x300500c30001c200UL, 0x0001c20000000000UL,
  0x0000000000000000UL, 0x0010000000000024UL, 0x00000006300c0042UL, 0x300d004300000007UL,
  0x3417083f00000004UL, 0x0000000030110043UL, 0x10097c0000000000UL, 0x100c004300000021UL,
  0x0000000d00000001UL, 0x00000027101c7c00UL, 0x0000001510207c00UL, 0x0000000110007c00UL,
  0x3c007c0030002001UL, 0x5400200100000035UL, 0x1400200160002001UL, 0x30007fe42c002001UL,
  0x0000000000000064UL, 0x0000000210007c00UL, 0x0000006410000424UL, 0x10007c0000000000UL,
  0x10007bc440000000UL, 0x0000000000000064UL, 0x0000000010097c00UL, 0x00000000100c0043UL,
  0x101c7c0000000000UL, 0x10207c0000000000UL, 0x30007c0000000000UL, 0x3000042400000002UL,
  0x0000000000000064UL, 0x4000000030007c00UL, 0x0000006430007bc4UL, 0x008000e100000000UL,
  0x000000023c007c00UL, 0x000000643c000424UL, 0x3c007c0000000000UL, 0x3c007bc440000000UL,
  0x0000000000000064UL, 0x54007c0000800141UL, 0x5400042400881082UL, 0x0000000000000064UL,
  0x4088108054007c00UL, 0x0000006454007bc4UL, 0x0080020100000000UL, 0x0800000260007c00UL,
  0x0000006460000424UL, 0x60007c0000000000UL, 0x60007bc448000000UL, 0x0000000000000064UL,
  0x14007c0000800261UL, 0x1400042400000002UL, 0x0000000000000064UL, 0x4000000014007c00UL,
  0x0000006414007bc4UL, 0x0080000100000000UL, 0x000000022c007c00UL, 0x000000642c000424UL,
  0x2c007c0000000000UL, 0x2c007bc440000000UL, 0x0000000000000064UL, 0x0000009d008000c1UL,
  0x40007c0000802161UL, 0x400200e300000054UL, 0x0000115504080303UL, 0x007803c010b74004UL,
  0x0077000003bf0000UL, 0x400a7c0000030010UL, 0x400c004300000000UL, 0x0000000000ffff81UL,
  0x44007c0000802181UL, 0x440200e300000040UL, 0x0000115504080303UL, 0x007803c010b74000UL,
  0x0077000003bf0000UL, 0x440a7c0000070410UL, 0x440c004300000000UL, 0x0000000000ffff81UL,
  0x48007c00008021a1UL, 0x480200e300000040UL, 0x0000115504080303UL, 0x007803c010b74000UL,
  0x0077000003bf0000UL, 0x480a7c00000b0810UL, 0x480c004300000000UL, 0x0000000000ffff81UL,
  0x3c007c0000802141UL, 0x3c0200e300000040UL, 0x0000115504080303UL, 0x007803c010a34400UL,
  0x0077000003bf0000UL, 0x3c0a7c00000f0c10UL, 0x3c0c004300000000UL, 0x0000000000ffff81UL,
  0x6400004200802281UL, 0x156000fc08000000UL, 0x0009000064020123UL, 0x0000000300000000UL,
  0x000383ff0000e0ffUL, 0x0000000000000000UL, 0x0000000107c403fdUL, 0x00000000640c0043UL,
  0x640b7c0020422042UL, 0x6500040300000001UL, 0x000033b500581b68UL, 0x00005344007239a4UL,
  0x0000eaf400555a4aUL, 0x0000f43000721569UL, 0x000082af008c4168UL, 0x0000686f008f1a41UL,
  0x0000345300643498UL, 0x0000b57f00511b5cUL, 0x00002e2300681234UL, 0x0000b14400aa1e86UL,
  0x0000eaeb00b81228UL, 0x00009c4d00c10ce7UL, 0x00004d8b0054295bUL, 0x0000cea3005e3566UL,
  0x0000cd2d008916a4UL, 0x0000c2ff005b1633UL, 0x58007c0000802221UL, 0x580200430174104cUL,
  0x0210324f00087f80UL, 0x0000000059000203UL, 0x0000000200000001UL, 0x0000000400000003UL,
  0x0000000600000005UL, 0x0000000800000007UL, 0x00000011000000c9UL, 0x0000001300000012UL,
  0x0000001600000054UL, 0x5a0007c3000000d7UL, 0x0000e04000000000UL, 0x0000e04000000000UL,
  0x0000e04000000000UL, 0x0000e04000000000UL, 0x0000e04000000000UL, 0x0000e04000000000UL,
  0x0000e04000000000UL, 0x0000e04000000000UL, 0x0000e04000000000UL, 0x0000e04000000000UL,
  0x0000e4c0f0000000UL, 0x0000db0010000000UL, 0x0000d5c020000000UL, 0x0000d60020000000UL,
  0x0000d64020000000UL, 0x0000d68020000000UL, 0x0000d6c020000000UL, 0x0000d2ca2933ffbcUL,
  0x0000d3b326660000UL, 0x0000d0e82b55ffbcUL, 0x0000b6b652effddeUL, 0x0000f69ff59a0222UL,
  0x0000d3cd26660000UL, 0x0000df0020000000UL, 0x0000df4020000000UL, 0x0000df8020000000UL,
  0x0000c20030000000UL, 0x0000c1c030000000UL, 0x0000c18030000000UL, 0x0000e04020000000UL,
  0x0000000010000000UL, 0x30007c00008020e1UL, 0x300200430008c100UL, 0x0001c20034100000UL,
  0x00000000300500c3UL, 0x0000000100070800UL, 0x0000002400000000UL, 0x300c004200100000UL,
  0x0000000700000006UL, 0x00000004300d0043UL, 0x301100433417083fUL, 0x0000000000000000UL,
  0x20007c0000802061UL, 0x200200430008c184UL, 0x0000120070b53480UL, 0x00000000200500c3UL,
  0x0000000000000000UL, 0x0000002400000000UL, 0x200c004200100000UL, 0x0000000700000006UL,
  0x00000001200d0043UL, 0x2011004370b546bfUL, 0x0000000800000000UL, 0x38007c0000802121UL,
  0x380200430008c100UL, 0x0001c2003411c200UL, 0x00000000380500c3UL, 0x0000000100070800UL,
  0x0000002400000000UL, 0x380c004200100000UL, 0x0000000700000006UL, 0x00000004380d0043UL,
  0x381100433417083fUL, 0x0000000000000000UL, 0x18007c0000802021UL, 0x180200430008c100UL,
  0x0001c20034138400UL, 0x00000000180500c3UL, 0x0000000100070800UL, 0x0000002400000000UL,
  0x180c004200100000UL, 0x0000000700000006UL, 0x00000004180d0043UL, 0x181100433417083fUL,
  0x0000000000000000UL, 0x24007c0000802081UL, 0x240200430008c100UL, 0x0001c20034154600UL,
  0x00000000240500c3UL, 0x0000000100070800UL, 0x0000002400000000UL, 0x240c004200100000UL,
  0x0000000700000006UL, 0x00000004240d0043UL, 0x241100433417083fUL, 0x0000000000000000UL,
  0x34007c0000802101UL, 0x3402012300080008UL, 0x00780078342e0000UL, 0x0000078000100004UL,
  0x0000000400000004UL, 0x0000002400038400UL, 0x340c004200100000UL, 0x0000000700000006UL,
  0x00000004340d0043UL, 0x341100433431843fUL, 0x0000000000000000UL, 0x00000023100a7c00UL,
  0x00000009100c00a3UL, 0x0000001b00000007UL, 0x000000070000000fUL, 0x00000013101200c3UL,
  0x0000001700000007UL, 0x0000000700000003UL, 0x101d7c0000000019UL, 0x10227c0000000029UL,
  0x10007c0000000015UL, 0x3400200100000001UL, 0x000000413c007c00UL, 0x0000005540007c00UL,
  0x0000004144007c00UL, 0x0000004148007c00UL, 0x6400200158002001UL, 0x2000200118002001UL,
  0x3000200124002001UL, 0x34007fe438002001UL, 0x0000000000000064UL, 0x0000000210007c00UL,
  0x0000006410000424UL, 0x10007c0000000000UL, 0x10007bc440000000UL, 0x0000000000000064UL,
  0x00000000100a7c00UL, 0x00000000100c00a3UL, 0x0000000000000000UL, 0x0000000000000000UL,
  0x00000000101200c3UL, 0x0000000000000000UL, 0x0000000000000000UL, 0x101d7c0000000000UL,
  0x10227c0000000000UL, 0x34007c0000000000UL, 0x3400042400000002UL, 0x0000000000000064UL,
  0x4000000034007c00UL, 0x0000006434007bc4UL, 0x0080010100000000UL, 0x000000023c007c00UL,
  0x000000643c000424UL, 0x3c007c0000000000UL, 0x3c007bc440000000UL, 0x0000000000000064UL,
  0x40007c0000800141UL, 0x4000042400000002UL, 0x0000000000000064UL, 0x4000000040007c00UL,
  0x0000006440007bc4UL, 0x0080016100000000UL, 0x0000000244007c00UL, 0x0000006444000424UL,
  0x44007c0000000000UL, 0x44007bc440000000UL, 0x0000000000000064UL, 0x48007c0000800181UL,
  0x4800042400000002UL, 0x0000000000000064UL, 0x4000000048007c00UL, 0x0000006448007bc4UL,
  0x008001a100000000UL, 0x0088108258007c00UL, 0x0000006458000424UL, 0x58007c0000000000UL,
  0x58007bc440881080UL, 0x0000000000000064UL, 0x64007c0000800221UL, 0x6400042408000002UL,
  0x0000000000000064UL, 0x4800000064007c00UL, 0x0000006464007bc4UL, 0x0080028100000000UL,
  0x0000000218007c00UL, 0x0000006418000424UL, 0x18007c0000000000UL, 0x18007bc440000000UL,
  0x0000000000000064UL, 0x20007c0000800021UL, 0x2000042400000002UL, 0x0000000000000064UL,
  0x4000000020007c00UL, 0x0000006420007bc4UL, 0x0080006100000000UL, 0x0000000224007c00UL,
  0x0000006424000424UL, 0x24007c0000000000UL, 0x24007bc440000000UL, 0x0000000000000064UL,
  0x30007c0000800081UL, 0x3000042400000002UL, 0x0000000000000064UL, 0x4000000030007c00UL,
  0x0000006430007bc4UL, 0x008000e100000000UL, 0x0000000238007c00UL, 0x0000006438000424UL,
  0x38007c0000000000UL, 0x38007bc440000000UL, 0x0000000000000064UL, 0x000000bd00800121UL,
  0x3c007c0000802141UL, 0x3c0200e300000054UL, 0x0000115504080303UL, 0x007803c010b74004UL,
  0x0077000003bf0000UL, 0x3c0a7c0000030008UL, 0x3c0c004300000000UL, 0x0000000000ffff81UL,
  0x40007c0000802161UL, 0x400200e300000040UL, 0x0000115504080303UL, 0x007803c010a34400UL,
  0x0077000003bf0000UL, 0x400a7c0000070408UL, 0x400c004300000000UL, 0x0000000000ffff81UL,
  0x68000042008022a1UL, 0x156000fc08000000UL, 0x0008800068020123UL, 0x0000000300000000UL,
  0x000383ff0000e0ffUL, 0x0000000000000000UL, 0x0000000107c403fdUL, 0x00000000680c0043UL,
  0x680b7c0020422042UL, 0x6900040300000001UL, 0x0000c19b00231975UL, 0x0000e7c4002711b2UL,
  0x00004a4a002e5442UL, 0x00002da500261242UL, 0x00002cfa00440cd4UL, 0x0000e05700331091UL,
  0x0000d80c002212edUL, 0x00006d2d0037076dUL, 0x00006220004208c4UL, 0x0000d57d002604dcUL,
  0x0000062c001f06aaUL, 0x0000da3b00150a96UL, 0x000088fa0027108cUL, 0x0000418700241282UL,
  0x000061c40029096cUL, 0x0000cfd800241a06UL, 0x54007c0000802201UL, 0x540200430174104cUL,
  0x0210320f00087f80UL, 0x0000000055000203UL, 0x0000000200000001UL, 0x0000000400000003UL,
  0x0000000600000005UL, 0x0000000800000007UL, 0x000000d1000000c9UL, 0x0000005a00000019UL,
  0x00000024000000dcUL, 0x56000b43000000e5UL, 0x0000c08000000000UL, 0x0000c08000000000UL,
  0x0000c08000000000UL, 0x0000c08000000000UL, 0x0000c08000000000UL, 0x0000c08000000000UL,
  0x0000c08000000000UL, 0x0000c08000000000UL, 0x0000c04f0380fe00UL, 0x0000c00000000000UL,
  0x0000b70010000000UL, 0x0000ad8020000000UL, 0x0000a28030000000UL, 0x0000a20030000000UL,
  0x0000a18030000000UL, 0x0000a10030000000UL, 0x0000af8020000000UL, 0x0000b00020000000UL,
  0x00009f0030000000UL, 0x0000b08020000000UL, 0x0000b10020000000UL, 0x0000b18020000000UL,
  0x00009c8030000000UL, 0x0000b20020000000UL, 0x0000b28020000000UL, 0x0000a42f2c65ff89UL,
  0x000082c24a66fddeUL, 0x0000ab0025550000UL, 0x0000b88020000000UL, 0x0000b90020000000UL,
  0x00008f0030000000UL, 0x0000b98020000000UL, 0x0000ba0020000000UL, 0x00008d0030000000UL,
  0x0000ba8020000000UL, 0x0000bb0020000000UL, 0x0000ca9211cf00c3UL, 0x0000860030000000UL,
  0x0000be8020000000UL, 0x0000bf0020000000UL, 0x0000840030000000UL, 0x0000bf8020000000UL,
  0x0000c00020000000UL, 0x0000c08020000000UL, 0x0000c08020000000UL, 0x5c00004200802241UL,
  0x0500016008000000UL, 0x000798005c027c00UL, 0x7dd24c085c070043UL, 0x5c0c004300007360UL,
  0x1041104100000000UL, 0x14007c0000802001UL, 0x140201230008c000UL, 0x00780078342e0000UL,
  0x0000078000100008UL, 0x0000000100000010UL, 0x0000002400000000UL, 0x140c004200100000UL,
  0x0000000700000006UL, 0x00000004140d0043UL, 0x141100433431843fUL, 0x0000000000000000UL,
  0x38007c0000802121UL, 0x380200430008c184UL, 0x0000090070b56680UL, 0x00000000380500c3UL,
  0x0000000000000000UL, 0x0000002400000000UL, 0x380c004200100000UL, 0x0000000700000006UL,
  0x00000001380d0043UL, 0x3811004370b56fbfUL, 0x0000000800000000UL, 0x34007c0000802101UL,
  0x340201230008c000UL, 0x00780078342e0008UL, 0x0000078000100008UL, 0x0000000100000010UL,
  0x0000002400000000UL, 0x340c004200100000UL, 0x0000000700000006UL, 0x00000004340d0043UL,
  0x341100433431843fUL, 0x0000000000000000UL, 0x30007c00008020e1UL, 0x3002012300080000UL,
  0x00780078342e0000UL, 0x0000078000100004UL, 0x0000000400000004UL, 0x0000002400038400UL,
  0x300c004200100000UL, 0x0000000700000006UL, 0x00000004300d0043UL, 0x301100433431843fUL,
  0x0000000000000000UL, 0x1c007c0000802041UL, 0x1c02012300080008UL, 0x0078007834270000UL,
  0x0000078000100004UL, 0x0000000400000004UL, 0x0000002400038400UL, 0x1c0c004200100000UL,
  0x0000000700000006UL, 0x000000041c0d0043UL, 0x1c110043342a843fUL, 0x0000000000000000UL,
  0x0000002510047c00UL, 0x00000001100c0043UL, 0x100f006300000013UL, 0x0000001300000011UL,
  0x101c7c0000000015UL, 0x101e00430000002bUL, 0x0000000f00000021UL, 0x0000001710247c00UL,
  0x0000000110007c00UL, 0x3c007c001c002001UL, 0x40007c0000000055UL, 0x5400200100000041UL,
  0x680020015c002001UL, 0x3000200114002001UL, 0x3800200134002001UL, 0x000000641c007fe4UL,
  0x10007c0000000000UL, 0x1000042400000002UL, 0x0000000000000064UL, 0x4000000010007c00UL,
  0x0000006410007bc4UL, 0x10047c0000000000UL, 0x100c004300000000UL, 0x0000000000000000UL,
  0x00000000100f0063UL, 0x0000000000000000UL, 0x00000000101c7c00UL, 0x00000000101e0043UL,
  0x10247c0000000000UL, 0x1c007c0000000000UL, 0x1c00042400000002UL, 0x0000000000000064UL,
  0x400000001c007c00UL, 0x000000641c007bc4UL, 0x0080004100000000UL, 0x000000023c007c00UL,
  0x000000643c000424UL, 0x3c007c0000000000UL, 0x3c007bc440000000UL, 0x0000000000000064UL,
  0x40007c0000800141UL, 0x4000042400000002UL, 0x0000000000000064UL, 0x4000000040007c00UL,
  0x0000006440007bc4UL, 0x0080016100000000UL, 0x0088108254007c00UL, 0x0000006454000424UL,
  0x54007c0000000000UL, 0x54007bc440881080UL, 0x0000000000000064UL, 0x5c007c0000800201UL,
  0x5c00042408000002UL, 0x0000000000000064UL, 0x480000005c007c00UL, 0x000000645c007bc4UL,
  0x0080024100000000UL, 0x0800000268007c00UL, 0x0000006468000424UL, 0x68007c0000000000UL,
  0x68007bc448000000UL, 0x0000000000000064UL, 0x14007c00008002a1UL, 0x1400042400000002UL,
  0x0000000000000064UL, 0x4000000014007c00UL, 0x0000006414007bc4UL, 0x0080000100000000UL,
  0x0000000230007c00UL, 0x0000006430000424UL, 0x30007c0000000000UL, 0x30007bc440000000UL,
  0x0000000000000064UL, 0x34007c00008000e1UL, 0x3400042400000002UL, 0x0000000000000064UL,
  0x4000000034007c00UL, 0x0000006434007bc4UL, 0x0080010100000000UL, 0x0000000238007c00UL,
  0x0000006438000424UL, 0x38007c0000000000UL, 0x38007bc440000000UL, 0x0000000000000064UL,
  0x000000dd00800121UL, 0x44007c0000802181UL, 0x440200e300000054UL, 0x0000224404080303UL,
  0x007803c010b74004UL, 0x0077000003bf0000UL, 0x440a7c0000030008UL, 0x440c004300000000UL,
  0x0000000000ffff81UL, 0x48007c00008021a1UL, 0x480200e300000040UL, 0x0000224404080303UL,
  0x007803c010a34400UL, 0x0077000003bf0000UL, 0x480a7c0000070408UL, 0x480c004300000000UL,
  0x0000000000ffff81UL, 0x6000004200802261UL, 0x156000fc08000000UL, 0x0009000060020123UL,
  0x0000000300000000UL, 0x000383ff0000383fUL, 0x0000000000000000UL, 0x00000001070403fdUL,
  0x00000000600c0043UL, 0x600b7c0020422042UL, 0x6100100300000001UL, 0x000045f6007914e2UL,
  0x00005f0d00501298UL, 0x00009dddfff30bb7UL, 0x0000499000782647UL, 0x000067ce00780d0fUL,
  0x000031b800da0937UL, 0x00004ddf009313d2UL, 0x00000baa005f1822UL, 0x00009b0b005a1d62UL,
  0x0000efa800580efaUL, 0x00003ff9005e0fa7UL, 0x000074ec00a72f93UL, 0x00003bcb005d23dcUL,
  0x0000651100852c97UL, 0x0000021c009910fcUL, 0x00003f7500560ecaUL, 0x0000789800751cecUL,
  0x00009356005b18b9UL, 0x00000867ff121c4eUL, 0x000099ca00641e02UL, 0x0000bd7500601bd0UL,
  0x00002a83007a2211UL, 0x000015ed00702142UL, 0x0000b74000562072UL, 0x000067b5006c0f31UL,
  0x0000f7e200845865UL, 0x0000560200661d7eUL, 0x00005450007e17a5UL, 0x00007d17006117e9UL,
  0x00006b11008520e2UL, 0x0000d113005b0cf9UL, 0x0000de4800740e94UL, 0x00009c3700690d37UL,
  0x00005a1d00733671UL, 0x0000076200930abeUL, 0x00004b6a00811050UL, 0x000049fe007512a4UL,
  0x0000ca2a006d1c8aUL, 0x0000d58a005e1cc4UL, 0x0000905c009112d1UL, 0x0000f52100840e86UL,
  0x00009d4900650cc8UL, 0x0000905b00621398UL, 0x00002c8000890f52UL, 0x0000527400681afdUL,
  0x0000b64000531c63UL, 0x0000175400850c60UL, 0x00008539008d169bUL, 0x0000c28a006714a7UL,
  0x0000c21300a10b85UL, 0x00009ecf006b1b83UL, 0x0000a4c700541284UL, 0x0000ee40008225c3UL,
  0x0000284300961796UL, 0x0000e93e00d50abdUL, 0x000075730083172aUL, 0x00008e8d008331ffUL,
  0x00001274009c0d96UL, 0x00007a6200721290UL, 0x000049f100501722UL, 0x0000bc5f005619baUL,
  0x00003b15003412c0UL, 0x0000ba6b007b252dUL, 0x0000b20c00801a88UL, 0x58007c0000802221UL,
  0x580200430174104cUL, 0x0210220f00087f80UL, 0x0000000059000203UL, 0x0000000200000001UL,
  0x0000000400000003UL, 0x0000000600000005UL, 0x0000000800000007UL, 0x000000d1000000c9UL,
  0x0000001a00000019UL, 0x00000063000000dbUL, 0x5a000b43000000e5UL, 0x0000c10000000000UL,
  0x0000c10000000000UL, 0x0000c10000000000UL, 0x0000c10000000000UL, 0x0000c10000000000UL,
  0x0000c10000000000UL, 0x0000c10000000000UL, 0x0000c10000000000UL, 0x0000c0cf0700fe00UL,
  0x0000c08000000000UL, 0x0000c980e0000000UL, 0x0000c00000000000UL, 0x0000b50020000000UL,
  0x0000b50020000000UL, 0x00009b8060000000UL, 0x00009b0060000000UL, 0x00009a8060000000UL,
  0x0000aa8040000000UL, 0x00009a0060000000UL, 0x0000998060000000UL, 0x0000990060000000UL,
  0x0000988060000000UL, 0x0000980060000000UL, 0x0000ad8040000000UL, 0x0000ae0040000000UL,
  0x0000a6084945002bUL, 0x00009835630eff6bUL, 0x00008d8060000000UL, 0x00008d0060000000UL,
  0x0000b68040000000UL, 0x0000b70040000000UL, 0x0000b78040000000UL, 0x0000b80040000000UL,
  0x0000b88040000000UL, 0x0000b90040000000UL, 0x0000a12050000000UL, 0x00000693da220222UL,
  0x0000bd0040000000UL, 0x0000bd8040000000UL, 0x0000838060000000UL, 0x0000830060000000UL,
  0x0000828060000000UL, 0x0000820060000000UL, 0x0000818060000000UL, 0x0000c00040000000UL,
  0x34007c0000802101UL, 0x340201230008c000UL, 0x0078007834270000UL, 0x0000078000100008UL,
  0x0000000100000010UL, 0x0000002400000000UL, 0x340c004200100000UL, 0x0000000700000006UL,
  0x00000010340d0043UL, 0x34110043342a843fUL, 0x0000000000000000UL, 0x14007c0000802001UL,
  0x140200430008c184UL, 0x0000240070b39980UL, 0x00000000140500c3UL, 0x0000000000000000UL,
  0x0000002400000000UL, 0x140c004200100000UL, 0x0000000700000006UL, 0x00000001140d0043UL,
  0x1411004370b3bdbfUL, 0x0000000800000000UL, 0x20007c0000802061UL, 0x200201230008c000UL,
  0x0078007834270008UL, 0x0000078000100008UL, 0x0000000100000010UL, 0x0000002400000000UL,
  0x200c004200100000UL, 0x0000000700000006UL, 0x00000010200d0043UL, 0x20110043342a843fUL,
  0x0000000000000000UL, 0x2c007c00008020c1UL, 0x2c02012300080008UL, 0x003c003c342e0000UL,
  0x00000f0000400004UL, 0x0000001000000004UL, 0x0000002400038400UL, 0x2c0c004200100000UL,
  0x0000000700000006UL, 0x000000102c0d0043UL, 0x2c1100433431843fUL, 0x0000000000000000UL,
  0x0000002310087c00UL, 0x0000001110120043UL, 0x1015006300000001UL, 0x0000000100000007UL,
  0x101d7c0000000019UL, 0x10207c0000000027UL, 0x10007c000000001bUL, 0x2c00200100000001UL,
  0x0000005544007c00UL, 0x0000004148007c00UL, 0x6000200158002001UL, 0x2000200114002001UL,
  0x2c007fe434002001UL, 0x0000000000000064UL, 0x0000000210007c00UL, 0x0000006410000424UL,
  0x10007c0000000000UL, 0x10007bc440000000UL, 0x0000000000000064UL, 0x0000000010087c00UL,
  0x0000000010120043UL, 0x1015006300000000UL, 0x0000000000000000UL, 0x101d7c0000000000UL,
  0x10207c0000000000UL, 0x2c007c0000000000UL, 0x2c00042400000002UL, 0x0000000000000064UL,
  0x400000002c007c00UL, 0x000000642c007bc4UL, 0x008000c100000000UL, 0x0000000244007c00UL,
  0x0000006444000424UL, 0x44007c0000000000UL, 0x44007bc440000000UL, 0x0000000000000064UL,
  0x48007c0000800181UL, 0x4800042400000002UL, 0x0000000000000064UL, 0x4000000048007c00UL,
  0x0000006448007bc4UL, 0x008001a100000000UL, 0x0088108258007c00UL, 0x0000006458000424UL,
  0x58007c0000000000UL, 0x58007bc440881080UL, 0x0000000000000064UL, 0x60007c0000800221UL,
  0x6000042408000002UL, 0x0000000000000064UL, 0x4800000060007c00UL, 0x0000006460007bc4UL,
  0x0080026100000000UL, 0x0000000214007c00UL, 0x0000006414000424UL, 0x14007c0000000000UL,
  0x14007bc440000000UL, 0x0000000000000064UL, 0x20007c0000800001UL, 0x2000042400000002UL,
  0x0000000000000064UL, 0x4000000020007c00UL, 0x0000006420007bc4UL, 0x0080006100000000UL,
  0x0000000234007c00UL, 0x0000006434000424UL, 0x34007c0000000000UL, 0x34007bc440000000UL,
  0x0000000000000064UL, 0x000000fd00800101UL, 0x3c007c0000802141UL, 0x3c0200e300000054UL,
  0x0000110010100101UL, 0x003c03c010b74003UL, 0x003b000003bf0000UL, 0x3c0a7c00000f0040UL,
  0x3c0c004300000000UL, 0x0000000000ffff82UL, 0x40007c0000802161UL, 0x400200e300000040UL,
  0x0000110010100101UL, 0x003c03c010b74000UL, 0x003b000003bf0000UL, 0x400a7c00001f1040UL,
  0x400c004300000000UL, 0x0000000000ffff82UL, 0x44007c0000802181UL, 0x440200e300000040UL,
  0x0000110010100101UL, 0x003c03c010b74000UL, 0x003b000003bf0000UL, 0x440a7c00002f2040UL,
  0x440c004300000000UL, 0x0000000000ffff82UL, 0x48007c00008021a1UL, 0x480200e300000040UL,
  0x0000110010100101UL, 0x003c03c010a34300UL, 0x003b000003bf0000UL, 0x480a7c00003f3040UL,
  0x480c004300000000UL, 0x0000000000ffff82UL, 0x6400004200802281UL, 0x156000fc08000000UL,
  0x0009800064020123UL, 0x0000000f00000000UL, 0x0001c1ff0000e0ffUL, 0x0000000000000000UL,
  0x00000001078403f1UL, 0x00000000640c0043UL, 0x640b7c0020422042UL, 0x6500080300000001UL,
  0x0000048b006b32b4UL, 0x0000cc18ff483aa2UL, 0x00005647ff8d2640UL, 0x0000d946ff6936b5UL,
  0x000067ebff04245aUL, 0x0000d901ffdd4392UL, 0x00009553fffd407dUL, 0x0000e50500173a73UL,
  0x000030ef00a444dfUL, 0x0000a8e700b84a63UL, 0x00004b9dff4e314bUL, 0x000019ff005f3567UL,
  0x000080d8ff7641ceUL, 0x00000d66ffb83040UL, 0x0000b90200002b4fUL, 0x0000770a01364496UL,
  0x00001ae7ffa53b27UL, 0x0000d28ffeb7481bUL, 0x0000335100ef47ffUL, 0x00004928008b2f02UL,
  0x00009292ff594d51UL, 0x000079a300e746d3UL, 0x00009ac7fec03c0dUL, 0x0000951400b94369UL,
  0x00007e55ff0132a7UL, 0x0000ca7f00743fc6UL, 0x0000557cff232984UL, 0x00002c670067461dUL,
  0x00005778ffa23e31UL, 0x0000313a009e34b3UL, 0x0000209300df2268UL, 0x0000ceccff7a4cedUL,
  0x14007c0000802001UL, 0x140201230008c000UL, 0x003c003c342e0000UL, 0x00000f0000400010UL,
  0x0000000100000040UL, 0x0000002400000000UL, 0x140c004200100000UL, 0x0000000700000006UL,
  0x00000002140d0043UL, 0x141100433431843fUL, 0x0000000000000000UL, 0x1c007c0000802041UL,
  0x1c0200430008c184UL, 0x0000080070b61180UL, 0x000000001c0500c3UL, 0x0000000000000000UL,
  0x0000002400000000UL, 0x1c0c004200100000UL, 0x0000000700000006UL, 0x000000011c0d0043UL,
  0x1c11004370b619bfUL, 0x0000000800000000UL, 0x18007c0000802021UL, 0x180201230008c000UL,
  0x003c003c342e0010UL, 0x00000f0000400010UL, 0x0000000100000040UL, 0x0000002400000000UL,
  0x180c004200100000UL, 0x0000000700000006UL, 0x00000002180d0043UL, 0x181100433431843fUL,
  0x0000000000000000UL, 0x28007c00008020a1UL, 0x280201230008c000UL, 0x003c003c342e0020UL,
  0x00000f0000400010UL, 0x0000000100000040UL, 0x0000002400000000UL, 0x280c004200100000UL,
  0x0000000700000006UL, 0x00000002280d0043UL, 0x281100433431843fUL, 0x0000000000000000UL,
  0x2c007c00008020c1UL, 0x2c0201230008c000UL, 0x003c003c342e0030UL, 0x00000f0000400010UL,
  0x0000000100000040UL, 0x0000002400000000UL, 0x2c0c004200100000UL, 0x0000000700000006UL,
  0x000000022c0d0043UL, 0x2c1100433431843fUL, 0x0000000000000000UL, 0x30007c00008020e1UL,
  0x3002012300080008UL, 0x003c003c34318400UL, 0x0000078000200010UL, 0x0000000200000010UL,
  0x000000240001c200UL, 0x300c004200100000UL, 0x0000000700000006UL, 0x00000002300d0043UL,
  0x301100433433463fUL, 0x0000000000000000UL, 0x0000002910097c00UL, 0x00000001100c0043UL,
  0x100f012300000005UL, 0x0000000500000003UL, 0x0000000b00000015UL, 0x0000001700000005UL,
  0x000000050000000dUL, 0x10227c0000000019UL, 0x10007c000000001bUL, 0x3000200100000001UL,
  0x000000553c007c00UL, 0x0000004140007c00UL, 0x0000004144007c00UL, 0x0000004148007c00UL,
  0x1400200164002001UL, 0x1c00200118002001UL, 0x2c00200128002001UL, 0x0000006430007fe4UL,
  0x10007c0000000000UL, 0x1000042400000002UL, 0x0000000000000064UL, 0x4000000010007c00UL,
  0x0000006410007bc4UL, 0x10097c0000000000UL, 0x100c004300000000UL, 0x0000000000000000UL,
  0x00000000100f0123UL, 0x0000000000000000UL, 0x0000000000000000UL, 0x0000000000000000UL,
  0x0000000000000000UL, 0x0000000010227c00UL, 0x0000000230007c00UL, 0x0000006430000424UL,
  0x30007c0000000000UL, 0x30007bc440000000UL, 0x0000000000000064UL, 0x3c007c00008000e1UL,
  0x3c00042400000002UL, 0x0000000000000064UL, 0x400000003c007c00UL, 0x000000643c007bc4UL,
  0x0080014100000000UL, 0x0000000240007c00UL, 0x0000006440000424UL, 0x40007c0000000000UL,
  0x40007bc440000000UL, 0x0000000000000064UL, 0x44007c0000800161UL, 0x4400042400000002UL,
  0x0000000000000064UL, 0x4000000044007c00UL, 0x0000006444007bc4UL, 0x0080018100000000UL,
  0x0000000248007c00UL, 0x0000006448000424UL, 0x48007c0000000000UL, 0x48007bc440000000UL,
  0x0000000000000064UL, 0x64007c00008001a1UL, 0x6400042408000002UL, 0x0000000000000064UL,
  0x4800000064007c00UL, 0x0000006464007bc4UL, 0x0080028100000000UL, 0x0000000214007c00UL,
  0x0000006414000424UL, 0x14007c0000000000UL, 0x14007bc440000000UL, 0x0000000000000064UL,
  0x18007c0000800001UL, 0x1800042400000002UL, 0x0000000000000064UL, 0x4000000018007c00UL,
  0x0000006418007bc4UL, 0x0080002100000000UL, 0x000000021c007c00UL, 0x000000641c000424UL,
  0x1c007c0000000000UL, 0x1c007bc440000000UL, 0x0000000000000064UL, 0x28007c0000800041UL,
  0x2800042400000002UL, 0x0000000000000064UL, 0x4000000028007c00UL, 0x0000006428007bc4UL,
  0x008000a100000000UL, 0x000000022c007c00UL, 0x000000642c000424UL, 0x2c007c0000000000UL,
  0x2c007bc440000000UL, 0x0000000000000064UL, 0x0000011d008000c1UL, 0x3c007c0000802141UL,
  0x3c0200e300000054UL, 0x0000115504080303UL, 0x003c01e010b74004UL, 0x003b000001df0000UL,
  0x3c0a7c0000030010UL, 0x3c0c004300000000UL, 0x0000000000000004UL, 0x40007c0000802161UL,
  0x400200e300000040UL, 0x0000115504080303UL, 0x003c01e010b74000UL, 0x003b000001df0000UL,
  0x400a7c0000070410UL, 0x400c004300000000UL, 0x0000000000000004UL, 0x44007c0000802181UL,
  0x440200e300000040UL, 0x0000115504080303UL, 0x003c01e010b74000UL, 0x003b000001df0000UL,
  0x440a7c00000b0810UL, 0x440c004300000000UL, 0x0000000000000004UL, 0x48007c00008021a1UL,
  0x480200e300000040UL, 0x0000115504080303UL, 0x003c01e010a34400UL, 0x003b000001df0000UL,
  0x480a7c00000f0c10UL, 0x480c004300000000UL, 0x0000000000000004UL, 0x5c00004200802241UL,
  0x156000fc08000000UL, 0x000980005c020123UL, 0x0000000300000000UL, 0x000707ff0000383fUL,
  0x0000000000000000UL, 0x00000001060403fdUL, 0x000000005c0c0043UL, 0x5c0b7c0020422042UL,
  0x5d00200300000001UL, 0x000025dd00e331c2UL, 0x0000f85001281923UL, 0x0000598e00ee1d8aUL,
  0x0000bdb90074309cUL, 0x0000a67501931082UL, 0x00003a40015a2bdeUL, 0x000000c100b01951UL,
  0x00002e3000b02934UL, 0x0000e371010a295dUL, 0x00006911011617e5UL, 0x0000d066010b4805UL,
  0x0000db0400a32086UL, 0x00001965017047d7UL, 0x0000f46000f6250cUL, 0x0000f5bc011d20dfUL,
  0x000005ef00a0181bUL, 0x00009ef301212329UL, 0x00003db0012d2bdaUL, 0x0000f615015c25c6UL,
  0x0000aaed011314e7UL, 0x00005499016414b7UL, 0x00004749013f10e0UL, 0x00005264015c2f76UL,
  0x0000539e011c21f5UL, 0x00009b9b01982836UL, 0x0000416b010122deUL, 0x000031f600e237faUL,
  0x000067cd00f212a2UL, 0x0000d13a015328cbUL, 0x0000fa9201002271UL, 0x0000927f01965270UL,
  0x0000e06b00d121c4UL, 0x0000223b01072eafUL, 0x0000fa3e01531fbfUL, 0x0000bef3005d3963UL,
  0x00006262015c154dUL, 0x0000024901423457UL, 0x0000b4b4011a3d66UL, 0x0000831201b21c56UL,
  0x0000811701263ad9UL, 0x0000816c0182290bUL, 0x00006cb801581c84UL, 0x0000bba500653fb6UL,
  0x0000d73d01b91074UL, 0x0000774f01254747UL, 0x00005054010d4692UL, 0x0000409601931e20UL,
  0x0000c79e00fb2cddUL, 0x0000ab62010f315fUL, 0x00007824015c32feUL, 0x0000cbaf00b62ddeUL,
  0x0000d49e01403112UL, 0x0000889c00f428c1UL, 0x0000353e01171d3eUL, 0x0000e0e800ff3c14UL,
  0x0000a972013536c0UL, 0x0000e09c012b2edeUL, 0x0000521701d22566UL, 0x000091f400e51fefUL,
  0x000067eb01523450UL, 0x00006a7c01122190UL, 0x0000017600f4184fUL, 0x0000bdd001521ed0UL,
  0x0000404a00f03196UL, 0x0000a1d901321b6fUL, 0x000091ff00f713faUL, 0x00003f0000e322cdUL,
  0x00004a6501e73152UL, 0x000020b700e34d6cUL, 0x00005b3901243eceUL, 0x00002ca301083d18UL,
  0x00009c7c01004121UL, 0x0000fadc01261dd8UL, 0x0000947b00d93836UL, 0x00009d90011c27e8UL,
  0x000052b700fe1bacUL, 0x000084ba00f63385UL, 0x00008fbe01761b26UL, 0x0000dc2901842721UL,
  0x0000ca8200c61cdeUL, 0x0000c7c700d52ddcUL, 0x0000ccc601374bb6UL, 0x0000559d00f22d37UL,
  0x000053fe01940a17UL, 0x0000020501e42ed9UL, 0x0000b10b00d63e23UL, 0x0000dc34016d204dUL,
  0x0000e2d300405d1bUL, 0x000017a900f32cf2UL, 0x00003bd801503631UL, 0x0000967801141c7fUL,
  0x00009a1400f0320aUL, 0x00009fb601703325UL, 0x00005c3c011d2a79UL, 0x00002da700df185aUL,
  0x00000bca00ec170bUL, 0x0000cf81018334f7UL, 0x000059d501f6240cUL, 0x0000e33000852de8UL,
  0x000038f801343288UL, 0x0000fce601122899UL, 0x00004d1301443dbcUL, 0x0000c1a400e018b9UL,
  0x00004607013b3cd7UL, 0x00003600010228d1UL, 0x0000c13a01685014UL, 0x0000cb8501002688UL,
  0x0000230e00ae3744UL, 0x00008d7501b44484UL, 0x0000d2a0010922f9UL, 0x0000901c00f818beUL,
  0x0000ae9100f521f7UL, 0x000079d001c40ec7UL, 0x0000374201481b39UL, 0x00001033009f4255UL,
  0x00009b7400f31578UL, 0x0000216701bb1e7eUL, 0x00009419012b1e8eUL, 0x0000361800c32929UL,
  0x0000d3f701222807UL, 0x0000b9c10167232eUL, 0x0000dad900fa4310UL, 0x000057e7012d1957UL,
  0x0000fa9a01122659UL, 0x0000c10b00574224UL, 0x00002c3501051a21UL, 0x000007e0010a224cUL,
  0x0000240300f214d0UL, 0x54007c0000802201UL, 0x540200430174104cUL, 0x0210424f00087f80UL,
  0x0000000055000203UL, 0x0000000200000001UL, 0x0000000400000003UL, 0x0000000600000005UL,
  0x0000000800000007UL, 0x0000004a00000009UL, 0x000000ce0000004cUL, 0x000000d700000016UL,
  0x560009c3000000dfUL, 0x0000e10000000000UL, 0x0000e10000000000UL, 0x0000e10000000000UL,
  0x0000e10000000000UL, 0x0000e10000000000UL, 0x0000e10000000000UL, 0x0000e10000000000UL,
  0x0000e10000000000UL, 0x0000e10000000000UL, 0x0000e09d0173ff17UL, 0x0000f42edc000800UL,
  0x00000ab8b6001000UL, 0x0000e852e5000800UL, 0x0000a8e42f1cfd28UL, 0x0000b04020000000UL,
  0x0000c08018000000UL, 0x0000c08018000000UL, 0x0000c08018000000UL, 0x0000c08018000000UL,
  0x0000c08018000000UL, 0x0000c08018000000UL, 0x0000c08018000000UL, 0x0000c08018000000UL,
  0x0000c08018000000UL, 0x0000c04018000000UL, 0x0000c04018000000UL, 0x0000c04018000000UL,
  0x0000c04018000000UL, 0x0000c04018000000UL, 0x0000c04018000000UL, 0x0000c04018000000UL,
  0x0000c04018000000UL, 0x0000c04018000000UL, 0x0000c04018000000UL, 0x0000c04018000000UL,
  0x0000c04018000000UL, 0x0000c04018000000UL, 0x0000c04018000000UL, 0x0000c04018000000UL,
  0x30007c00008020e1UL, 0x300201230008c000UL, 0x003c003c34318400UL, 0x0000078000200008UL,
  0x0000000100000020UL, 0x0000002400000000UL, 0x300c004200100000UL, 0x0000000700000006UL,
  0x00000020300d0043UL, 0x301100433433463fUL, 0x0000000000000000UL, 0x38007c0000802121UL,
  0x380200430008c184UL, 0x0000900070942f00UL, 0x00000000380500c3UL, 0x0000000000000000UL,
  0x0000002400000000UL, 0x380c004200100000UL, 0x0000000700000006UL, 0x00000001380d0043UL,
  0x381100437094bf3fUL, 0x0000000800000000UL, 0x20007c0000802061UL, 0x200201230008c000UL,
  0x003c003c34318408UL, 0x0000078000200008UL, 0x0000000100000020UL, 0x0000002400000000UL,
  0x200c004200100000UL, 0x0000000700000006UL, 0x00000020200d0043UL, 0x201100433433463fUL,
  0x0000000000000000UL, 0x14007c0000802001UL, 0x140201230008c000UL, 0x003c003c34318410UL,
  0x0000078000200008UL, 0x0000000100000020UL, 0x0000002400000000UL, 0x140c004200100000UL,
  0x0000000700000006UL, 0x00000020140d0043UL, 0x141100433433463fUL, 0x0000000000000000UL,
  0x34007c0000802101UL, 0x340201230008c000UL, 0x003c003c34318418UL, 0x0000078000200008UL,
  0x0000000100000020UL, 0x0000002400000000UL, 0x340c004200100000UL, 0x0000000700000006UL,
  0x00000020340d0043UL, 0x341100433433463fUL, 0x0000000000000000UL, 0x18007c0000802021UL,
  0x1802012300080008UL, 0x003c003c34100000UL, 0x00001e0000800004UL, 0x0000002000000004UL,
  0x0000002400070800UL, 0x180c004200100000UL, 0x0000000700000006UL, 0x00000020180d0043UL,
  0x181100433417083fUL, 0x0000000000000000UL, 0x0000002110037c00UL, 0x0000000f100c0043UL,
  0x100f012300000013UL, 0x0000001300000007UL, 0x0000000100000015UL, 0x0000001700000013UL,
  0x0000001300000011UL, 0x101c7c0000000019UL, 0x101e7c0000000025UL, 0x10007c000000001bUL,
  0x1800200100000001UL, 0x000000553c007c00UL, 0x0000004140007c00UL, 0x0000004144007c00UL,
  0x0000004148007c00UL, 0x5c00200154002001UL, 0x2000200114002001UL, 0x3400200130002001UL,
  0x18007fe438002001UL, 0x0000000000000064UL, 0x0000000210007c00UL, 0x0000006410000424UL,
  0x10007c0000000000UL, 0x10007bc440000000UL, 0x0000000000000064UL, 0x0000000010037c00UL,
  0x00000000100c0043UL, 0x100f012300000000UL, 0x0000000000000000UL, 0x0000000000000000UL,
  0x0000000000000000UL, 0x0000000000000000UL, 0x101c7c0000000000UL, 0x101e7c0000000000UL,
  0x18007c0000000000UL, 0x1800042400000002UL, 0x0000000000000064UL, 0x4000000018007c00UL,
  0x0000006418007bc4UL, 0x0080002100000000UL, 0x000000023c007c00UL, 0x000000643c000424UL,
  0x3c007c0000000000UL, 0x3c007bc440000000UL, 0x0000000000000064UL, 0x40007c0000800141UL,
  0x4000042400000002UL, 0x0000000000000064UL, 0x4000000040007c00UL, 0x0000006440007bc4UL,
  0x0080016100000000UL, 0x0000000244007c00UL, 0x0000006444000424UL, 0x44007c0000000000UL,
  0x44007bc440000000UL, 0x0000000000000064UL, 0x48007c0000800181UL, 0x4800042400000002UL,
  0x0000000000000064UL, 0x4000000048007c00UL, 0x0000006448007bc4UL, 0x008001a100000000UL,
  0x0088108254007c00UL, 0x0000006454000424UL, 0x54007c0000000000UL, 0x54007bc440881080UL,
  0x0000000000000064UL, 0x5c007c0000800201UL, 0x5c00042408000002UL, 0x0000000000000064UL,
  0x480000005c007c00UL, 0x000000645c007bc4UL, 0x0080024100000000UL, 0x0000000214007c00UL,
  0x0000006414000424UL, 0x14007c0000000000UL, 0x14007bc440000000UL, 0x0000000000000064UL,
  0x20007c0000800001UL, 0x2000042400000002UL, 0x0000000000000064UL, 0x4000000020007c00UL,
  0x0000006420007bc4UL, 0x0080006100000000UL, 0x0000000230007c00UL, 0x0000006430000424UL,
  0x30007c0000000000UL, 0x30007bc440000000UL, 0x0000000000000064UL, 0x34007c00008000e1UL,
  0x3400042400000002UL, 0x0000000000000064UL, 0x4000000034007c00UL, 0x0000006434007bc4UL,
  0x0080010100000000UL, 0x0000000238007c00UL, 0x0000006438000424UL, 0x38007c0000000000UL,
  0x38007bc440000000UL, 0x0000000000000064UL, 0x0000013d00800121UL, 0x3c007c0000802141UL,
  0x3c02012300000350UL, 0x0000110010100101UL, 0x003c03c010b74004UL, 0x003b000003bf0000UL,
  0x00010102000f0040UL, 0x3c0c004300000000UL, 0x0000000000ffff84UL, 0x40007c0000802161UL,
  0x400200e300000040UL, 0x0000110010100101UL, 0x003c03c010b74000UL, 0x003b000003bf0000UL,
  0x400a7c00001f1040UL, 0x400c004300000000UL, 0x0000000000ffff84UL, 0x44007c0000802181UL,
  0x440200e300000040UL, 0x0000110010100101UL, 0x003c03c010b74000UL, 0x003b000003bf0000UL,
  0x440a7c00002f2040UL, 0x440c004300000000UL, 0x0000000000ffff84UL, 0x48007c00008021a1UL,
  0x480200e300000040UL, 0x0000110010100101UL, 0x003c03c010a34400UL, 0x003b000003bf0000UL,
  0x480a7c00003f3040UL, 0x480c004300000000UL, 0x0000000000ffff84UL, 0x68000042008022a1UL,
  0x156000fc08000000UL, 0x0009000068020123UL, 0x0000000f00000000UL, 0x0001c1ff0000e0ffUL,
  0x0000000000000000UL, 0x00000001078403f1UL, 0x00000000680c0043UL, 0x680b7c0020422042UL,
  0x6900080300000001UL, 0x00004da800584bffUL, 0x000017850022291aUL, 0x0000643400001cbcUL,
  0x0000aa3e004c3518UL, 0x0000740500041b94UL, 0x00001192ffff1087UL, 0x00006526000a180aUL,
  0x0000a25700143614UL, 0x0000a325000f10b1UL, 0x000012b90013328dUL, 0x0000c29b00141393UL,
  0x00006e07ffd33f19UL, 0x00003bd7004737b9UL, 0x00007dde00251419UL, 0x0000db2dfffe1f2fUL,
  0x00006612ffee4d5dUL, 0x0000d230002e2ee5UL, 0x000053ca00112e78UL, 0x00003abf00544144UL,
  0x0000a367001e3033UL, 0x00006d57fff330deUL, 0x0000c6c6000c0d68UL, 0x00008680fff01438UL,
  0x00000c22fff82547UL, 0x0000e50dfff412bdUL, 0x0000b70b00295387UL, 0x0000c2a0003b1d77UL,
  0x000087b5003231a9UL, 0x000035db0004307cUL, 0x00003ae300082058UL, 0x00001f7c002c1e7bUL,
  0x0000f331003c4066UL, 0x6000004200802261UL, 0x0500016008000000UL, 0x0007880060027c00UL,
  0x8058628160070043UL, 0x600c004300007d28UL, 0x1041104100000000UL, 0x2c007c00008020c1UL,
  0x2c0201230008c000UL, 0x003c003c34100000UL, 0x00001e0000800010UL, 0x0000000200000040UL,
  0x0000002400000000UL, 0x2c0c004200100000UL, 0x0000000700000006UL, 0x000000042c0d0043UL,
  0x2c1100433417083fUL, 0x0000000000000000UL, 0x24007c0000802081UL, 0x240200430008c184UL,
  0x0000100070b54680UL, 0x00000000240500c3UL, 0x0000000000000000UL, 0x0000002400000000UL,
  0x240c004200100000UL, 0x0000000700000006UL, 0x00000001240d0043UL, 0x2411004370b556bfUL,
  0x0000000800000000UL, 0x20007c0000802061UL, 0x200200430088c100UL, 0x0000e100342e0000UL,
  0x00000000200500c3UL, 0x0000000000000000UL, 0x0000002400000000UL, 0x200c004200100000UL,
  0x0000000700000006UL, 0x00000004200d0043UL, 0x20110043342fc23fUL, 0x0000000000000000UL,
  0x28007c00008020a1UL, 0x280201230008c000UL, 0x003c003c34100010UL, 0x00001e0000800010UL,
  0x0000000200000040UL, 0x0000002400000000UL, 0x280c004200100000UL, 0x0000000700000006UL,
  0x00000004280d0043UL, 0x281100433417083fUL, 0x0000000000000000UL, 0x34007c0000802101UL,
  0x340201230008c000UL, 0x003c003c34100020UL, 0x00001e0000800010UL, 0x0000000200000040UL,
  0x0000002400000000UL, 0x340c004200100000UL, 0x0000000700000006UL, 0x00000004340d0043UL,
  0x341100433417083fUL, 0x0000000000000000UL, 0x38007c0000802121UL, 0x380201230008c000UL,
  0x003c003c34100030UL, 0x00001e0000800010UL, 0x0000000200000040UL, 0x0000002400000000UL,
  0x380c004200100000UL, 0x0000000700000006UL, 0x00000004380d0043UL, 0x381100433417083fUL,
  0x0000000000000000UL, 0x18007c0000802021UL, 0x1802012300080000UL, 0x003c003c34318400UL,
  0x0000078000200010UL, 0x0000000200000010UL, 0x000000240001c200UL, 0x180c004200100000UL,
  0x0000000700000006UL, 0x00000002180d0043UL, 0x181100433433463fUL, 0x0000000000000000UL,
  0x1c007c0000802041UL, 0x1c02004300880108UL, 0x0000e100342e0000UL, 0x000000001c0500c3UL,
  0x0000000000000000UL, 0x0000002400000000UL, 0x1c0c004200100000UL, 0x0000000700000006UL,
  0x000000041c0d0043UL, 0x1c110043342fc23fUL, 0x0000000000000000UL, 0x14007c0000802001UL,
  0x1402012300080008UL, 0x003c003c342fc200UL, 0x0000078000200010UL, 0x0000000200000010UL,
  0x000000240001c200UL, 0x140c004200100000UL, 0x0000000700000006UL, 0x00000002140d0043UL,
  0x141100433431843fUL, 0x0000000000000000UL, 0x0000002710027c00UL, 0x0000001b10047c00UL,
  0x0000000d100c0183UL, 0x0000000700000009UL, 0x000000090000000bUL, 0x0000001100000015UL,
  0x0000001700000009UL, 0x0000000900000013UL, 0x1020004300000019UL, 0x000000030000002bUL,
  0x011b011a10247c00UL, 0x0000000110007c00UL, 0x1c00200114002001UL, 0x000003513c007c00UL,
  0x0000004140007c00UL, 0x0000004144007c00UL, 0x0000004148007c00UL, 0x6800200160002001UL,
  0x2000200118002001UL, 0x2800200124002001UL, 0x340020012c002001UL, 0x14007fe438002001UL,
  0x0000000000000064UL, 0x000000641c007fe4UL, 0x10007c0000000000UL, 0x1000042400000002UL,
  0x0000000000000064UL, 0x4000000010007c00UL, 0x0000006410007bc4UL, 0x10027c0000000000UL,
  0x10047c0000000000UL, 0x100c018300000000UL, 0x0000000000000000UL, 0x0000000000000000UL,
  0x0000000000000000UL, 0x0000000000000000UL, 0x0000000000000000UL, 0x0000000000000000UL,
  0x0000000010200043UL, 0x10247c0000000000UL, 0x14007c0000000000UL, 0x1400042400000002UL,
  0x0000000000000064UL, 0x4000000014007c00UL, 0x0000006414007bc4UL, 0x0080000100000000UL,
  0x000000021c007c00UL, 0x000000641c000424UL, 0x1c007c0000000000UL, 0x1c007bc440000000UL,
  0x0000000000000064UL, 0x3c007c0000800041UL, 0x3c00042400000002UL, 0x0000000000000064UL,
  0x400000003c007c00UL, 0x000000643c007bc4UL, 0x0080014100000000UL, 0x0000000240007c00UL,
  0x0000006440000424UL, 0x40007c0000000000UL, 0x40007bc440000000UL, 0x0000000000000064UL,
  0x44007c0000800161UL, 0x4400042400000002UL, 0x0000000000000064UL, 0x4000000044007c00UL,
  0x0000006444007bc4UL, 0x0080018100000000UL, 0x0000000248007c00UL, 0x0000006448000424UL,
  0x48007c0000000000UL, 0x48007bc440000000UL, 0x0000000000000064UL, 0x60007c00008001a1UL,
  0x6000042408000002UL, 0x0000000000000064UL, 0x4800000060007c00UL, 0x0000006460007bc4UL,
  0x0080026100000000UL, 0x0800000268007c00UL, 0x0000006468000424UL, 0x68007c0000000000UL,
  0x68007bc448000000UL, 0x0000000000000064UL, 0x18007c00008002a1UL, 0x1800042400000002UL,
  0x0000000000000064UL, 0x4000000018007c00UL, 0x0000006418007bc4UL, 0x0080002100000000UL,
  0x0000000220007c00UL, 0x0000006420000424UL, 0x20007c0000000000UL, 0x20007bc440000000UL,
  0x0000000000000064UL, 0x24007c0000800061UL, 0x2400042400000002UL, 0x0000000000000064UL,
  0x4000000024007c00UL, 0x0000006424007bc4UL, 0x0080008100000000UL, 0x0000000228007c00UL,
  0x0000006428000424UL, 0x28007c0000000000UL, 0x28007bc440000000UL, 0x0000000000000064UL,
  0x2c007c00008000a1UL, 0x2c00042400000002UL, 0x0000000000000064UL, 0x400000002c007c00UL,
  0x000000642c007bc4UL, 0x008000c100000000UL, 0x0000000234007c00UL, 0x0000006434000424UL,
  0x34007c0000000000UL, 0x34007bc440000000UL, 0x0000000000000064UL, 0x38007c0000800101UL,
  0x3800042400000002UL, 0x0000000000000064UL, 0x4000000038007c00UL, 0x0000006438007bc4UL,
  0x0080012100000000UL, 0x008021410000015dUL, 0x000000543c007c00UL, 0x040803033c0200e3UL,
  0x10b7400400001155UL, 0x01df0000003c01e0UL, 0x00030010003b0000UL, 0x000000003c0a7c00UL,
  0x000000033c0c0043UL, 0x0080216100000000UL, 0x0000004040007c00UL, 0x04080303400200e3UL,
  0x10b7400000001155UL, 0x01df0000003c01e0UL, 0x00070410003b0000UL, 0x00000000400a7c00UL,
  0x00000003400c0043UL, 0x0080218100000000UL, 0x0000004044007c00UL, 0x04080303440200e3UL,
  0x10b7400000001155UL, 0x01df0000003c01e0UL, 0x000b0810003b0000UL, 0x00000000440a7c00UL,
  0x00000003440c0043UL, 0x008021a100000000UL, 0x0000004048007c00UL, 0x04080303480200e3UL,
  0x10a3440000001155UL, 0x01df0000003c01e0UL, 0x000f0c10003b0000UL, 0x00000000480a7c00UL,
  0x00000003480c0043UL, 0x0080228100000000UL, 0x0800000064000042UL, 0x64020123156000fcUL,
  0x0000000000098000UL, 0x0000383f00000003UL, 0x00000000000707ffUL, 0x060403fd00000000UL,
  0x640c004300000001UL, 0x2042204200000000UL, 0x00000001640b7c00UL, 0x0120244365002003UL,
  0x016b1b4700000b67UL, 0x01f6252d00001f7dUL, 0x012524a400008fa5UL, 0x01963b5e0000b9afUL,
  0x014e3877000067bbUL, 0x019229a700005cc0UL, 0x011b28310000c544UL, 0x018a273500000495UL,
  0x01791e3e0000c2a6UL, 0x01283c5100000d54UL, 0x00f7341500009ab6UL, 0x01123e100000d10dUL,
  0x01521dbe0000aa98UL, 0x014139df0000a703UL, 0x0182291d00009f51UL, 0x01511f4f0000ebb2UL,
  0x012e4507000027aeUL, 0x013959e6000021b5UL, 0x01fb44780000b350UL, 0x01451c9b00004027UL,
  0x00c357ac0000b5bdUL, 0x0139285e0000f65cUL, 0x00f1321d00004ec6UL, 0x016c41830000da3cUL,
  0x015223c4000015b4UL, 0x015223160000e181UL, 0x0136344b0000fc76UL, 0x017028380000cf6cUL,
  0x016520cd0000430aUL, 0x00b6271200008abdUL, 0x018d384900002b7eUL, 0x0136239f0000ab32UL,
  0x01ca0b3600002202UL, 0x015e2459000069e2UL, 0x00dc34aa000084abUL, 0x014f28220000990fUL,
  0x014027a50000066fUL, 0x014933ac00007ac7UL, 0x016d2575000078ceUL, 0x01421bed000004ebUL,
  0x01783ed40000abedUL, 0x019521220000afd0UL, 0x01421d7e0000a756UL, 0x012b276100006439UL,
  0x0153375d00009f0bUL, 0x0191221000001e35UL, 0x016f299400007272UL, 0x017c245a00002ea7UL,
  0x00b73baf00002118UL, 0x018028140000b605UL, 0x01a330b8000074a0UL, 0x01d017df0000f5fbUL,
  0x015d1e2500004743UL, 0x01261ed10000f1ffUL, 0x013441d7000070c0UL, 0x01b933d30000976cUL,
  0x014d1a6100006169UL, 0x014e33e1000006f0UL, 0x01373551000017a6UL, 0x014429a90000c9a8UL,
  0x01612d3b00000a7aUL, 0x0143214a00005de7UL, 0x011a1e4100007ec7UL, 0x0177280b0000a9fcUL,
  0x01222c860000d9a4UL, 0x01922c8d000007c1UL, 0x01611ebc000016c7UL, 0x0184247a00001421UL,
  0x01e720680000921aUL, 0x014a29de0000485dUL, 0x0133564c00009f7dUL, 0x01412a800000391aUL,
  0x01d73e300000a4d6UL, 0x01c11ed40000c413UL, 0x017b229000007c14UL, 0x017a19a30000c452UL,
  0x017112e000003ec5UL, 0x00f91fb000000919UL, 0x013d17c10000372bUL, 0x014325c10000cec9UL,
  0x01a740ab00008b54UL, 0x016b250000004f4fUL, 0x015f3da700009289UL, 0x00d9291f0000525bUL,
  0x014531310000a674UL, 0x01521f3200001d13UL, 0x01951b9000001373UL, 0x018c16380000cc4fUL,
  0x012e229f0000551aUL, 0x0165356c0000ff41UL, 0x0146226e0000485aUL, 0x018f228b0000b84fUL,
  0x01821f1000003568UL, 0x01571837000098f9UL, 0x00df299c0000e959UL, 0x011f1b8800005c7dUL,
  0x009b7a940000149eUL, 0x01a924290000b2c7UL, 0x01512f1e00008f92UL, 0x0182208400008350UL,
  0x014a229500008cc0UL, 0x01572d5700003a4eUL, 0x0161497d0000aba5UL, 0x016a21c800008b8aUL,
  0x013f2d290000c3beUL, 0x00b136c7000067f0UL, 0x017424170000d014UL, 0x017b25f30000ab72UL,
  0x0149249c00002c56UL, 0x0165201600002ac8UL, 0x015e2c270000e578UL, 0x014028de0000eaa0UL,
  0x01783e370000dd43UL, 0x017b1ee60000d7b2UL, 0x00f2655c000054f7UL, 0x018d18b500008db2UL,
  0x01c433fa0000d7b6UL, 0x012e318100002a39UL, 0x0132181f0000e090UL, 0x0110291c00002513UL,
  0x01651ec100002fd4UL, 0x015f22ab00003030UL, 0x012b309d0000597cUL, 0x012a2249000088a9UL,
  0x018f342c0000786fUL, 0x01142c8f0000ece8UL, 0x01c0262c00008984UL, 0x008022210000ae62UL,
  0x0174104c58007c00UL, 0x00087f8058020043UL, 0x590002030210428fUL, 0x0000000100000000UL,
  0x0000000300000002UL, 0x0000000500000004UL, 0x0000000700000006UL, 0x00000010000000c8UL,
  0x000000d9000000d1UL, 0x0000006300000061UL, 0x000000ed000000e5UL, 0x000000005a000d43UL,
  0x000000000000f0e0UL, 0x000000000000f0e0UL, 0x000000000000f0e0UL, 0x000000000000f0e0UL,
  0x000000000000f0e0UL, 0x000000000000f0e0UL, 0x000000000000f0e0UL, 0x000000000000f0e0UL,
  0x000000000000f0e0UL, 0x000000000000f0c0UL, 0x000000000000f0c0UL, 0x000000000000f0c0UL,
  0x000000000000f0c0UL, 0x000000000000f0c0UL, 0x000000000000f0c0UL, 0x0022ff4a0000f0c0UL,
  0x000000000000f0ddUL, 0x000000000000f040UL, 0xf80000000000f020UL, 0x000000000000f4a0UL,
  0x000000000000f000UL, 0x000000000000f000UL, 0x000000000000f000UL, 0x000000000000f000UL,
  0x080000000000f020UL, 0x080000000000ea40UL, 0x100000000000ea40UL, 0x100000000000e3e0UL,
  0x180000000000e3e0UL, 0x180000000000dce0UL, 0x180000000000dcc0UL, 0x180000000000dcc0UL,
  0x2f11fdde0000dce0UL, 0x3133fdde0000ce55UL, 0x48cdfbbc0000cbf1UL, 0x028902220000bbbfUL,
  0x180000000000ec05UL, 0x180000000000df00UL, 0x200000000000df20UL, 0x180000000000d2a0UL,
  0x180000000000df60UL, 0x180000000000df60UL, 0x200000000000df80UL, 0x180000000000d200UL,
  0x180000000000dfa0UL, 0x200000000000dfc0UL, 0x180000000000d180UL, 0x200000000000dfe0UL,
  0x180000000000d120UL, 0x180000000000e000UL, 0x200000000000e020UL, 0x180000000000d0a0UL,
  0x008020010000e040UL, 0x0008c00014007c00UL, 0x342fc20014020123UL, 0x00200008003c003cUL,
  0x0000002000000780UL, 0x0000000000000001UL, 0x0010000000000024UL, 0x00000006140c0042UL,
  0x140d004300000007UL, 0x3431843f00000020UL, 0x0000000014110043UL, 0x008020c100000000UL,
  0x0008c1842c007c00UL, 0x7094bf002c020043UL, 0x2c0500c300009000UL, 0x0000000000000000UL,
  0x0000000000000000UL, 0x0010000000000024UL, 0x000000062c0c0042UL, 0x2c0d004300000007UL,
  0x70954f3f00000001UL, 0x000000002c110043UL, 0x0080212100000008UL, 0x0008c00038007c00UL,
  0x342fc20838020123UL, 0x00200008003c003cUL, 0x0000002000000780UL, 0x0000000000000001UL,
  0x0010000000000024UL, 0x00000006380c0042UL, 0x380d004300000007UL, 0x3431843f00000020UL,
  0x0000000038110043UL, 0x008020e100000000UL, 0x0008c00030007c00UL, 0x342fc21030020123UL,
  0x00200008003c003cUL, 0x0000002000000780UL, 0x0000000000000001UL, 0x0010000000000024UL,
  0x00000006300c0042UL, 0x300d004300000007UL, 0x3431843f00000020UL, 0x0000000030110043UL,
  0x0080208100000000UL, 0x0008c00024007c00UL, 0x342fc21824020123UL, 0x00200008003c003cUL,
  0x0000002000000780UL, 0x0000000000000001UL, 0x0010000000000024UL, 0x00000006240c0042UL,
  0x240d004300000007UL, 0x3431843f00000020UL, 0x0000000024110043UL, 0x0080202100000000UL,
  0x0008000818007c00UL, 0x3410000018020123UL, 0x00800004003c003cUL, 0x0000000400001e00UL,
  0x0007080000000020UL, 0x0010000000000024UL, 0x00000006180c0042UL, 0x180d004300000007UL,
  0x3417083f00000020UL, 0x0000000018110043UL, 0x10037c0000000000UL, 0x100c004300000023UL,
  0x0000000d00000001UL, 0x00000013100f0123UL, 0x000000150000000dUL, 0x0000000d0000000fUL,
  0x0000000900000017UL, 0x000000190000000dUL, 0x00000029101d7c00UL, 0x0000001b10227c00UL,
  0x0000000110007c00UL, 0x3c007c0018002001UL, 0x40007c0000000055UL, 0x44007c0000000041UL,
  0x48007c0000000041UL, 0x5800200100000041UL, 0x1400200164002001UL, 0x2c00200124002001UL,
  0x3800200130002001UL, 0x0000006418007fe4UL, 0x10007c0000000000UL, 0x1000042400000002UL,
  0x0000000000000064UL, 0x4000000010007c00UL, 0x0000006410007bc4UL, 0x10037c0000000000UL,
  0x100c004300000000UL, 0x0000000000000000UL, 0x00000000100f0123UL, 0x0000000000000000UL,
  0x0000000000000000UL, 0x0000000000000000UL, 0x0000000000000000UL, 0x00000000101d7c00UL,
  0x0000000010227c00UL, 0x0000000218007c00UL, 0x0000006418000424UL, 0x18007c0000000000UL,
  0x18007bc440000000UL, 0x0000000000000064UL, 0x3c007c0000800021UL, 0x3c00042400000002UL,
  0x0000000000000064UL, 0x400000003c007c00UL, 0x000000643c007bc4UL, 0x0080014100000000UL,
  0x0000000240007c00UL, 0x0000006440000424UL, 0x40007c0000000000UL, 0x40007bc440000000UL,
  0x0000000000000064UL, 0x44007c0000800161UL, 0x4400042400000002UL, 0x0000000000000064UL,
  0x4000000044007c00UL, 0x0000006444007bc4UL, 0x0080018100000000UL, 0x0000000248007c00UL,
  0x0000006448000424UL, 0x48007c0000000000UL, 0x48007bc440000000UL, 0x0000000000000064UL,
  0x58007c00008001a1UL, 0x5800042400881082UL, 0x0000000000000064UL, 0x4088108058007c00UL,
  0x0000006458007bc4UL, 0x0080022100000000UL, 0x0800000264007c00UL, 0x0000006464000424UL,
  0x64007c0000000000UL, 0x64007bc448000000UL, 0x0000000000000064UL, 0x14007c0000800281UL,
  0x1400042400000002UL, 0x0000000000000064UL, 0x4000000014007c00UL, 0x0000006414007bc4UL,
  0x0080000100000000UL, 0x0000000224007c00UL, 0x0000006424000424UL, 0x24007c0000000000UL,
  0x24007bc440000000UL, 0x0000000000000064UL, 0x2c007c0000800081UL, 0x2c00042400000002UL,
  0x0000000000000064UL, 0x400000002c007c00UL, 0x000000642c007bc4UL, 0x008000c100000000UL,
  0x0000000230007c00UL, 0x0000006430000424UL, 0x30007c0000000000UL, 0x30007bc440000000UL,
  0x0000000000000064UL, 0x38007c00008000e1UL, 0x3800042400000002UL, 0x0000000000000064UL,
  0x4000000038007c00UL, 0x0000006438007bc4UL, 0x0080012100000000UL, 0x008021410000017dUL,
  0x000003503c007c00UL, 0x101001013c020123UL, 0x10b7400400001100UL, 0x03bf0000003c03c0UL,
  0x000f0040003b0000UL, 0x0000000000010102UL, 0x00ffff873c0c0043UL, 0x0080216100000000UL,
  0x0000004040007c00UL, 0x10100101400200e3UL, 0x10b7400000001100UL, 0x03bf0000003c03c0UL,
  0x001f1040003b0000UL, 0x00000000400a7c00UL, 0x00ffff87400c0043UL, 0x0080218100000000UL,
  0x0000004044007c00UL, 0x10100101440200e3UL, 0x10b7400000001100UL, 0x03bf0000003c03c0UL,
  0x002f2040003b0000UL, 0x00000000440a7c00UL, 0x00ffff87440c0043UL, 0x008021a100000000UL,
  0x0000004048007c00UL, 0x10100101480200e3UL, 0x10a3440000001100UL, 0x03bf0000003c03c0UL,
  0x003f3040003b0000UL, 0x00000000480a7c00UL, 0x00ffff87480c0043UL, 0x0080224100000000UL,
  0x080000005c000042UL, 0x5c020123156000fcUL, 0x0000000000090000UL, 0x0000e0ff0000000fUL,
  0x000000000001c1ffUL, 0x078403f100000000UL, 0x5c0c004300000001UL, 0x2042204200000000UL,
  0x000000015c0b7c00UL, 0x000041095d000803UL, 0xfffb22250000f398UL, 0x00061bec000025bfUL,
  0xffe22ddc0000aa51UL, 0xfff912aa0000bf21UL, 0xffdc1afc000053e3UL, 0x0009170e000024baUL,
  0x0016360300000100UL, 0x000a100400009b1dUL, 0xffeb278e0000766eUL, 0x001d0e0f000069baUL,
  0xfff93b7400002595UL, 0xfff842e20000b568UL, 0x0039108f00007062UL, 0xffce2118000091c0UL,
  0x00105560000064c6UL, 0x00242bc80000c191UL, 0x001a33980000b82fUL, 0xffde2c820000280dUL,
  0xfffe22030000dc23UL, 0x00122edd0000761dUL, 0xffed0e500000f9fbUL, 0xffd713380000a9dcUL,
  0xffe91f8600001657UL, 0xffe513b3000037b3UL, 0x000650b90000ac2dUL, 0x00471b490000b333UL,
  0xffdd3f210000adbeUL, 0xffd7287b000097f9UL, 0x001b21e900005484UL, 0x00211de40000108cUL,
  0xfff83a8f0000bcd9UL, 0x0080226100000892UL, 0x0800000060000042UL, 0x60027c0005000160UL,
  0x6007004300078800UL, 0x0000609f9fb05f64UL, 0x00000000600c0043UL, 0x0080204110411041UL,
  0x0008c0001c007c00UL, 0x341000001c020123UL, 0x00800010003c003cUL, 0x0000004000001e00UL,
  0x0000000000000002UL, 0x0010000000000024UL, 0x000000061c0c0042UL, 0x1c0d004300000007UL,
  0x3417083f00000004UL, 0x000000001c110043UL, 0x0080202100000000UL, 0x0008c18418007c00UL,
  0x70b5568018020043UL, 0x180500c300001000UL, 0x0000000000000000UL, 0x0000000000000000UL,
  0x0010000000000024UL, 0x00000006180c0042UL, 0x180d004300000007UL, 0x70b566bf00000001UL,
  0x0000000018110043UL, 0x0080200100000008UL, 0x0088c10014007c00UL, 0x342e000014020043UL,
  0x140500c30000e100UL, 0x0000000000000000UL, 0x0000000000000000UL, 0x0010000000000024UL,
  0x00000006140c0042UL, 0x140d004300000007UL, 0x342fc23f00000004UL, 0x0000000014110043UL,
  0x0080212100000000UL, 0x0008c00038007c00UL, 0x3410001038020123UL, 0x00800010003c003cUL,
  0x0000004000001e00UL, 0x0000000000000002UL, 0x0010000000000024UL, 0x00000006380c0042UL,
  0x380d004300000007UL, 0x3417083f00000004UL, 0x0000000038110043UL, 0x0080210100000000UL,
  0x0008c00034007c00UL, 0x3410002034020123UL, 0x00800010003c003cUL, 0x0000004000001e00UL,
  0x0000000000000002UL, 0x0010000000000024UL, 0x00000006340c0042UL, 0x340d004300000007UL,
  0x3417083f00000004UL, 0x0000000034110043UL, 0x008020e100000000UL, 0x0008c00030007c00UL,
  0x3410003030020123UL, 0x00800010003c003cUL, 0x0000004000001e00UL, 0x0000000000000002UL,
  0x0010000000000024UL, 0x00000006300c0042UL, 0x300d004300000007UL, 0x3417083f00000004UL,
  0x0000000030110043UL, 0x008020c100000000UL, 0x000800002c007c00UL, 0x342fc2002c020123UL,
  0x00200010003c003cUL, 0x0000001000000780UL, 0x0001c20000000002UL, 0x0010000000000024UL,
  0x000000062c0c0042UL, 0x2c0d004300000007UL, 0x3431843f00000002UL, 0x000000002c110043UL,
  0x008020a100000000UL, 0x0088010828007c00UL, 0x342e000028020043UL, 0x280500c30000e100UL,
  0x0000000000000000UL, 0x0000000000000000UL, 0x0010000000000024UL, 0x00000006280c0042UL,
  0x280d004300000007UL, 0x342fc23f00000004UL, 0x0000000028110043UL, 0x0080206100000000UL,
  0x0008000820007c00UL, 0x3431840020020123UL, 0x00200010003c003cUL, 0x0000001000000780UL,
  0x0001c20000000002UL, 0x0010000000000024UL, 0x00000006200c0042UL, 0x200d004300000007UL,
  0x3433463f00000002UL, 0x0000000020110043UL, 0x10057c0000000000UL, 0x10077c0000000027UL,
  0x100c01830000001bUL, 0x0000000300000005UL, 0x0000001300000001UL, 0x0000001500000003UL,
  0x0000000300000011UL, 0x0000000f00000017UL, 0x0000001900000003UL, 0x011b011a101e7c00UL,
  0x0000002510200043UL, 0x10007c000000000dUL, 0x2000200100000001UL, 0x3c007c0028002001UL,
  0x40007c0000000351UL, 0x44007c0000000041UL, 0x48007c0000000041UL, 0x5c00200100000041UL,
  0x1400200160002001UL, 0x1c00200118002001UL, 0x300020012c002001UL, 0x3800200134002001UL,
  0x0000006420007fe4UL, 0x28007fe400000000UL, 0x0000000000000064UL, 0x0000000210007c00UL,
  0x0000006410000424UL, 0x10007c0000000000UL, 0x10007bc440000000UL, 0x0000000000000064UL,
  0x0000000010057c00UL, 0x0000000010077c00UL, 0x00000000100c0183UL, 0x0000000000000000UL,
  0x0000000000000000UL, 0x0000000000000000UL, 0x0000000000000000UL, 0x0000000000000000UL,
  0x101e7c0000000000UL, 0x1020004300000000UL, 0x0000000000000000UL, 0x0000000220007c00UL,
  0x0000006420000424UL, 0x20007c0000000000UL, 0x20007bc440000000UL, 0x0000000000000064UL,
  0x28007c0000800061UL, 0x2800042400000002UL, 0x0000000000000064UL, 0x4000000028007c00UL,
  0x0000006428007bc4UL, 0x008000a100000000UL, 0x000000023c007c00UL, 0x000000643c000424UL,
  0x3c007c0000000000UL, 0x3c007bc440000000UL, 0x0000000000000064UL, 0x40007c0000800141UL,
  0x4000042400000002UL, 0x0000000000000064UL, 0x4000000040007c00UL, 0x0000006440007bc4UL,
  0x0080016100000000UL, 0x0000000244007c00UL, 0x0000006444000424UL, 0x44007c0000000000UL,
  0x44007bc440000000UL, 0x0000000000000064UL, 0x48007c0000800181UL, 0x4800042400000002UL,
  0x0000000000000064UL, 0x4000000048007c00UL, 0x0000006448007bc4UL, 0x008001a100000000UL,
  0x080000025c007c00UL, 0x000000645c000424UL, 0x5c007c0000000000UL, 0x5c007bc448000000UL,
  0x0000000000000064UL, 0x60007c0000800241UL, 0x6000042408000002UL, 0x0000000000000064UL,
  0x4800000060007c00UL, 0x0000006460007bc4UL, 0x0080026100000000UL, 0x0000000214007c00UL,
  0x0000006414000424UL, 0x14007c0000000000UL, 0x14007bc440000000UL, 0x0000000000000064UL,
  0x18007c0000800001UL, 0x1800042400000002UL, 0x0000000000000064UL, 0x4000000018007c00UL,
  0x0000006418007bc4UL, 0x0080002100000000UL, 0x000000021c007c00UL, 0x000000641c000424UL,
  0x1c007c0000000000UL, 0x1c007bc440000000UL, 0x0000000000000064UL, 0x2c007c0000800041UL,
  0x2c00042400000002UL, 0x0000000000000064UL, 0x400000002c007c00UL, 0x000000642c007bc4UL,
  0x008000c100000000UL, 0x0000000230007c00UL, 0x0000006430000424UL, 0x30007c0000000000UL,
  0x30007bc440000000UL, 0x0000000000000064UL, 0x34007c00008000e1UL, 0x3400042400000002UL,
  0x0000000000000064UL, 0x4000000034007c00UL, 0x0000006434007bc4UL, 0x0080010100000000UL,
  0x0000000238007c00UL, 0x0000006438000424UL, 0x38007c0000000000UL, 0x38007bc440000000UL,
  0x0000000000000064UL, 0x0000019d00800121UL, 0x3c007c0000802141UL, 0x3c0200e300000034UL,
  0x0000224408080303UL, 0x003c01e010774005UL, 0x003b000001df0000UL, 0x3c0a7c0000070020UL,
  0x3c0d7c0000000000UL, 0x0080216100000000UL, 0x0000002040007c00UL, 0x08080303400200e3UL,
  0x1077400000002244UL, 0x01df0000003c01e0UL, 0x000f0820003b0000UL, 0x00000000400a7c00UL,
  0x00000000400d7c00UL, 0x44007c0000802181UL, 0x440200e300000020UL, 0x0000224408080303UL,
  0x003c01e010774000UL, 0x003b000001df0000UL, 0x440a7c0000171020UL, 0x440d7c0000000000UL,
  0x008021a100000000UL, 0x0000002048007c00UL, 0x08080303480200e3UL, 0x1063450000002244UL,
  0x01df0000003c01e0UL, 0x001f1820003b0000UL, 0x00000000480a7c00UL, 0x00000000480d7c00UL,
  0x68000042008022a1UL, 0x156000fc08000000UL, 0x0009000068020123UL, 0x0000000700000000UL,
  0x0001c1ff00001c1fUL, 0x0000000000000000UL, 0x00000001060403f9UL, 0x00000000680c0043UL,
  0x680b7c0020422042UL, 0x6900200300000001UL, 0x0000b3d5006c207bUL, 0x0000ff65003f29c0UL,
  0x0000eb7e00641ab9UL, 0x000011cf003f1e00UL, 0x0000592e00d81490UL, 0x0000cba900311b69UL,
  0x00003a04010c1c5aUL, 0x0000edd2009813ebUL, 0x0000210b0120110cUL, 0x00009bd0006a1bb5UL,
  0x0000c40a00702aafUL, 0x0000a24a00971528UL, 0x0000ed870089142aUL, 0x000039dc0079155dUL,
  0x0000d0b2007a24a6UL, 0x0000722100841ab2UL, 0x000003ba007f1caeUL, 0x00001e1b008125fdUL,
  0x000022f900601566UL, 0x0000ddfe00852ea3UL, 0x0000b149006314feUL, 0x000018490096232fUL,
  0x0000c37e00ab190dUL, 0x0000a070009220d2UL, 0x0000cdf9004e157bUL, 0x00000630006b2af9UL,
  0x0000daf80099197aUL, 0x00001987006a22d2UL, 0x0000006c00a01f6fUL, 0x0000772000c91340UL,
  0x0000cd5b0099205fUL, 0x0000ebbb008c2487UL, 0x00006c2e008b1b7eUL, 0x0000dd7f009e4738UL,
  0x0000d6bc005365ffUL, 0x0000106100851d21UL, 0x0000074d008830e2UL, 0x00004fd60080259cUL,
  0x0000598800a31167UL, 0x000056a4006b146fUL, 0x00000d9d006122efUL, 0x000090b0008c1be8UL,
  0x0000472d009f1abcUL, 0x00000a3e00a228beUL, 0x000020c200d0182aUL, 0x00008af600671b33UL,
  0x00003b0e00872309UL, 0x00008f7300ab1573UL, 0x000015a0006428b5UL, 0x000047f000583797UL,
  0x000020ee00941c0cUL, 0x00003fe0008327c8UL, 0x0000507c004d33a3UL, 0x000018bf005a5594UL,
  0x0000872000e12537UL, 0x00003d290046389bUL, 0x0000c64a0063100fUL, 0x0000f82500e71e17UL,
  0x0000d4b6009e20a9UL, 0x0000458700ae16c1UL, 0x000019f000432934UL, 0x000058930067267fUL,
  0x0000a64f0052461fUL, 0x00003453009f2143UL, 0x0000eac700921a78UL, 0x00009ca6006c26aeUL,
  0x00004b9e00952cd1UL, 0x00000a260057137fUL, 0x00005ed400b92475UL, 0x0000e87d008a1509UL,
  0x00006e2f00b02804UL, 0x0000b20500a51fe0UL, 0x00002afd00481745UL, 0x000072aa009715a6UL,
  0x000074980070275aUL, 0x0000feac004f4442UL, 0x00006c610060203cUL, 0x00000cec008a2004UL,
  0x0000b4df00f0308eUL, 0x0000a331009b1abcUL, 0x0000ed8b006d280bUL, 0x00001460011d126cUL,
  0x00000673005229baUL, 0x0000fdd6004f14b7UL, 0x0000dd7800702832UL, 0x00004e7c00941f12UL,
  0x00004948008e2358UL, 0x0000171700752e25UL, 0x0000e6d100a12efeUL, 0x000063ec006825bdUL,
  0x00009a69003430b9UL, 0x0000a9d1007825c2UL, 0x0000d1830120142dUL, 0x0000ff8b0092179aUL,
  0x0000f00300681cdfUL, 0x00009c5400561709UL, 0x0000e120007214faUL, 0x0000271300b01c36UL,
  0x00000dd200ac1338UL, 0x0000ad7b010219daUL, 0x0000e0500063258eUL, 0x0000899900f211ffUL,
  0x0000a1bd007212a3UL, 0x00007cd500830dedUL, 0x00007d9c008035f0UL, 0x00009a49005a2c80UL,
  0x0000a81100a514fdUL, 0x0000d923005f36dbUL, 0x0000b800007b1720UL, 0x00002dfe00432111UL,
  0x0000f92700af2412UL, 0x00006dbe004e268dUL, 0x00004adf0042162cUL, 0x000046a500791db4UL,
  0x0000861a008637afUL, 0x00000cce01100fbbUL, 0x00008369007d385eUL, 0x000062a4007d2954UL,
  0x00007217008713dfUL, 0x0000cd92007f1079UL, 0x0000b1e4005f1067UL, 0x0000606800d51e9eUL,
  0x0000101c006e2e01UL, 0x0000b4fc006628eaUL, 0x0000b85a00631d65UL, 0x0000a039004d2071UL,
  0x0000595900ca330cUL, 0x00001ee4007e4441UL, 0x54007c0000802201UL, 0x540200430174104cUL,
  0x0210220f00087f80UL, 0x0000000055000203UL, 0x0000000200000001UL, 0x0000000400000003UL,
  0x0000000600000005UL, 0x0000000800000007UL, 0x000000d1000000c9UL, 0x000000e1000000d9UL,
  0x0000002a00000029UL, 0x56000cc3000000ebUL, 0x0000c30000000000UL, 0x0000c30000000000UL,
  0x0000c30000000000UL, 0x0000c30000000000UL, 0x0000c30000000000UL, 0x0000c30000000000UL,
  0x0000bd62e2dbfdb7UL, 0x0000c17ef955ff8eUL, 0x0000c18ff7590079UL, 0x0000b80020000000UL,
  0x0000c08000000000UL, 0x0000c10000000000UL, 0x0000b68020000000UL, 0x0000b68020000000UL,
  0x0000a98040000000UL, 0x0000a90040000000UL, 0x0000a90040000000UL, 0x0000a90040000000UL,
  0x0000980060000000UL, 0x0000978060000000UL, 0x0000970060000000UL, 0x0000968060000000UL,
  0x0000ab8040000000UL, 0x0000ac0040000000UL, 0x0000958060000000UL, 0x0000ad8040000000UL,
  0x0000950060000000UL, 0x0000948060000000UL, 0x0000940060000000UL, 0x0000b00040000000UL,
  0x0000b08040000000UL, 0x0000930060000000UL, 0x0000b18040000000UL, 0x0000920060000000UL,
  0x0000b28040000000UL, 0x0000910060000000UL, 0x0000b38040000000UL, 0x0000b40040000000UL,
  0x0000b48040000000UL, 0x0000b50040000000UL, 0x0000b58040000000UL, 0x0000a4c94db70000UL,
  0x0000a4db4db70000UL, 0x0000bd0040000000UL, 0x0000bd8040000000UL, 0x0000838060000000UL,
  0x0000830060000000UL, 0x0000828060000000UL, 0x0000bf0040000000UL, 0x0000bf8040000000UL,
  0x0000c00040000000UL, 0x20007c0000802061UL, 0x2002012300080000UL, 0x003c003c34318400UL,
  0x0000078000200008UL, 0x0000000100000020UL, 0x0000002400000000UL, 0x200c004200100000UL,
  0x0000000700000006UL, 0x00000010200d0043UL, 0x201100433433463fUL, 0x0000000000000000UL,
  0x14007c0000802001UL, 0x1402004300080184UL, 0x0000900070954f00UL, 0x00000000140500c3UL,
  0x0000000000000000UL, 0x0000002400000000UL, 0x140c004200100000UL, 0x0000000700000006UL,
  0x00000001140d0043UL, 0x141100437095df3fUL, 0x0000000800000000UL, 0x1c007c0000802041UL,
  0x1c02012300080000UL, 0x003c003c34318408UL, 0x0000078000200008UL, 0x0000000100000020UL,
  0x0000002400000000UL, 0x1c0c004200100000UL, 0x0000000700000006UL, 0x000000101c0d0043UL,
  0x1c1100433433463fUL, 0x0000000000000000UL, 0x2c007c00008020c1UL, 0x2c02012300080000UL,
  0x003c003c34318410UL, 0x0000078000200008UL, 0x0000000100000020UL, 0x0000002400000000UL,
  0x2c0c004200100000UL, 0x0000000700000006UL, 0x000000102c0d0043UL, 0x2c1100433433463fUL,
  0x0000000000000000UL, 0x28007c00008020a1UL, 0x2802012300080000UL, 0x003c003c34318418UL,
  0x0000078000200008UL, 0x0000000100000020UL, 0x0000002400000000UL, 0x280c004200100000UL,
  0x0000000700000006UL, 0x00000010280d0043UL, 0x281100433433463fUL, 0x0000000000000000UL,
  0x34007c0000802101UL, 0x3402012300080008UL, 0x001e001e342fc200UL, 0x00000f0000800008UL,
  0x0000001000000008UL, 0x000000240001c200UL, 0x340c004200100000UL, 0x0000000700000006UL,
  0x00000010340d0043UL, 0x341100433431843fUL, 0x0000000000000000UL, 0x00000021100a7c00UL,
  0x00000007100c0043UL, 0x100f012300000001UL, 0x0000000100000005UL, 0x0000000d00000015UL,
  0x0000001700000001UL, 0x000000010000000bUL, 0x101c7c0000000019UL, 0x10247c000000002bUL,
  0x10007c000000001bUL, 0x3400200100000001UL, 0x000000353c007c00UL, 0x0000002140007c00UL,
  0x0000002144007c00UL, 0x0000002148007c00UL, 0x6800200154002001UL, 0x1c00200114002001UL,
  0x2800200120002001UL, 0x34007fe42c002001UL, 0x0000000000000064UL, 0x0000000210007c00UL,
  0x0000006410000424UL, 0x10007c0000000000UL, 0x10007bc440000000UL, 0x0000000000000064UL,
  0x00000000100a7c00UL, 0x00000000100c0043UL, 0x100f012300000000UL, 0x0000000000000000UL,
  0x0000000000000000UL, 0x0000000000000000UL, 0x0000000000000000UL, 0x101c7c0000000000UL,
  0x10247c0000000000UL, 0x34007c0000000000UL, 0x3400042400000002UL, 0x0000000000000064UL,
  0x4000000034007c00UL, 0x0000006434007bc4UL, 0x0080010100000000UL, 0x000000023c007c00UL,
  0x000000643c000424UL, 0x3c007c0000000000UL, 0x3c007bc440000000UL, 0x0000000000000064UL,
  0x40007c0000800141UL, 0x4000042400000002UL, 0x0000000000000064UL, 0x4000000040007c00UL,
  0x0000006440007bc4UL, 0x0080016100000000UL, 0x0000000244007c00UL, 0x0000006444000424UL,
  0x44007c0000000000UL, 0x44007bc440000000UL, 0x0000000000000064UL, 0x48007c0000800181UL,
  0x4800042400000002UL, 0x0000000000000064UL, 0x4000000048007c00UL, 0x0000006448007bc4UL,
  0x008001a100000000UL, 0x0088108254007c00UL, 0x0000006454000424UL, 0x54007c0000000000UL,
  0x54007bc440881080UL, 0x0000000000000064UL, 0x68007c0000800201UL, 0x6800042408000002UL,
  0x0000000000000064UL, 0x4800000068007c00UL, 0x0000006468007bc4UL, 0x008002a100000000UL,
  0x0000000214007c00UL, 0x0000006414000424UL, 0x14007c0000000000UL, 0x14007bc440000000UL,
  0x0000000000000064UL, 0x1c007c0000800001UL, 0x1c00042400000002UL, 0x0000000000000064UL,
  0x400000001c007c00UL, 0x000000641c007bc4UL, 0x0080004100000000UL, 0x0000000220007c00UL,
  0x0000006420000424UL, 0x20007c0000000000UL, 0x20007bc440000000UL, 0x0000000000000064UL,
  0x28007c0000800061UL, 0x2800042400000002UL, 0x0000000000000064UL, 0x4000000028007c00UL,
  0x0000006428007bc4UL, 0x008000a100000000UL, 0x000000022c007c00UL, 0x000000642c000424UL,
  0x2c007c0000000000UL, 0x2c007bc440000000UL, 0x0000000000000064UL, 0x000001bd008000c1UL,
  0x3c007c0000802141UL, 0x3c02012300000350UL, 0x0000110018100101UL, 0x001e01e010b74004UL,
  0x001d000001df0000UL, 0x0001010200170060UL, 0x3c0c004300000000UL, 0x0000000000ffff86UL,
  0x40007c0000802161UL, 0x400200e300000040UL, 0x0000110018100101UL, 0x001e01e010b74000UL,
  0x001d000001df0000UL, 0x400a7c00002f1860UL, 0x400c004300000000UL, 0x0000000000ffff86UL,
  0x44007c0000802181UL, 0x440200e300000040UL, 0x0000110018100101UL, 0x001e01e010b74000UL,
  0x001d000001df0000UL, 0x440a7c0000473060UL, 0x440c004300000000UL, 0x0000000000ffff86UL,
  0x48007c00008021a1UL, 0x480200e300000040UL, 0x0000110018100101UL, 0x001e01e010a34400UL,
  0x001d000001df0000UL, 0x480a7c00005f4860UL, 0x480c004300000000UL, 0x0000000000ffff86UL,
  0x6400004200802281UL, 0x156000fc08000000UL, 0x0009000064020123UL, 0x0000001700000000UL,
  0x0000a8bf0000545fUL, 0x0000000000000000UL, 0x00000001074403e9UL, 0x00000000640c0043UL,
  0x640b7c0020422042UL, 0x65000c0300000001UL, 0x00004b20fefe1969UL, 0x0000a761ff441e49UL,
  0x0000d5acffb12b50UL, 0x00006f8dffb817ffUL, 0x00003188fea52d00UL, 0x0000111300472493UL,
  0x0000265afff4299bUL, 0x00006444fff420cdUL, 0x0000f489ff1d228fUL, 0x000043d500031bb7UL,
  0x0000efcffff7204aUL, 0x0000df64ffc21d19UL, 0x00006665ffdc2317UL, 0x00001d5f01542d42UL,
  0x000054f300441b7fUL, 0x00007adf001d1ceeUL, 0x0000f20afe415415UL, 0x000065f50022282bUL,
  0x0000350dff3836c2UL, 0x0000f58b0021281aUL, 0x0000a2dbff2b1c3eUL, 0x0000756b00021ac0UL,
  0x0000ffa1ff641c41UL, 0x0000bbefff29199eUL, 0x0000c094005431cfUL, 0x0000e91700ad1653UL,
  0x0000e55600ce1d7eUL, 0x0000f8ff00fa1da8UL, 0x00001867002422caUL, 0x0000e733ff87274fUL,
  0x0000d280ffd522bdUL, 0x0000560bffa620ffUL, 0x0000ce82ff9d284cUL, 0x00002a5bff41191fUL,
  0x00001b98ff461effUL, 0x000055f4ffda2532UL, 0x0000c6ce005828fdUL, 0x0000502cfffa224dUL,
  0x00006ac2fed52e36UL, 0x000000e9003f2286UL, 0x000083f0ffad1cadUL, 0x0000f7bbff2e296bUL,
  0x0000222c00b41ff3UL, 0x00004878001d235cUL, 0x00005d1a00bb1dc7UL, 0x0000af1a004b1a97UL,
  0x0000365c00871fc9UL, 0x00001a0d00252413UL, 0x14007c0000802001UL, 0x140201230008c000UL,
  0x001e001e342fc200UL, 0x00000f0000800010UL, 0x0000000200000040UL, 0x0000002400000000UL,
  0x140c004200100000UL, 0x0000000700000006UL, 0x00000004140d0043UL, 0x141100433431843fUL,
  0x0000000000000000UL, 0x18007c0000802021UL, 0x180200430008c184UL, 0x0000180070b51c80UL,
  0x00000000180500c3UL, 0x0000000000000000UL, 0x0000002400000000UL, 0x180c004200100000UL,
  0x0000000700000006UL, 0x00000001180d0043UL, 0x1811004370b534bfUL, 0x0000000800000000UL,
  0x20007c0000802061UL, 0x200200430088c100UL, 0x0000546034318400UL, 0x00000000200500c3UL,
  0x0000000000000000UL, 0x0000002400000000UL, 0x200c004200100000UL, 0x0000000700000006UL,
  0x00000004200d0043UL, 0x2011004334322cffUL, 0x0000000000000000UL, 0x28007c00008020a1UL,
  0x280201230008c000UL, 0x001e001e342fc210UL, 0x00000f0000800010UL, 0x0000000200000040UL,
  0x0000002400000000UL, 0x280c004200100000UL, 0x0000000700000006UL, 0x00000004280d0043UL,
  0x281100433431843fUL, 0x0000000000000000UL, 0x2c007c00008020c1UL, 0x2c0201230008c000UL,
  0x001e001e342fc220UL, 0x00000f0000800010UL, 0x0000000200000040UL, 0x0000002400000000UL,
  0x2c0c004200100000UL, 0x0000000700000006UL, 0x000000042c0d0043UL, 0x2c1100433431843fUL,
  0x0000000000000000UL, 0x34007c0000802101UL, 0x340201230008c000UL, 0x001e001e342fc230UL,
  0x00000f0000800010UL, 0x0000000200000040UL, 0x0000002400000000UL, 0x340c004200100000UL,
  0x0000000700000006UL, 0x00000004340d0043UL, 0x341100433431843fUL, 0x0000000000000000UL,
  0x30007c00008020e1UL, 0x3002004300880108UL, 0x0000546034318400UL, 0x00000000300500c3UL,
  0x0000000000000000UL, 0x0000002400000000UL, 0x300c004200100000UL, 0x0000000700000006UL,
  0x00000004300d0043UL, 0x3011004334322cffUL, 0x0000000000000000UL, 0x38007c0000802121UL,
  0x3802012300080008UL, 0x001e001e34322cc0UL, 0x000005a000300018UL, 0x0000000200000018UL,
  0x000000240000a8c0UL, 0x380c004200100000UL, 0x0000000700000006UL, 0x00000002380d0043UL,
  0x381100433432d5bfUL, 0x0000000000000000UL, 0x0000001b10097c00UL, 0x00000029100b01a3UL,
  0x0000000300000001UL, 0x0000000b00000007UL, 0x0000001500000003UL, 0x000000030000000dUL,
  0x0000001100000017UL, 0x0000001900000003UL, 0x011b011a10227c00UL, 0x0000000110007c00UL,
  0x3800200130002001UL, 0x000003513c007c00UL, 0x0000004140007c00UL, 0x0000004144007c00UL,
  0x0000004148007c00UL, 0x1400200164002001UL, 0x2000200118002001UL, 0x2c00200128002001UL,
  0x30007fe434002001UL, 0x0000000000000064UL, 0x0000006438007fe4UL, 0x10007c0000000000UL,
  0x1000042400000002UL, 0x0000000000000064UL, 0x4000000010007c00UL, 0x0000006410007bc4UL,
  0x10097c0000000000UL, 0x100b01a300000000UL, 0x0000000000000000UL, 0x0000000000000000UL,
  0x0000000000000000UL, 0x0000000000000000UL, 0x0000000000000000UL, 0x0000000000000000UL,
  0x10227c0000000000UL, 0x30007c0000000000UL, 0x3000042400000002UL, 0x0000000000000064UL,
  0x4000000030007c00UL, 0x0000006430007bc4UL, 0x008000e100000000UL, 0x0000000238007c00UL,
  0x0000006438000424UL, 0x38007c0000000000UL, 0x38007bc440000000UL, 0x0000000000000064UL,
  0x3c007c0000800121UL, 0x3c00042400000002UL, 0x0000000000000064UL, 0x400000003c007c00UL,
  0x000000643c007bc4UL, 0x0080014100000000UL, 0x0000000240007c00UL, 0x0000006440000424UL,
  0x40007c0000000000UL, 0x40007bc440000000UL, 0x0000000000000064UL, 0x44007c0000800161UL,
  0x4400042400000002UL, 0x0000000000000064UL, 0x4000000044007c00UL, 0x0000006444007bc4UL,
  0x0080018100000000UL, 0x0000000248007c00UL, 0x0000006448000424UL, 0x48007c0000000000UL,
  0x48007bc440000000UL, 0x0000000000000064UL, 0x64007c00008001a1UL, 0x6400042408000002UL,
  0x0000000000000064UL, 0x4800000064007c00UL, 0x0000006464007bc4UL, 0x0080028100000000UL,
  0x0000000214007c00UL, 0x0000006414000424UL, 0x14007c0000000000UL, 0x14007bc440000000UL,
  0x0000000000000064UL, 0x18007c0000800001UL, 0x1800042400000002UL, 0x0000000000000064UL,
  0x4000000018007c00UL, 0x0000006418007bc4UL, 0x0080002100000000UL, 0x0000000220007c00UL,
  0x0000006420000424UL, 0x20007c0000000000UL, 0x20007bc440000000UL, 0x0000000000000064UL,
  0x28007c0000800061UL, 0x2800042400000002UL, 0x0000000000000064UL, 0x4000000028007c00UL,
  0x0000006428007bc4UL, 0x008000a100000000UL, 0x000000022c007c00UL, 0x000000642c000424UL,
  0x2c007c0000000000UL, 0x2c007bc440000000UL, 0x0000000000000064UL, 0x34007c00008000c1UL,
  0x3400042400000002UL, 0x0000000000000064UL, 0x4000000034007c00UL, 0x0000006434007bc4UL,
  0x0080010100000000UL, 0x00802141000001ddUL, 0x000003503c007c00UL, 0x040803033c020123UL,
  0x10b7400500001155UL, 0x00ef0000001e00f0UL, 0x0003000c001d0000UL, 0x0000000000010102UL,
  0x000000033c0c0043UL, 0x0080216100000000UL, 0x0000004040007c00UL, 0x04080303400200e3UL,
  0x10b7400000001155UL, 0x00ef0000001e00f0UL, 0x0007040c001d0000UL, 0x00000000400a7c00UL,
  0x00000003400c0043UL, 0x0080218100000000UL, 0x0000004044007c00UL, 0x04080303440200e3UL,
  0x10a3450000001155UL, 0x00ef0000001e00f0UL, 0x000b080c001d0000UL, 0x00000000440a7c00UL,
  0x00000003440c0043UL, 0x0080224100000000UL, 0x080000005c000042UL, 0x5c020123156000fcUL,
  0x0000000000090000UL, 0x00000e0f00000003UL, 0x000000000002a2ffUL, 0x050403fd00000000UL,
  0x5c0c004300000001UL, 0x2042204200000000UL, 0x000000015c0b7c00UL, 0x01340a075d003003UL,
  0x00fb12360000cf06UL, 0x00f10dae00009f24UL, 0x011c104b00007766UL, 0x010408500000a655UL,
  0x015b0e0200007663UL, 0x00f31d2800008bebUL, 0x010b175400002672UL, 0x01001543000019f2UL,
  0x00ba149c0000d650UL, 0x00f215bc00005316UL, 0x01330f1b0000b867UL, 0x01051b93000067c0UL,
  0x00ec1da50000d6e6UL, 0x0132127900008ddeUL, 0x010712fe0000fcbdUL, 0x01110ef600006727UL,
  0x012e1241000094acUL, 0x00ee1cf40000f3d0UL, 0x01080ec50000f97aUL, 0x01061bd200008620UL,
  0x00d91484000058c7UL, 0x012112e20000d134UL, 0x0155141100009c94UL, 0x00b82c3f0000d5c6UL,
  0x011f1ce10000a2d6UL, 0x00f5120300006c83UL, 0x00f810a00000592dUL, 0x00d50f020000149bUL,
  0x010f1b9e00002a0eUL, 0x010e141b0000cd65UL, 0x012b174400003269UL, 0x00fb174f0000453dUL,
  0x00f3123c000018acUL, 0x00f413b000009b15UL, 0x0105155100008d79UL, 0x01270f5a0000d23eUL,
  0x00ff14c200006f08UL, 0x012211f60000645fUL, 0x00ea0c8400003362UL, 0x01160d7200001b57UL,
  0x00e42bdc00002b66UL, 0x014e0f520000d308UL, 0x01090e6c000083edUL, 0x010b0f530000d523UL,
  0x00f3122d00005ebbUL, 0x00fb1cdd0000b01aUL, 0x00c7267000009ebbUL, 0x00e4114100009aadUL,
  0x00314f9d00001f0cUL, 0x00f112c800001e18UL, 0x013214340000bfc1UL, 0x00fd0cde000041c4UL,
  0x00f317da0000b7e3UL, 0x012427990000fe2fUL, 0x010312f800003bc3UL, 0x013c0f7600006fc5UL,
  0x010b134d00008c1fUL, 0x00f314080000c010UL, 0x00fb0f1f00006c24UL, 0x0135119b0000e9c4UL,
  0x014311dd0000281bUL, 0x014515b50000176eUL, 0x012d0cc50000b0a1UL, 0x00f3181000007318UL,
  0x00e61c060000f23eUL, 0x011a1bb30000e69bUL, 0x00e611200000d5d8UL, 0x01190fe90000a6a9UL,
  0x011010f00000682bUL, 0x00ff0f600000f612UL, 0x00f60eb500000b22UL, 0x010e201100009815UL,
  0x00f219c10000b766UL, 0x014d0d6a00004cf1UL, 0x0121142d0000f91fUL, 0x00ef1cd20000834cUL,
  0x0126174f0000d0feUL, 0x01181b1b00008207UL, 0x01542b8d0000b28aUL, 0x0109141c0000155aUL,
  0x014e0fcb000073b5UL, 0x014717b40000b9f0UL, 0x012f0c6000009450UL, 0x01740d28000091e8UL,
  0x00f41a35000043a8UL, 0x010511280000abd5UL, 0x011a15d900006035UL, 0x01090da9000035b4UL,
  0x011523630000d54eUL, 0x010614120000bdc1UL, 0x01041a0a00007f78UL, 0x013e0eb80000e6ecUL,
  0x00d5163b0000e5deUL, 0x00fd17f4000082b2UL, 0x00fa174400004737UL, 0x00f20fb700004c40UL,
  0x012710720000eb95UL, 0x00f7148400007a76UL, 0x00f109de00008b40UL, 0x011a1d4a000083cfUL,
  0x01101afc0000d8bcUL, 0x01471a3b0000d3c9UL, 0x011317e40000f900UL, 0x011f23160000d312UL,
  0x00e6143f00003b3fUL, 0x013510010000253dUL, 0x010410e30000fe8fUL, 0x012e0df500000758UL,
  0x00d70e8f0000d64eUL, 0x00f211b900003dceUL, 0x011d12830000c413UL, 0x00f316620000bae4UL,
  0x010f116400007703UL, 0x011c1ba900007e24UL, 0x00f6118e00008947UL, 0x00ef138100003d89UL,
  0x00f30eb90000c6eeUL, 0x00fc18210000622bUL, 0x010818d100005f5eUL, 0x00f41a78000039c7UL,
  0x0114192c0000ca6fUL, 0x00c21703000036cbUL, 0x01141be100005a9cUL, 0x012d1d2200002345UL,
  0x013713e000003679UL, 0x00ef15b70000e163UL, 0x012b11850000cd9fUL, 0x00bf1a0d00009a11UL,
  0x011f19e80000d353UL, 0x011b154000000b74UL, 0x01041d17000018c5UL, 0x011815d200003e09UL,
  0x01080feb00003b22UL, 0x0137150e0000b7a7UL, 0x014519a50000ec87UL, 0x01cf138c000015b3UL,
  0x00f6185700007168UL, 0x00f71d7b0000a524UL, 0x0116183700009fa2UL, 0x01010e2c00006eecUL,
  0x016813e40000ff8fUL, 0x012b0d880000661aUL, 0x012a09d60000445eUL, 0x00da1b8e0000b097UL,
  0x01240f9700006939UL, 0x010e28c9000018b0UL, 0x011b12820000f765UL, 0x010514b30000ce22UL,
  0x01350b2e00002eedUL, 0x00e010cb000082f3UL, 0x013a177700003874UL, 0x0127152500005018UL,
  0x00f414ca0000ea47UL, 0x00f418360000c003UL, 0x0126134e00009d70UL, 0x010714e600003b7bUL,
  0x00ee13e700003263UL, 0x012715860000797cUL, 0x00ef1f0700008437UL, 0x00f320370000685dUL,
  0x00da18930000111bUL, 0x012a0e9300003efdUL, 0x0130101e0000162bUL, 0x00f00fcf00009b68UL,
  0x00d618bb0000729eUL, 0x00fe13c10000f4dfUL, 0x010a10eb0000c1d9UL, 0x011017940000f8c7UL,
  0x01240e710000b245UL, 0x00f010bc000060b4UL, 0x00eb19ba0000cd9dUL, 0x00ed1040000072b2UL,
  0x011816890000666aUL, 0x00fe1ae800004b6dUL, 0x00db12630000bdadUL, 0x013c0eca0000bf27UL,
  0x01240ede000068e5UL, 0x017717df0000d86dUL, 0x015225ee0000dc57UL, 0x010317110000c8f6UL,
  0x010314f90000a0a8UL, 0x011a0f9e00009e3fUL, 0x011118660000ea33UL, 0x00df14760000b621UL,
  0x0117123a0000bbcaUL, 0x00fb1eae0000886eUL, 0x011215a900002679UL, 0x010b17c600005c2eUL,
  0x0113161d000094ddUL, 0x00ff08f90000b6feUL, 0x00ec0f1700002163UL, 0x0080222100005b65UL,
  0x0174104c58007c00UL, 0x00087f8058020043UL, 0x590002030210328fUL, 0x0000000100000000UL,
  0x0000000300000002UL, 0x0000000500000004UL, 0x0000000700000006UL, 0x0000000900000008UL,
  0x00000052000000caUL, 0x000000dc000000d4UL, 0x000000e500000024UL, 0x000000005a000b43UL,
  0x000000000000f1c0UL, 0x000000000000f1c0UL, 0x000000000000f1c0UL, 0x000000000000f1c0UL,
  0x000000000000f1c0UL, 0x000000000000f1c0UL, 0x000000000000f1c0UL, 0x000000000000f1c0UL,
  0xfe8c00000000f1c0UL, 0xf00000000000f1e0UL, 0x000000000000f580UL, 0x000000000000f160UL,
  0xf00000000000f160UL, 0x000000000000f620UL, 0xf00000000000f140UL, 0x100000000000f680UL,
  0x000000000000eb80UL, 0x5472f8e40000f100UL, 0xd9de02220000e12cUL, 0x000000000000fa8bUL,
  0x000000000000f000UL, 0x000000000000f000UL, 0x000000000000f000UL, 0x100000000000f020UL,
  0x200000000000e740UL, 0x100000000000de00UL, 0x200000000000e780UL, 0x300000000000de00UL,
  0x300000000000d420UL, 0x400000000000d420UL, 0x400000000000c9c0UL, 0x500000000000c9c0UL,
  0x500000000000bec0UL, 0x500000000000bec0UL, 0x500000000000bec0UL, 0x66a2ff740000bec0UL,
  0x500000000000b2c4UL, 0x600000000000bfe0UL, 0x500000000000b1c0UL, 0x600000000000c020UL,
  0x600000000000b160UL, 0x500000000000b140UL, 0x500000000000c060UL, 0x500000000000c080UL,
  0x008021210000c080UL, 0x0008c00038007c00UL, 0x34322cc038020123UL, 0x00300008001e001eUL,
  0x00000018000005a0UL, 0x0000000000000002UL, 0x0010000000000024UL, 0x00000006380c0042UL,
  0x380d004300000007UL, 0x3432d5bf00000060UL, 0x0000000038110043UL, 0x0080210100000000UL,
  0x0008c18434007c00UL, 0x7075b10034020043UL, 0x340500c300014400UL, 0x0000000000000000UL,
  0x0000000000000000UL, 0x0010000000000024UL, 0x00000006340c0042UL, 0x340d004300000007UL,
  0x7076f53f00000001UL, 0x0000000034110043UL, 0x0080206100000008UL, 0x0088c10020007c00UL,
  0x34314bc020020043UL, 0x200500c300000e10UL, 0x0000000000000000UL, 0x0000000000000000UL,
  0x0010000000000024UL, 0x00000006200c0042UL, 0x200d004300000007UL, 0x3431681f00000060UL,
  0x0000000020110043UL, 0x008020a100000000UL, 0x0008c00028007c00UL, 0x34322cc828020123UL,
  0x00300008001e001eUL, 0x00000018000005a0UL, 0x0000000000000002UL, 0x0010000000000024UL,
  0x00000006280c0042UL, 0x280d004300000007UL, 0x3432d5bf00000060UL, 0x0000000028110043UL,
  0x0080208100000000UL, 0x0008c00024007c00UL, 0x34322cd024020123UL, 0x00300008001e001eUL,
  0x00000018000005a0UL, 0x0000000000000002UL, 0x0010000000000024UL, 0x00000006240c0042UL,
  0x240d004300000007UL, 0x3432d5bf00000060UL, 0x0000000024110043UL, 0x0080204100000000UL,
  0x008801081c007c00UL, 0x34314bc01c020043UL, 0x1c0500c300000e10UL, 0x0000000000000000UL,
  0x0000000000000000UL, 0x0010000000000024UL, 0x000000061c0c0042UL, 0x1c0d004300000007UL,
  0x3431681f00000060UL, 0x000000001c110043UL, 0x008020c100000000UL, 0x000800082c007c00UL,
  0x342e00002c020123UL, 0x00c00004001e001eUL, 0x0000000400001680UL, 0x0002a30000000030UL,
  0x0010000000000024UL, 0x000000062c0c0042UL, 0x2c0d004300000007UL, 0x3430a33f00000030UL,
  0x000000002c110043UL, 0x10047c0000000000UL, 0x10087c0000000019UL, 0x100c012300000023UL,
  0x0000001100000013UL, 0x0000000b00000007UL, 0x0000001500000011UL, 0x0000001100000009UL,
  0x101d004300000017UL, 0x0119011800000025UL, 0x0000000110007c00UL, 0x2c0020011c002001UL,
  0x000003513c007c00UL, 0x0000004140007c00UL, 0x0000004144007c00UL, 0x5c00200158002001UL,
  0x2400200120002001UL, 0x3400200128002001UL, 0x1c007fe438002001UL, 0x0000000000000064UL,
  0x000000642c007fe4UL, 0x10007c0000000000UL, 0x1000042400000002UL, 0x0000000000000064UL,
  0x4000000010007c00UL, 0x0000006410007bc4UL, 0x10047c0000000000UL, 0x10087c0000000000UL,
  0x100c012300000000UL, 0x0000000000000000UL, 0x0000000000000000UL, 0x0000000000000000UL,
  0x0000000000000000UL, 0x101d004300000000UL, 0x0000000000000000UL, 0x000000021c007c00UL,
  0x000000641c000424UL, 0x1c007c0000000000UL, 0x1c007bc440000000UL, 0x0000000000000064UL,
  0x2c007c0000800041UL, 0x2c00042400000002UL, 0x0000000000000064UL, 0x400000002c007c00UL,
  0x000000642c007bc4UL, 0x008000c100000000UL, 0x000000023c007c00UL, 0x000000643c000424UL,
  0x3c007c0000000000UL, 0x3c007bc440000000UL, 0x0000000000000064UL, 0x40007c0000800141UL,
  0x4000042400000002UL, 0x0000000000000064UL, 0x4000000040007c00UL, 0x0000006440007bc4UL,
  0x0080016100000000UL, 0x0000000244007c00UL, 0x0000006444000424UL, 0x44007c0000000000UL,
  0x44007bc440000000UL, 0x0000000000000064UL, 0x58007c0000800181UL, 0x5800042400881082UL,
  0x0000000000000064UL, 0x4088108058007c00UL, 0x0000006458007bc4UL, 0x0080022100000000UL,
  0x080000025c007c00UL, 0x000000645c000424UL, 0x5c007c0000000000UL, 0x5c007bc448000000UL,
  0x0000000000000064UL, 0x20007c0000800241UL, 0x2000042400000002UL, 0x0000000000000064UL,
  0x4000000020007c00UL, 0x0000006420007bc4UL, 0x0080006100000000UL, 0x0000000224007c00UL,
  0x0000006424000424UL, 0x24007c0000000000UL, 0x24007bc440000000UL, 0x0000000000000064UL,
  0x28007c0000800081UL, 0x2800042400000002UL, 0x0000000000000064UL, 0x4000000028007c00UL,
  0x0000006428007bc4UL, 0x008000a100000000UL, 0x0000000234007c00UL, 0x0000006434000424UL,
  0x34007c0000000000UL, 0x34007bc440000000UL, 0x0000000000000064UL, 0x38007c0000800101UL,
  0x3800042400000002UL, 0x0000000000000064UL, 0x4000000038007c00UL, 0x0000006438007bc4UL,
  0x0080012100000000UL, 0x008021a1000001fdUL, 0x0000035048007c00UL, 0x1818010148020123UL,
  0x10b7400400001100UL, 0x02cf0000001e02d0UL, 0x00170060001d0000UL, 0x0000000000010102UL,
  0x00ffff8e480c0043UL, 0x0080214100000000UL, 0x000000403c007c00UL, 0x181801013c0200e3UL,
  0x10b7400000001100UL, 0x02cf0000001e02d0UL, 0x002f1860001d0000UL, 0x000000003c0a7c00UL,
  0x00ffff8e3c0c0043UL, 0x0080216100000000UL, 0x0000004040007c00UL, 0x18180101400200e3UL,
  0x10b7400000001100UL, 0x02cf0000001e02d0UL, 0x00473060001d0000UL, 0x00000000400a7c00UL,
  0x00ffff8e400c0043UL, 0x0080218100000000UL, 0x0000004044007c00UL, 0x18180101440200e3UL,
  0x10a3440000001100UL, 0x02cf0000001e02d0UL, 0x005f4860001d0000UL, 0x00000000440a7c00UL,
  0x00ffff8e440c0043UL, 0x0080226100000000UL, 0x0800000060000042UL, 0x60020123156000fcUL,
  0x0000000000090000UL, 0x0000545f00000017UL, 0x000000000000a8bfUL, 0x074403e900000000UL,
  0x600c004300000001UL, 0x2042204200000000UL, 0x00000001600b7c00UL, 0xffe50ba761000c03UL,
  0xffa617ff0000b383UL, 0xffdb18fb0000ab5cUL, 0xfffe0f0f000094a1UL, 0x008232150000e837UL,
  0x001338840000c6cbUL, 0x001a10ec000004b3UL, 0xfff32b6d0000b7d0UL, 0xffb015d8000043faUL,
  0xffd40bc4000033b0UL, 0xff822f4e0000ff75UL, 0xfff1222f00000d8fUL, 0xffe41f94000093c7UL,
  0xffc611eb0000bc72UL, 0xffc70a7c000000d1UL, 0xffe11b8c0000652fUL, 0x000b278c000099e8UL,
  0x000436030000b810UL, 0xfff314990000708eUL, 0x002e454f00001299UL, 0x000811780000d434UL,
  0x004529a500001af9UL, 0x001b1f8200003003UL, 0xffa90fc40000746bUL, 0xff4e487700004179UL,
  0xffb90f0200006b9dUL, 0x00170a6c00002adbUL, 0xffd80eb600003534UL, 0xfffc086900006b75UL,
  0x005630080000e6c2UL, 0xffe13cb600000467UL, 0xfffd096f0000bdbfUL, 0x005440e200000fedUL,
  0xff980ddd000034e4UL, 0xfff5184100003088UL, 0xffc813ff0000f7ecUL, 0xfff73c630000e447UL,
  0xffe4308b00001769UL, 0x003822dc00008d21UL, 0xffd01709000019a1UL, 0xffdd28470000effdUL,
  0xfff7444400001c0cUL, 0xffa9127e0000ccbdUL, 0x001a2c3b00002edfUL, 0x000b0940000051d0UL,
  0xff4b2a5d000034efUL, 0x000535640000846dUL, 0x000c155100002e4fUL, 0x008022a100002c51UL,
  0x0800000068000042UL, 0x68027c0005000160UL, 0x6807004300078800UL, 0x00006d82a5fb581dUL,
  0x00000000680c0043UL, 0x0080210110411041UL, 0x0008c00034007c00UL, 0x342e000034020123UL,
  0x00c00018001e001eUL, 0x0000006000001680UL, 0x0000000000000002UL, 0x0010000000000024UL,
  0x00000006340c0042UL, 0x340d004300000007UL, 0x3430a33f00000004UL, 0x0000000034110043UL,
  0x0080204100000000UL, 0x0008c1841c007c00UL, 0x70b3bd801c020043UL, 0x1c0500c300002400UL,
  0x0000000000000000UL, 0x0000000000000000UL, 0x0010000000000024UL, 0x000000061c0c0042UL,
  0x1c0d004300000007UL, 0x70b3e1bf00000001UL, 0x000000001c110043UL, 0x0080208100000008UL,
  0x0088c10024007c00UL, 0x3430a30024020043UL, 0x240500c300005460UL, 0x0000000000000000UL,
  0x0000000000000000UL, 0x0010000000000024UL, 0x00000006240c0042UL, 0x240d004300000007UL,
  0x34314bff00000004UL, 0x0000000024110043UL, 0x008020e100000000UL, 0x0008c00030007c00UL,
  0x342e001830020123UL, 0x00c00018001e001eUL, 0x0000006000001680UL, 0x0000000000000002UL,
  0x0010000000000024UL, 0x00000006300c0042UL, 0x300d004300000007UL, 0x3430a33f00000004UL,
  0x0000000030110043UL, 0x0080202100000000UL, 0x0008c00018007c00UL, 0x342e003018020123UL,
  0x00c00018001e001eUL, 0x0000006000001680UL, 0x0000000000000002UL, 0x0010000000000024UL,
  0x00000006180c0042UL, 0x180d004300000007UL, 0x3430a33f00000004UL, 0x0000000018110043UL,
  0x008020a100000000UL, 0x0008c00028007c00UL, 0x342e004828020123UL, 0x00c00018001e001eUL,
  0x0000006000001680UL, 0x0000000000000002UL, 0x0010000000000024UL, 0x00000006280c0042UL,
  0x280d004300000007UL, 0x3430a33f00000004UL, 0x0000000028110043UL, 0x0080200100000000UL,
  0x0008000014007c00UL, 0x34322cc014020123UL, 0x00300018001e001eUL, 0x00000018000005a0UL,
  0x0000a8c000000002UL, 0x0010000000000024UL, 0x00000006140c0042UL, 0x140d004300000007UL,
  0x3432d5bf00000002UL, 0x0000000014110043UL, 0x0080212100000000UL, 0x0088010838007c00UL,
  0x3430a30038020043UL, 0x380500c300005460UL, 0x0000000000000000UL, 0x0000000000000000UL,
  0x0010000000000024UL, 0x00000006380c0042UL, 0x380d004300000007UL, 0x34314bff00000004UL,
  0x0000000038110043UL, 0x008020c100000000UL, 0x000800082c007c00UL, 0x3432d5802c020123UL,
  0x00300018001e001eUL, 0x00000018000005a0UL, 0x0000a8c000000002UL, 0x0010000000000024UL,
  0x000000062c0c0042UL, 0x2c0d004300000007UL, 0x34337e7f00000002UL, 0x000000002c110043UL,
  0x10087c0000000000UL, 0x100b01a30000002bUL, 0x0000000f00000019UL, 0x0000001b00000005UL,
  0x0000000500000003UL, 0x0000000b00000015UL, 0x0000001700000005UL, 0x0000000500000011UL,
  0x10207c0000000009UL, 0x1024004301190118UL, 0x0000000100000027UL, 0x0000000110007c00UL,
  0x380020012c002001UL, 0x000000413c007c00UL, 0x0000004140007c00UL, 0x0000004144007c00UL,
  0x0000035148007c00UL, 0x6800200160002001UL, 0x1800200114002001UL, 0x240020011c002001UL,
  0x3000200128002001UL, 0x2c007fe434002001UL, 0x0000000000000064UL, 0x0000006438007fe4UL,
  0x10007c0000000000UL, 0x1000042400000002UL, 0x0000000000000064UL, 0x4000000010007c00UL,
  0x0000006410007bc4UL, 0x10087c0000000000UL, 0x100b01a300000000UL, 0x0000000000000000UL,
  0x0000000000000000UL, 0x0000000000000000UL, 0x0000000000000000UL, 0x0000000000000000UL,
  0x0000000000000000UL, 0x10207c0000000000UL, 0x1024004300000000UL, 0x0000000000000000UL,
  0x000000022c007c00UL, 0x000000642c000424UL, 0x2c007c0000000000UL, 0x2c007bc440000000UL,
  0x0000000000000064UL, 0x38007c00008000c1UL, 0x3800042400000002UL, 0x0000000000000064UL,
  0x4000000038007c00UL, 0x0000006438007bc4UL, 0x0080012100000000UL, 0x000000023c007c00UL,
  0x000000643c000424UL, 0x3c007c0000000000UL, 0x3c007bc440000000UL, 0x0000000000000064UL,
  0x40007c0000800141UL, 0x4000042400000002UL, 0x0000000000000064UL, 0x4000000040007c00UL,
  0x0000006440007bc4UL, 0x0080016100000000UL, 0x0000000244007c00UL, 0x0000006444000424UL,
  0x44007c0000000000UL, 0x44007bc440000000UL, 0x0000000000000064UL, 0x48007c0000800181UL,
  0x4800042400000002UL, 0x0000000000000064UL, 0x4000000048007c00UL, 0x0000006448007bc4UL,
  0x008001a100000000UL, 0x0800000260007c00UL, 0x0000006460000424UL, 0x60007c0000000000UL,
  0x60007bc448000000UL, 0x0000000000000064UL, 0x68007c0000800261UL, 0x6800042408000002UL,
  0x0000000000000064UL, 0x4800000068007c00UL, 0x0000006468007bc4UL, 0x008002a100000000UL,
  0x0000000214007c00UL, 0x0000006414000424UL, 0x14007c0000000000UL, 0x14007bc440000000UL,
  0x0000000000000064UL, 0x18007c0000800001UL, 0x1800042400000002UL, 0x0000000000000064UL,
  0x4000000018007c00UL, 0x0000006418007bc4UL, 0x0080002100000000UL, 0x000000021c007c00UL,
  0x000000641c000424UL, 0x1c007c0000000000UL, 0x1c007bc440000000UL, 0x0000000000000064UL,
  0x24007c0000800041UL, 0x2400042400000002UL, 0x0000000000000064UL, 0x4000000024007c00UL,
  0x0000006424007bc4UL, 0x0080008100000000UL, 0x0000000228007c00UL, 0x0000006428000424UL,
  0x28007c0000000000UL, 0x28007bc440000000UL, 0x0000000000000064UL, 0x30007c00008000a1UL,
  0x3000042400000002UL, 0x0000000000000064UL, 0x4000000030007c00UL, 0x0000006430007bc4UL,
  0x008000e100000000UL, 0x0000000234007c00UL, 0x0000006434000424UL, 0x34007c0000000000UL,
  0x34007bc440000000UL, 0x0000000000000064UL, 0x0000021d00800101UL, 0x3c007c0000802141UL,
  0x3c02012300000350UL, 0x0000115504080303UL, 0x001e00f010b74005UL, 0x001d000000ef0000UL,
  0x000101020003000cUL, 0x3c0c004300000000UL, 0x0000000000fffffdUL, 0x40007c0000802161UL,
  0x400200e300000040UL, 0x0000115504080303UL, 0x001e00f010b74000UL, 0x001d000000ef0000UL,
  0x400a7c000007040cUL, 0x400c004300000000UL, 0x0000000000fffffdUL, 0x44007c0000802181UL,
  0x440200e300000040UL, 0x0000115504080303UL, 0x001e00f010a34500UL, 0x001d000000ef0000UL,
  0x440a7c00000b080cUL, 0x440c004300000000UL, 0x0000000000fffffdUL, 0x6400004200802281UL,
  0x156000fc08000000UL, 0x0009000064020123UL, 0x0000000300000000UL, 0x0002a2ff00000e0fUL,
  0x0000000000000000UL, 0x00000001050403fdUL, 0x00000000640c0043UL, 0x640b7c0020422042UL,
  0x6500300300000001UL, 0x0000ecb700ec1b2dUL, 0x0000003d00b02082UL, 0x0000efe100ef1966UL,
  0x0000c72f00da16f3UL, 0x0000474300d315dfUL, 0x00006fc300c720dcUL, 0x00007b5000ec1d86UL,
  0x00002b8400f41b6cUL, 0x0000a47300df2054UL, 0x0000dec600b01645UL, 0x0000483800ed1e76UL,
  0x0000e45f00e02174UL, 0x0000ff3c00d51a56UL, 0x0000074100bb2376UL, 0x0000a96900d024c8UL,
  0x000091fb00e415b9UL, 0x0000b45200cf1e7cUL, 0x0000997f00fe1d94UL, 0x0000ef0600ef20c0UL,
  0x0000803a00ce162cUL, 0x0000ec7900c31a92UL, 0x0000d137007c2e5bUL, 0x0000d4e500a63a79UL,
  0x0000bc0300de2a41UL, 0x0000081400bc1e2cUL, 0x00007b2b00e124b0UL, 0x00000f8300c61911UL,
  0x000008f300fd419eUL, 0x0000a15500a53d98UL, 0x0000ee0101061c99UL, 0x0000038a010e18b4UL,
  0x0000f13200b717c1UL, 0x0000639b00eb2244UL, 0x0000278000c91ec4UL, 0x000005fe01041f13UL,
  0x00008d0b00e21f8dUL, 0x0000c0ad009416edUL, 0x00003b0300be1b9dUL, 0x0000d47700a82e0eUL,
  0x0000a9f00106132eUL, 0x0000ed6100e71cd0UL, 0x0000c77200ce1e3dUL, 0x0000483301032e2dUL,
  0x0000006300b515a0UL, 0x00005e3901470c84UL, 0x000058c300ec25bfUL, 0x0000834c00c819ddUL,
  0x0000e1c500c51a68UL, 0x0000a44500c22fabUL, 0x0000004100df4f49UL, 0x0000728c0191289bUL,
  0x0000947400d2261cUL, 0x0000f45100ea10e9UL, 0x000060dc00b123fbUL, 0x0000ba5e00df16e3UL,
  0x00008a6b00bf713dUL, 0x0000746000cf194bUL, 0x000025ec011517c0UL, 0x0000d4d000fb1662UL,
  0x0000b6ba00e31c46UL, 0x0000517b00f31a11UL, 0x00000c9d00f521c2UL, 0x0000fad400db1bc1UL,
  0x0000a879004432bdUL, 0x0000ef7e00fb2182UL, 0x000086f90119107fUL, 0x0000a656012f11e8UL,
  0x0000f66500fc1d5bUL, 0x000005f300fa1a38UL, 0x0000cc9c00dc1391UL, 0x0000c23300b611ccUL,
  0x00009a6800e023bdUL, 0x0000970a00c2333fUL, 0x0000e34800d91accUL, 0x00000c4500d23187UL,
  0x00003a6400d516adUL, 0x0000c66c012c1113UL, 0x0000140900b41a10UL, 0x0000698600d11c6bUL,
  0x0000b3aa00c13188UL, 0x0000d55c00f121f9UL, 0x000045ff00c028e3UL, 0x00000ecc00e41f8bUL,
  0x0000796600d31984UL, 0x0000eb0a00be163dUL, 0x00002bec01191c0fUL, 0x000070cf00a51f77UL,
  0x00009543012b120aUL, 0x0000960700e71dc7UL, 0x0000b06500ef22c7UL, 0x0000669c011b2101UL,
  0x0000739900e91d5fUL, 0x0000029101261080UL, 0x00006d9200dc1936UL, 0x0000f536012f1639UL,
  0x00000b5700d01c59UL, 0x0000051d011c1ae5UL, 0x0000992a00cf2688UL, 0x0000272c00ec1d43UL,
  0x0000452200e41f82UL, 0x00002515010b22e4UL, 0x000079dc00d920b9UL, 0x0000fcac00d71d40UL,
  0x000057e200e11af5UL, 0x0000dbe600d71d14UL, 0x000041b400c918faUL, 0x0000af4e00e024d5UL,
  0x0000297101ab2d2dUL, 0x0000c9e001020f74UL, 0x00001a2400e41f40UL, 0x0000f7d4010c2bc6UL,
  0x000068a600ab1b08UL, 0x00007e8000aa1edeUL, 0x00007c9500bc1bf1UL, 0x0000ddec00892efdUL,
  0x000031b1012c27b2UL, 0x0000eb9400d0279eUL, 0x0000815900d017c2UL, 0x000087ff00d01629UL,
  0x00005f6a00f91633UL, 0x000045e300be2268UL, 0x00007474007b3b95UL, 0x00004aab008e252fUL,
  0x0000b63b0091314fUL, 0x000096c0013529b6UL, 0x000023a2008b23ebUL, 0x00003ce700d71ff4UL,
  0x00001a1100d01e8aUL, 0x00007aef00d516beUL, 0x0000ec7900e7136aUL, 0x00004b6900ac3252UL,
  0x0000a35500952947UL, 0x000073a400ee27a1UL, 0x00004ec300cc145dUL, 0x0000242500ab2260UL,
  0x00004b7101701cf3UL, 0x00006ffd00b41353UL, 0x00004f5e00e81ad0UL, 0x0000941400ca1cddUL,
  0x0000c56500b7235dUL, 0x00001b5400dd223bUL, 0x00003df200d610cbUL, 0x0000294700a015e2UL,
  0x00006bdd012718b7UL, 0x0000e2ee00e21fe2UL, 0x000070e400c319d9UL, 0x000047f200e128deUL,
  0x0000397100cb3e0eUL, 0x0000f31700a53019UL, 0x0000789800d01b9dUL, 0x000032d600963fe2UL,
  0x00004145011b12b8UL, 0x0000749c01380feeUL, 0x00008616010e1955UL, 0x00006c2800fc2916UL,
  0x0000382500fb17a2UL, 0x0000fc6100df178aUL, 0x00005d3900e41c7cUL, 0x0000959100e61afeUL,
  0x0000840e00c81932UL, 0x0000c002009e1aeaUL, 0x00002a9700f02a21UL, 0x000074990102123eUL,
  0x0000351700831998UL, 0x0000358e00bb14cdUL, 0x0000884100cc2383UL, 0x00001f9100e81ad1UL,
  0x0000cae600be1c2eUL, 0x00003e3a00ae1dabUL, 0x0000ca6200a721baUL, 0x0000d94800ee1442UL,
  0x0000427e011e10c2UL, 0x000073bb00c51e37UL, 0x0000997d00d50fd1UL, 0x00001f0900b729ddUL,
  0x0000dc3600b421cfUL, 0x00003ae501031665UL, 0x0000841800a419e1UL, 0x0000626100e616ffUL,
  0x0000b272003b7730UL, 0x0000a01d00d620f5UL, 0x000037e501700bd9UL, 0x0000b228010a1c5bUL,
  0x0000981501311670UL, 0x000090b100f41d2cUL, 0x0000772200ed1848UL, 0x0000e38600fc22e6UL,
  0x0000aade00e02615UL, 0x00004a44014d1b05UL, 0x000012c400bc1ee7UL, 0x0000688f01481bf3UL,
  0x0000dcbd00c41856UL, 0x54007c0000802201UL, 0x540200430174104cUL, 0x0210424f00087f80UL,
  0x0000000055000203UL, 0x0000000200000001UL, 0x0000000400000003UL, 0x0000000600000005UL,
  0x0000000800000007UL, 0x0000000a00000009UL, 0x0000000c0000000bUL, 0x0000000e0000000dUL,
  0x560005c3000000cfUL, 0x0000e3c000000000UL, 0x0000e3c000000000UL, 0x0000e3c000000000UL,
  0x0000e3c000000000UL, 0x0000e3c000000000UL, 0x0000e3c000000000UL, 0x0000e3c000000000UL,
  0x0000e3a9027a030cUL, 0x0000e369ff53ff2bUL, 0x0000e39eff00ff77UL, 0x0000e4c0fccd0000UL,
  0x0000fbdadd9f054aUL, 0x00001c1bbaef09f5UL, 0x0000bcf3055502abUL, 0x000088a82855ffbcUL,
  0x0000834028000000UL, 0x00009f8020000000UL, 0x00009fc020000000UL, 0x0000a00020000000UL,
  0x0000a04020000000UL, 0x0000820028000000UL, 0x0000a0c020000000UL, 0x0000a0c020000000UL,
  0x38007c0000802121UL, 0x380201230008c000UL, 0x001e001e3432d580UL, 0x000005a000300008UL,
  0x0000000200000018UL, 0x0000002400000000UL, 0x380c004200100000UL, 0x0000000700000006UL,
  0x00000060380d0043UL, 0x3811004334337e7fUL, 0x0000000000000000UL, 0x28007c00008020a1UL,
  0x280200430008c184UL, 0x000144007076f500UL, 0x00000000280500c3UL, 0x0000000000000000UL,
  0x0000002400000000UL, 0x280c004200100000UL, 0x0000000700000006UL, 0x00000001280d0043UL,
